unsigned char my_custom_model_quantized_tflite[] = {
  0x1c, 0x00, 0x00, 0x00, 0x54, 0x46, 0x4c, 0x33, 0x14, 0x00, 0x20, 0x00,
  0x1c, 0x00, 0x18, 0x00, 0x14, 0x00, 0x10, 0x00, 0x0c, 0x00, 0x00, 0x00,
  0x08, 0x00, 0x04, 0x00, 0x14, 0x00, 0x00, 0x00, 0x1c, 0x00, 0x00, 0x00,
  0x8c, 0x00, 0x00, 0x00, 0xe4, 0x00, 0x00, 0x00, 0xc0, 0x0b, 0x00, 0x00,
  0xd0, 0x0b, 0x00, 0x00, 0xfc, 0x1f, 0x00, 0x00, 0x03, 0x00, 0x00, 0x00,
  0x01, 0x00, 0x00, 0x00, 0x04, 0x00, 0x00, 0x00, 0xa2, 0xf1, 0xff, 0xff,
  0x0c, 0x00, 0x00, 0x00, 0x1c, 0x00, 0x00, 0x00, 0x3c, 0x00, 0x00, 0x00,
  0x0f, 0x00, 0x00, 0x00, 0x73, 0x65, 0x72, 0x76, 0x69, 0x6e, 0x67, 0x5f,
  0x64, 0x65, 0x66, 0x61, 0x75, 0x6c, 0x74, 0x00, 0x01, 0x00, 0x00, 0x00,
  0x04, 0x00, 0x00, 0x00, 0x90, 0xff, 0xff, 0xff, 0x1d, 0x00, 0x00, 0x00,
  0x04, 0x00, 0x00, 0x00, 0x08, 0x00, 0x00, 0x00, 0x64, 0x65, 0x6e, 0x73,
  0x65, 0x5f, 0x37, 0x34, 0x00, 0x00, 0x00, 0x00, 0x01, 0x00, 0x00, 0x00,
  0x04, 0x00, 0x00, 0x00, 0xaa, 0xf1, 0xff, 0xff, 0x04, 0x00, 0x00, 0x00,
  0x0d, 0x00, 0x00, 0x00, 0x52, 0x65, 0x73, 0x68, 0x61, 0x70, 0x65, 0x5f,
  0x69, 0x6e, 0x70, 0x75, 0x74, 0x00, 0x00, 0x00, 0x02, 0x00, 0x00, 0x00,
  0x34, 0x00, 0x00, 0x00, 0x04, 0x00, 0x00, 0x00, 0xdc, 0xff, 0xff, 0xff,
  0x20, 0x00, 0x00, 0x00, 0x04, 0x00, 0x00, 0x00, 0x13, 0x00, 0x00, 0x00,
  0x43, 0x4f, 0x4e, 0x56, 0x45, 0x52, 0x53, 0x49, 0x4f, 0x4e, 0x5f, 0x4d,
  0x45, 0x54, 0x41, 0x44, 0x41, 0x54, 0x41, 0x00, 0x08, 0x00, 0x0c, 0x00,
  0x08, 0x00, 0x04, 0x00, 0x08, 0x00, 0x00, 0x00, 0x1f, 0x00, 0x00, 0x00,
  0x04, 0x00, 0x00, 0x00, 0x13, 0x00, 0x00, 0x00, 0x6d, 0x69, 0x6e, 0x5f,
  0x72, 0x75, 0x6e, 0x74, 0x69, 0x6d, 0x65, 0x5f, 0x76, 0x65, 0x72, 0x73,
  0x69, 0x6f, 0x6e, 0x00, 0x21, 0x00, 0x00, 0x00, 0xd8, 0x0a, 0x00, 0x00,
  0xd0, 0x0a, 0x00, 0x00, 0xbc, 0x0a, 0x00, 0x00, 0xa8, 0x0a, 0x00, 0x00,
  0x94, 0x0a, 0x00, 0x00, 0x8c, 0x0a, 0x00, 0x00, 0x74, 0x0a, 0x00, 0x00,
  0x54, 0x0a, 0x00, 0x00, 0x34, 0x0a, 0x00, 0x00, 0x04, 0x0a, 0x00, 0x00,
  0xd4, 0x09, 0x00, 0x00, 0xa4, 0x02, 0x00, 0x00, 0x84, 0x02, 0x00, 0x00,
  0x74, 0x01, 0x00, 0x00, 0x54, 0x01, 0x00, 0x00, 0x04, 0x01, 0x00, 0x00,
  0xfc, 0x00, 0x00, 0x00, 0xf4, 0x00, 0x00, 0x00, 0xec, 0x00, 0x00, 0x00,
  0xe4, 0x00, 0x00, 0x00, 0xdc, 0x00, 0x00, 0x00, 0xd4, 0x00, 0x00, 0x00,
  0xcc, 0x00, 0x00, 0x00, 0xc4, 0x00, 0x00, 0x00, 0xbc, 0x00, 0x00, 0x00,
  0xb4, 0x00, 0x00, 0x00, 0xac, 0x00, 0x00, 0x00, 0xa4, 0x00, 0x00, 0x00,
  0x9c, 0x00, 0x00, 0x00, 0x94, 0x00, 0x00, 0x00, 0x8c, 0x00, 0x00, 0x00,
  0x6c, 0x00, 0x00, 0x00, 0x04, 0x00, 0x00, 0x00, 0xaa, 0xf2, 0xff, 0xff,
  0x04, 0x00, 0x00, 0x00, 0x58, 0x00, 0x00, 0x00, 0x0c, 0x00, 0x00, 0x00,
  0x08, 0x00, 0x0e, 0x00, 0x08, 0x00, 0x04, 0x00, 0x08, 0x00, 0x00, 0x00,
  0x10, 0x00, 0x00, 0x00, 0x28, 0x00, 0x00, 0x00, 0x00, 0x00, 0x06, 0x00,
  0x08, 0x00, 0x04, 0x00, 0x06, 0x00, 0x00, 0x00, 0x04, 0x00, 0x00, 0x00,
  0x01, 0x00, 0x00, 0x00, 0xeb, 0x03, 0x00, 0x00, 0x00, 0x00, 0x0a, 0x00,
  0x10, 0x00, 0x0c, 0x00, 0x08, 0x00, 0x04, 0x00, 0x0a, 0x00, 0x00, 0x00,
  0x02, 0x00, 0x00, 0x00, 0x02, 0x00, 0x00, 0x00, 0x04, 0x00, 0x00, 0x00,
  0x06, 0x00, 0x00, 0x00, 0x32, 0x2e, 0x31, 0x31, 0x2e, 0x30, 0x00, 0x00,
  0x0e, 0xf3, 0xff, 0xff, 0x04, 0x00, 0x00, 0x00, 0x10, 0x00, 0x00, 0x00,
  0x31, 0x2e, 0x31, 0x34, 0x2e, 0x30, 0x00, 0x00, 0x00, 0x00, 0x00, 0x00,
  0x00, 0x00, 0x00, 0x00, 0x1c, 0xe2, 0xff, 0xff, 0x20, 0xe2, 0xff, 0xff,
  0x24, 0xe2, 0xff, 0xff, 0x28, 0xe2, 0xff, 0xff, 0x2c, 0xe2, 0xff, 0xff,
  0x30, 0xe2, 0xff, 0xff, 0x34, 0xe2, 0xff, 0xff, 0x38, 0xe2, 0xff, 0xff,
  0x3c, 0xe2, 0xff, 0xff, 0x40, 0xe2, 0xff, 0xff, 0x44, 0xe2, 0xff, 0xff,
  0x48, 0xe2, 0xff, 0xff, 0x4c, 0xe2, 0xff, 0xff, 0x50, 0xe2, 0xff, 0xff,
  0x54, 0xe2, 0xff, 0xff, 0x66, 0xf3, 0xff, 0xff, 0x04, 0x00, 0x00, 0x00,
  0x40, 0x00, 0x00, 0x00, 0xa4, 0xb1, 0x3b, 0x4e, 0x06, 0x81, 0x0c, 0x26,
  0xc1, 0xcb, 0xd5, 0x5d, 0x1d, 0xac, 0x2c, 0x51, 0x2b, 0x3f, 0x0d, 0x36,
  0x51, 0x7e, 0xf3, 0x3b, 0x2c, 0x7f, 0x40, 0xb3, 0x44, 0x31, 0xfa, 0xd1,
  0x20, 0x78, 0xe4, 0xd2, 0x02, 0x7f, 0x07, 0x1b, 0xc8, 0x6f, 0x05, 0xcd,
  0xc6, 0xe0, 0xb8, 0xfc, 0xe3, 0x7f, 0x1c, 0xed, 0x09, 0x6b, 0xeb, 0x08,
  0xcc, 0x5c, 0x17, 0xeb, 0x0e, 0x45, 0x1a, 0x05, 0xb2, 0xf3, 0xff, 0xff,
  0x04, 0x00, 0x00, 0x00, 0x10, 0x00, 0x00, 0x00, 0x8c, 0x17, 0x00, 0x00,
  0x47, 0x0e, 0x00, 0x00, 0x47, 0xfb, 0xff, 0xff, 0x68, 0x0d, 0x00, 0x00,
  0xce, 0xf3, 0xff, 0xff, 0x04, 0x00, 0x00, 0x00, 0x00, 0x01, 0x00, 0x00,
  0x33, 0x1f, 0xdf, 0xb2, 0x9e, 0x18, 0x1c, 0x3a, 0x07, 0xb0, 0x4b, 0xd8,
  0x1f, 0x31, 0x02, 0x10, 0xcd, 0x0f, 0xf9, 0xf3, 0x05, 0xfa, 0x57, 0x75,
  0xbb, 0xbe, 0x4b, 0x12, 0x01, 0x06, 0x02, 0x01, 0xb0, 0xce, 0x22, 0x47,
  0xc3, 0x54, 0x66, 0x7a, 0xee, 0xe1, 0xce, 0xc9, 0x3b, 0xcd, 0xd9, 0x12,
  0xdf, 0xc3, 0xf3, 0x22, 0x81, 0x72, 0x18, 0x21, 0xbb, 0xf5, 0xe5, 0x07,
  0x44, 0xde, 0x3a, 0x1c, 0xc6, 0xfa, 0xef, 0xcc, 0x40, 0x19, 0xec, 0x22,
  0xfb, 0xfb, 0x0f, 0xb9, 0xff, 0x3a, 0xb9, 0xf2, 0xe4, 0xf2, 0xe9, 0x2a,
  0x55, 0xd6, 0x6a, 0xc5, 0x3a, 0xdc, 0x2d, 0xe8, 0x3b, 0xee, 0x30, 0x0c,
  0xe2, 0xef, 0x07, 0x10, 0x39, 0x92, 0x12, 0x96, 0xbf, 0xb9, 0x2e, 0x30,
  0xee, 0xf2, 0xe9, 0x1f, 0xe9, 0x0f, 0xcd, 0xf5, 0x7f, 0x8a, 0x19, 0xa3,
  0xbe, 0xcd, 0x1a, 0xe7, 0xfe, 0xd4, 0x39, 0x3b, 0x24, 0xf6, 0xf1, 0x24,
  0x7e, 0xb8, 0x5a, 0xec, 0xb0, 0x03, 0xf2, 0xc3, 0x49, 0xd4, 0x43, 0x05,
  0xec, 0xb9, 0xda, 0x38, 0x0e, 0xcd, 0xfc, 0x81, 0xc3, 0x10, 0xbc, 0xe0,
  0x3d, 0xb0, 0x13, 0x25, 0xe7, 0xbf, 0xf3, 0xcf, 0x56, 0xdb, 0x54, 0x82,
  0x04, 0xf7, 0x3f, 0x09, 0x1c, 0x29, 0xcc, 0xd5, 0xc5, 0x11, 0xca, 0x4d,
  0x77, 0xbf, 0x3b, 0x8d, 0x07, 0x41, 0xd4, 0x23, 0x0a, 0x33, 0xb2, 0x3b,
  0x44, 0xb9, 0xee, 0x00, 0x37, 0x5a, 0x81, 0x09, 0xcd, 0x40, 0xe3, 0x3f,
  0xf2, 0xf6, 0x48, 0xd2, 0x20, 0x3b, 0x1c, 0x31, 0x2d, 0xf0, 0x84, 0x47,
  0xfd, 0xc3, 0x27, 0x35, 0xf4, 0xce, 0xc0, 0xd1, 0x2f, 0xc9, 0xfc, 0x32,
  0xe9, 0x34, 0xd6, 0x41, 0x37, 0x46, 0x1a, 0xc4, 0x39, 0x36, 0x24, 0xf6,
  0x0c, 0xd4, 0xe5, 0xc1, 0xe1, 0x4b, 0x99, 0xf3, 0x2c, 0xd1, 0x28, 0xde,
  0x1c, 0x33, 0xc8, 0x41, 0xda, 0xf4, 0xff, 0xff, 0x04, 0x00, 0x00, 0x00,
  0x10, 0x00, 0x00, 0x00, 0xd2, 0xef, 0xff, 0xff, 0xaa, 0x12, 0x00, 0x00,
  0xc2, 0x1d, 0x00, 0x00, 0x2f, 0x18, 0x00, 0x00, 0xf6, 0xf4, 0xff, 0xff,
  0x04, 0x00, 0x00, 0x00, 0x20, 0x07, 0x00, 0x00, 0x02, 0x1b, 0x11, 0x0d,
  0x27, 0x00, 0x01, 0x4e, 0x09, 0xf7, 0x21, 0x2c, 0xfc, 0x0d, 0xf8, 0x29,
  0x2e, 0xd0, 0xde, 0x1e, 0xf4, 0x10, 0xf8, 0x4b, 0x10, 0xf4, 0xe3, 0x14,
  0xff, 0x11, 0x10, 0x54, 0x15, 0xb7, 0xce, 0x42, 0x05, 0xdf, 0xbf, 0x1b,
  0x19, 0xca, 0xb9, 0x3d, 0x1f, 0xff, 0xe1, 0x32, 0x34, 0xc2, 0x12, 0x02,
  0xe6, 0x0d, 0xce, 0x0b, 0xe1, 0xa9, 0xbb, 0x1c, 0x10, 0xb9, 0x02, 0x44,
  0x21, 0xcb, 0xb1, 0x1d, 0x19, 0x08, 0xdc, 0x01, 0xf8, 0xbe, 0xf9, 0x1d,
  0x12, 0xd6, 0x00, 0xfa, 0x0d, 0xfb, 0x08, 0x3d, 0x0c, 0xbc, 0xb3, 0x1e,
  0x0b, 0xd1, 0x04, 0x0b, 0x19, 0xe3, 0xea, 0x40, 0x2c, 0x01, 0x0e, 0xfb,
  0x17, 0xd7, 0xed, 0x52, 0xce, 0xd7, 0xed, 0x2d, 0x1c, 0xf9, 0xe7, 0x0c,
  0xf2, 0xc1, 0xd7, 0x2a, 0xa4, 0xe9, 0xbb, 0x53, 0xda, 0xb1, 0xb0, 0x43,
  0x95, 0xd4, 0xbb, 0x4c, 0xbf, 0xdb, 0xe5, 0x12, 0xc3, 0xbb, 0xd2, 0x42,
  0xd2, 0xca, 0xcc, 0x20, 0xa5, 0xe1, 0xcc, 0x4a, 0xa8, 0xe8, 0xdf, 0x1c,
  0xe8, 0xa5, 0xbd, 0x3d, 0xc2, 0xa4, 0xdd, 0x5a, 0xec, 0xd4, 0xc5, 0x25,
  0xb7, 0xc4, 0xf0, 0x1e, 0xdc, 0xa2, 0xaa, 0x2a, 0xe9, 0xbb, 0x9b, 0x41,
  0xed, 0xa8, 0xe8, 0x5a, 0x9a, 0xb0, 0xd1, 0x5a, 0xc4, 0xd5, 0xa4, 0x48,
  0xd9, 0xc0, 0xc9, 0x21, 0xd6, 0xab, 0xbf, 0x31, 0xf2, 0xa4, 0xc3, 0x0c,
  0xaa, 0x9f, 0xdb, 0x26, 0xde, 0xa0, 0xd2, 0x5a, 0xd3, 0xb5, 0xa9, 0x14,
  0xe9, 0xb6, 0xca, 0x03, 0xd9, 0xab, 0x88, 0x3f, 0xad, 0xbb, 0xdf, 0x5d,
  0x9e, 0x9c, 0xf1, 0x1e, 0xa8, 0x19, 0xe7, 0x2b, 0x00, 0xf5, 0x07, 0xe8,
  0x16, 0x47, 0x16, 0xc9, 0x40, 0x0c, 0x0f, 0xba, 0x03, 0x41, 0x0b, 0xd1,
  0x1a, 0x51, 0xfd, 0xe7, 0x24, 0x0f, 0x18, 0xea, 0x15, 0x03, 0x17, 0xbe,
  0x34, 0xfa, 0x34, 0x04, 0x3d, 0x57, 0x0a, 0x05, 0x29, 0x00, 0x4a, 0xd4,
  0x41, 0x07, 0x2f, 0xf9, 0x2f, 0x35, 0x41, 0xc6, 0x2b, 0x55, 0x2e, 0xeb,
  0x39, 0x38, 0x00, 0xc4, 0x37, 0x3b, 0x0e, 0xbd, 0x2b, 0x29, 0xfe, 0x0c,
  0x15, 0xfa, 0x33, 0xe5, 0x50, 0x4e, 0x02, 0xd1, 0x35, 0x10, 0x31, 0x00,
  0x23, 0x1c, 0x0a, 0xb8, 0x53, 0x1b, 0x5c, 0xf0, 0x4d, 0x4e, 0x11, 0xb8,
  0x37, 0x16, 0x33, 0xe4, 0x3b, 0x4b, 0x1b, 0xf8, 0x38, 0x3d, 0x07, 0x12,
  0x29, 0x3a, 0x43, 0xb1, 0x27, 0x59, 0x4a, 0x01, 0x13, 0x1f, 0x26, 0xe2,
  0x3c, 0x31, 0xf6, 0xd9, 0xf1, 0x07, 0xca, 0xfe, 0xcd, 0xc5, 0xc7, 0xf4,
  0xae, 0xd7, 0xd3, 0x0e, 0xe3, 0xb4, 0x11, 0xd3, 0xfa, 0xf1, 0x02, 0x01,
  0xb5, 0xee, 0x06, 0xc9, 0xf3, 0xd2, 0xef, 0xef, 0xde, 0xeb, 0xfc, 0x0b,
  0x9b, 0x03, 0xc0, 0xd1, 0xd5, 0xcf, 0xb5, 0x0b, 0xa0, 0xfc, 0xb6, 0x0a,
  0xdf, 0xb3, 0xeb, 0x17, 0xe0, 0xee, 0xfb, 0xdc, 0xab, 0xc9, 0xd9, 0xe9,
  0xde, 0xee, 0xcc, 0x1c, 0xf6, 0xc2, 0x00, 0x17, 0xca, 0xf9, 0xbe, 0xec,
  0xc4, 0xe1, 0xc4, 0x1a, 0xd5, 0xea, 0xdf, 0xc5, 0xed, 0xaa, 0xb8, 0x02,
  0xe8, 0xc6, 0xe0, 0xd6, 0xeb, 0xb7, 0xdd, 0xdd, 0xdb, 0xea, 0xfe, 0xd2,
  0xd3, 0x02, 0xf5, 0xcb, 0xcf, 0xdb, 0xd5, 0xe2, 0xa8, 0xe9, 0xd1, 0xe9,
  0xda, 0xcc, 0xbd, 0x03, 0xcf, 0xd2, 0xd3, 0xdc, 0x06, 0x43, 0x34, 0xcf,
  0x5e, 0x05, 0x11, 0xba, 0x52, 0x19, 0x38, 0xd3, 0xff, 0x24, 0x18, 0xef,
  0x49, 0x1f, 0x07, 0xe8, 0x26, 0x48, 0x44, 0xfb, 0x2d, 0x57, 0xfe, 0xb2,
  0xfe, 0x18, 0x18, 0x02, 0x4b, 0x27, 0x01, 0xb1, 0x34, 0x31, 0x5b, 0xb7,
  0x46, 0x1f, 0x28, 0xb6, 0x28, 0x1b, 0x3e, 0xcf, 0x54, 0x41, 0x26, 0x08,
  0x2f, 0x49, 0x1a, 0xb4, 0x16, 0x11, 0x26, 0xcb, 0x45, 0x54, 0x3a, 0xe4,
  0x46, 0x18, 0x5d, 0xb5, 0x28, 0x26, 0x61, 0xfe, 0x36, 0x16, 0x5c, 0xf6,
  0x4c, 0x42, 0x08, 0x02, 0x29, 0x64, 0x6b, 0xf5, 0x0b, 0x58, 0x39, 0xc5,
  0x03, 0x18, 0x28, 0xf5, 0x01, 0x38, 0x07, 0xe4, 0x51, 0x39, 0x5e, 0x0e,
  0x48, 0x1f, 0x0a, 0xdc, 0x13, 0x4f, 0x32, 0xf6, 0x06, 0x21, 0x1d, 0xca,
  0x06, 0x09, 0x59, 0x13, 0xd6, 0x0c, 0x26, 0xaf, 0xcf, 0x15, 0x37, 0xc0,
  0xf4, 0x33, 0xeb, 0x02, 0xd2, 0x57, 0xff, 0xc5, 0x13, 0x2f, 0x28, 0xb8,
  0xdd, 0x5c, 0xfb, 0xfc, 0x15, 0x27, 0x0b, 0xb4, 0x15, 0x53, 0x5b, 0xcf,
  0x19, 0x5e, 0x18, 0xde, 0x1c, 0x4b, 0xfd, 0x09, 0xfb, 0x31, 0x23, 0xbd,
  0xe5, 0x08, 0x12, 0xce, 0xe0, 0x1b, 0xf5, 0x00, 0x21, 0x18, 0x21, 0xff,
  0xd8, 0x5b, 0x36, 0xde, 0xd2, 0x03, 0x49, 0x0d, 0xd6, 0x65, 0x0a, 0xf7,
  0xd0, 0x27, 0x2f, 0x0e, 0xea, 0x46, 0x01, 0x04, 0xc9, 0x37, 0x34, 0xc6,
  0xe2, 0x2f, 0x50, 0x0c, 0x18, 0x2a, 0x46, 0xcf, 0xfe, 0x4d, 0x46, 0x07,
  0x05, 0x1b, 0x11, 0x06, 0xfc, 0x1a, 0x02, 0xc7, 0xfd, 0x10, 0x09, 0xeb,
  0x23, 0x1e, 0x46, 0xfc, 0xf7, 0xef, 0x2b, 0xeb, 0xc2, 0xea, 0x00, 0x10,
  0xc2, 0xfb, 0xff, 0x1b, 0x0f, 0xfb, 0xf9, 0x2c, 0xe2, 0xed, 0xec, 0xfb,
  0xf2, 0xf7, 0xee, 0x08, 0xe6, 0xaa, 0xb2, 0xe1, 0xc7, 0xde, 0xfe, 0x0f,
  0xbf, 0xb7, 0xd4, 0x2a, 0x0c, 0xc8, 0xfe, 0x21, 0x08, 0xf3, 0x9f, 0x17,
  0xea, 0xf7, 0xc2, 0x38, 0xf9, 0xd7, 0xa4, 0x13, 0xc4, 0xcc, 0xe3, 0x36,
  0xcc, 0xcf, 0xe2, 0x2e, 0xdf, 0xd0, 0xe1, 0x32, 0xf1, 0xca, 0xd3, 0xfd,
  0x01, 0xb7, 0xa9, 0xe4, 0x02, 0xaa, 0xd1, 0xf8, 0xda, 0xd3, 0xfb, 0x00,
  0xe5, 0xdc, 0xc1, 0x1a, 0xee, 0xb3, 0xd4, 0x22, 0xef, 0xce, 0xd3, 0x1f,
  0xb8, 0xb5, 0x96, 0xf8, 0xaf, 0xe3, 0xf4, 0x1a, 0xf7, 0xd6, 0x00, 0x39,
  0xfa, 0xe7, 0xbb, 0xf1, 0xc7, 0xef, 0xeb, 0x07, 0xf6, 0xea, 0xa7, 0x3a,
  0x1c, 0x09, 0x18, 0xf7, 0x40, 0x1f, 0x02, 0xfb, 0x2f, 0x41, 0x39, 0xf4,
  0x38, 0x38, 0xfd, 0xd3, 0x3a, 0x43, 0x33, 0xdc, 0x72, 0x1a, 0xfc, 0x07,
  0x32, 0xfc, 0x50, 0x24, 0x62, 0x18, 0x0d, 0xc1, 0x61, 0x47, 0x49, 0x0c,
  0x25, 0x1a, 0x20, 0xf8, 0x4b, 0x0c, 0x42, 0x00, 0x49, 0xfa, 0x3e, 0xbc,
  0x74, 0x40, 0x22, 0xf8, 0x39, 0xfa, 0x13, 0x07, 0x65, 0xff, 0x3d, 0xe2,
  0x3e, 0x2e, 0x0e, 0x1f, 0x5f, 0x2d, 0x19, 0xc8, 0x3f, 0x37, 0x5a, 0xd4,
  0x41, 0x2b, 0x45, 0xc7, 0x19, 0x2e, 0x37, 0x18, 0x57, 0x10, 0x50, 0xe0,
  0x34, 0x55, 0x22, 0xd4, 0x45, 0xf9, 0x27, 0x0a, 0x2b, 0x53, 0x4b, 0xf3,
  0x33, 0x5f, 0x60, 0x00, 0x2a, 0x11, 0x1a, 0x19, 0x56, 0x2d, 0x5f, 0xce,
  0x45, 0x0d, 0x46, 0x25, 0x72, 0xe1, 0xe5, 0xd6, 0x0d, 0x09, 0x13, 0xb1,
  0x1c, 0xe5, 0xd7, 0xf2, 0x0d, 0xec, 0x04, 0xdb, 0xe0, 0xe1, 0xee, 0xf9,
  0xe9, 0xf2, 0xee, 0xeb, 0xe4, 0x0b, 0xf1, 0xf6, 0xef, 0x28, 0xcc, 0xc9,
  0xfd, 0x09, 0xfe, 0xa8, 0x0f, 0x1f, 0xf8, 0xfd, 0xcc, 0xfb, 0x1e, 0xcb,
  0xd9, 0x0d, 0x16, 0xb6, 0x08, 0x12, 0x1b, 0xb5, 0x12, 0x2c, 0xc3, 0xeb,
  0x00, 0xed, 0x00, 0xb5, 0x11, 0xfd, 0xf4, 0xf4, 0xe5, 0xf0, 0x0c, 0x0f,
  0xfd, 0xdf, 0x28, 0xc8, 0xf7, 0x0d, 0xf5, 0xe1, 0x10, 0xee, 0xfc, 0xe2,
  0xed, 0x39, 0x01, 0xf2, 0x11, 0x40, 0xe1, 0x06, 0x10, 0x00, 0xed, 0xed,
  0x1d, 0xe5, 0xd3, 0xdd, 0xf8, 0x2d, 0xe4, 0xff, 0xc4, 0x0a, 0xe3, 0x06,
  0x19, 0x26, 0xf6, 0xad, 0xef, 0x21, 0xd0, 0xda, 0xe8, 0x26, 0x20, 0xeb,
  0x21, 0x4d, 0x51, 0x06, 0x33, 0x53, 0x3b, 0xde, 0x46, 0x4c, 0x2b, 0xad,
  0x49, 0x44, 0x59, 0xd0, 0x31, 0x4a, 0x36, 0xa3, 0x53, 0x42, 0x3b, 0xb7,
  0x3b, 0x26, 0x27, 0xf0, 0x5a, 0x3d, 0x63, 0xa5, 0x60, 0x52, 0x65, 0xf1,
  0x3f, 0x52, 0x24, 0xc3, 0x28, 0x4f, 0x10, 0xe1, 0x52, 0x45, 0x56, 0xb7,
  0x38, 0x4d, 0x51, 0xb1, 0x2d, 0x19, 0x29, 0x9d, 0x26, 0x25, 0x4b, 0xda,
  0x15, 0x24, 0x5c, 0xf2, 0x70, 0x30, 0x0f, 0xf3, 0x1e, 0x2d, 0x58, 0xce,
  0x42, 0x6e, 0x6a, 0xab, 0x45, 0x32, 0x34, 0xbb, 0x38, 0x72, 0x4a, 0xce,
  0x52, 0x12, 0x2d, 0xde, 0x5b, 0x64, 0x4f, 0xec, 0x39, 0x1b, 0x2e, 0xf9,
  0x18, 0x3d, 0x52, 0xfb, 0x3e, 0x58, 0x42, 0xab, 0x6c, 0x53, 0x53, 0xd7,
  0x14, 0x45, 0x2e, 0xc8, 0x61, 0xf2, 0x23, 0xb7, 0x2e, 0xcc, 0xff, 0xff,
  0xdf, 0xc8, 0xbe, 0x1c, 0x06, 0xf8, 0xd0, 0x0a, 0xfb, 0xbd, 0xfa, 0xdb,
  0x48, 0xaa, 0x06, 0x18, 0x28, 0xad, 0x03, 0xfa, 0xe9, 0xbf, 0xfe, 0x19,
  0x22, 0xfc, 0x0f, 0x14, 0x3a, 0x06, 0xae, 0x1a, 0x41, 0xfb, 0xbf, 0xfa,
  0x26, 0xa3, 0xbb, 0xe9, 0x25, 0x02, 0x06, 0x22, 0x20, 0xa5, 0x01, 0x10,
  0xfe, 0xf1, 0xee, 0xff, 0x2a, 0xe2, 0xc1, 0x14, 0x25, 0x07, 0xea, 0x00,
  0x10, 0xd9, 0xa9, 0xe2, 0xf5, 0xc2, 0xbe, 0xfd, 0x26, 0x01, 0xed, 0x1a,
  0x24, 0xdb, 0xf7, 0x00, 0x05, 0x02, 0xd0, 0x01, 0x07, 0xfa, 0xcd, 0x0d,
  0x02, 0xe0, 0xcf, 0xe3, 0xf5, 0xaf, 0xe6, 0xce, 0x39, 0x00, 0xaf, 0x19,
  0x33, 0xd4, 0x04, 0xe4, 0x04, 0xf8, 0xa4, 0xf6, 0xf8, 0xa4, 0xb6, 0x24,
  0x21, 0xbf, 0xfa, 0xc2, 0xe2, 0xf1, 0xa5, 0xed, 0xc4, 0xb8, 0xa8, 0x0c,
  0xc5, 0xbb, 0xa2, 0xdf, 0x0f, 0xa7, 0xc1, 0xca, 0x22, 0xf4, 0xbb, 0xf1,
  0x0a, 0xf6, 0xc5, 0x00, 0xe2, 0xc8, 0x9d, 0xef, 0x0a, 0xca, 0xb6, 0x00,
  0xcf, 0xc2, 0xed, 0xed, 0xbf, 0xa8, 0xaf, 0x26, 0xf3, 0xb2, 0xa8, 0x2b,
  0x10, 0xa4, 0xd2, 0x22, 0x0a, 0x98, 0xba, 0x22, 0xd7, 0x99, 0xaf, 0xcb,
  0xce, 0xc9, 0xce, 0xe6, 0xf3, 0xa9, 0xce, 0xce, 0x06, 0xf7, 0x9f, 0x22,
  0xd2, 0xd0, 0xdf, 0x27, 0xd0, 0xc9, 0xd3, 0x09, 0xf6, 0xd7, 0xdd, 0xff,
  0xd2, 0xac, 0xd8, 0xd3, 0xc9, 0xee, 0xbe, 0xf9, 0xd9, 0xfb, 0xa6, 0xde,
  0xdb, 0xa4, 0x9d, 0x21, 0xd2, 0xe6, 0xde, 0x29, 0x1f, 0x99, 0x93, 0xd4,
  0xf6, 0xf7, 0xaf, 0x13, 0xf3, 0xc2, 0xea, 0x18, 0xd6, 0xbb, 0xcd, 0x3c,
  0xbd, 0xfe, 0xc2, 0x13, 0xfe, 0xf5, 0xe4, 0x1a, 0x07, 0xe1, 0xcb, 0x3f,
  0xc2, 0xaa, 0xb0, 0x54, 0xde, 0xe7, 0xa1, 0x24, 0x07, 0xd1, 0xcd, 0x3c,
  0xcb, 0xa9, 0xff, 0x33, 0xcb, 0xfb, 0xb0, 0x08, 0xe3, 0xa0, 0xf5, 0x36,
  0xce, 0xd2, 0xd2, 0xf7, 0xcb, 0xd0, 0xae, 0x54, 0xe4, 0xd5, 0xef, 0x24,
  0xd4, 0xdd, 0xe4, 0x3a, 0x04, 0xef, 0xf3, 0x0f, 0xda, 0x04, 0xf0, 0xf4,
  0x06, 0xb9, 0xa3, 0x24, 0xd3, 0xd6, 0xd1, 0x06, 0xaf, 0xc8, 0xde, 0x3e,
  0xcf, 0xb2, 0xa8, 0x3f, 0xaf, 0xcb, 0xe5, 0x02, 0xfb, 0xb8, 0xd4, 0xfd,
  0xd0, 0xea, 0xa1, 0x47, 0x00, 0xba, 0xe7, 0x41, 0xd1, 0xa6, 0xa9, 0x08,
  0xfc, 0xf1, 0xbb, 0x02, 0xf3, 0xbf, 0xca, 0x53, 0xf0, 0xa3, 0xa8, 0xf2,
  0xd8, 0xcd, 0x02, 0x40, 0x27, 0xf3, 0x14, 0x3a, 0x3f, 0x1e, 0x1a, 0xf1,
  0x22, 0x12, 0xfe, 0xff, 0x31, 0x16, 0xf6, 0x02, 0x0e, 0xe1, 0x18, 0x03,
  0x40, 0x0a, 0xf0, 0x40, 0x38, 0x04, 0x12, 0x03, 0x3e, 0xed, 0xfd, 0x3c,
  0x12, 0xcd, 0x04, 0x15, 0x09, 0x1a, 0xcf, 0x39, 0x56, 0xff, 0xdc, 0x3f,
  0x08, 0x1d, 0xe1, 0x26, 0x5b, 0xdc, 0x20, 0x45, 0x4b, 0xcc, 0x29, 0x47,
  0x07, 0x1b, 0x16, 0xfb, 0x50, 0x17, 0xf7, 0x41, 0x4d, 0xee, 0x07, 0xfc,
  0x10, 0x10, 0xdb, 0xf8, 0x16, 0xf8, 0xe9, 0xf3, 0x34, 0xee, 0xd8, 0x39,
  0x1b, 0xdd, 0x15, 0x4a, 0x0f, 0xe9, 0x2e, 0xf2, 0x3b, 0xe8, 0x15, 0x48,
  0x11, 0x25, 0xda, 0x34, 0x55, 0x21, 0xec, 0x13, 0x55, 0x06, 0xec, 0x1a,
  0x56, 0x22, 0xed, 0xf6, 0x13, 0x03, 0x2b, 0x3e, 0x09, 0x4b, 0x1f, 0xb5,
  0x17, 0x55, 0x1f, 0x05, 0x01, 0x44, 0xf6, 0xdb, 0x4d, 0x1b, 0x3c, 0xfa,
  0x11, 0x57, 0x2d, 0xbe, 0xfb, 0x06, 0x44, 0xdc, 0x40, 0x11, 0x1a, 0x09,
  0x0c, 0x4e, 0xfb, 0xae, 0x47, 0x16, 0x34, 0xc1, 0x40, 0x3f, 0x1b, 0xe4,
  0x29, 0x4f, 0x12, 0x07, 0x42, 0x24, 0x42, 0xab, 0x22, 0x11, 0x5b, 0xea,
  0x3e, 0x46, 0x49, 0xc8, 0xfc, 0x55, 0x2a, 0xe5, 0x0e, 0x08, 0x1d, 0x0e,
  0x2d, 0x1f, 0x40, 0xf2, 0x31, 0x29, 0x5a, 0xfc, 0x0f, 0x40, 0xfe, 0xd8,
  0x00, 0x36, 0x42, 0xc6, 0xf1, 0x60, 0x52, 0x08, 0x39, 0x43, 0x0f, 0xee,
  0x23, 0x2f, 0x2f, 0xad, 0xec, 0x28, 0x09, 0xfe, 0xfe, 0x1a, 0x56, 0xb8,
  0x03, 0x14, 0x1c, 0xe8, 0x40, 0x57, 0x50, 0x0b, 0x10, 0x5a, 0x5a, 0x0c,
  0x3a, 0x1e, 0x19, 0xd3, 0xfc, 0x33, 0x5b, 0xf9, 0x50, 0x39, 0x2e, 0xc2,
  0x03, 0x5a, 0x14, 0xdc, 0x2b, 0x45, 0x41, 0xa8, 0x07, 0x51, 0x39, 0xb8,
  0x4d, 0x56, 0x61, 0x07, 0x05, 0x38, 0x5b, 0xad, 0x35, 0x21, 0x57, 0x02,
  0xfd, 0x71, 0x70, 0xca, 0x52, 0x24, 0x72, 0xbd, 0x2c, 0x63, 0x29, 0xd0,
  0x4e, 0x42, 0x6b, 0xbb, 0x23, 0x3d, 0x7a, 0xdf, 0x01, 0x32, 0x2c, 0xf2,
  0x24, 0x55, 0x4d, 0xff, 0x0a, 0x1f, 0x5e, 0xae, 0x36, 0x61, 0x45, 0xff,
  0x53, 0x53, 0x38, 0xc8, 0x35, 0x3c, 0x21, 0xd6, 0x40, 0x76, 0x4c, 0xbd,
  0x4b, 0x6d, 0x28, 0xe5, 0x09, 0x52, 0x6a, 0xce, 0x25, 0x29, 0x53, 0xf3,
  0x32, 0x47, 0x1c, 0xf1, 0x2c, 0x51, 0x60, 0xb8, 0x1a, 0x65, 0x7f, 0xad,
  0x5d, 0x3f, 0x56, 0xcc, 0x59, 0x21, 0xda, 0xcc, 0x22, 0xfc, 0xff, 0xff,
  0x04, 0x00, 0x00, 0x00, 0x20, 0x00, 0x00, 0x00, 0x06, 0x07, 0x00, 0x00,
  0xc9, 0xfb, 0xff, 0xff, 0x5a, 0xf9, 0xff, 0xff, 0x14, 0xff, 0xff, 0xff,
  0x0f, 0xf7, 0xff, 0xff, 0x1e, 0xfc, 0xff, 0xff, 0x7e, 0x05, 0x00, 0x00,
  0x0b, 0xf9, 0xff, 0xff, 0x4e, 0xfc, 0xff, 0xff, 0x04, 0x00, 0x00, 0x00,
  0x20, 0x00, 0x00, 0x00, 0x85, 0xa7, 0x23, 0x43, 0x54, 0x81, 0x0c, 0x6c,
  0x53, 0xe7, 0xc5, 0x78, 0xed, 0xf7, 0x67, 0xbc, 0xc2, 0x36, 0x3e, 0x5b,
  0x73, 0x22, 0xc3, 0x56, 0x16, 0x62, 0x53, 0xa7, 0xf8, 0xcf, 0xa5, 0x53,
  0x7a, 0xfc, 0xff, 0xff, 0x04, 0x00, 0x00, 0x00, 0x10, 0x00, 0x00, 0x00,
  0xa6, 0x35, 0xe5, 0x81, 0xa0, 0x9e, 0xb1, 0x6c, 0x6c, 0x22, 0x26, 0x84,
  0xea, 0x99, 0x68, 0x15, 0x96, 0xfc, 0xff, 0xff, 0x04, 0x00, 0x00, 0x00,
  0x10, 0x00, 0x00, 0x00, 0x34, 0x00, 0x00, 0x00, 0x43, 0x00, 0x00, 0x00,
  0x12, 0x00, 0x00, 0x00, 0x44, 0xff, 0xff, 0xff, 0xb2, 0xfc, 0xff, 0xff,
  0x04, 0x00, 0x00, 0x00, 0x08, 0x00, 0x00, 0x00, 0xff, 0xff, 0xff, 0xff,
  0xe4, 0x00, 0x00, 0x00, 0xb8, 0xeb, 0xff, 0xff, 0xca, 0xfc, 0xff, 0xff,
  0x04, 0x00, 0x00, 0x00, 0x04, 0x00, 0x00, 0x00, 0x84, 0x03, 0x00, 0x00,
  0xda, 0xfc, 0xff, 0xff, 0x04, 0x00, 0x00, 0x00, 0x04, 0x00, 0x00, 0x00,
  0x01, 0x00, 0x00, 0x00, 0xea, 0xfc, 0xff, 0xff, 0x04, 0x00, 0x00, 0x00,
  0x04, 0x00, 0x00, 0x00, 0x00, 0x00, 0x00, 0x00, 0xec, 0xeb, 0xff, 0xff,
  0xf0, 0xeb, 0xff, 0xff, 0x0f, 0x00, 0x00, 0x00, 0x4d, 0x4c, 0x49, 0x52,
  0x20, 0x43, 0x6f, 0x6e, 0x76, 0x65, 0x72, 0x74, 0x65, 0x64, 0x2e, 0x00,
  0x01, 0x00, 0x00, 0x00, 0x14, 0x00, 0x00, 0x00, 0x00, 0x00, 0x0e, 0x00,
  0x18, 0x00, 0x14, 0x00, 0x10, 0x00, 0x0c, 0x00, 0x08, 0x00, 0x04, 0x00,
  0x0e, 0x00, 0x00, 0x00, 0x14, 0x00, 0x00, 0x00, 0x1c, 0x00, 0x00, 0x00,
  0xac, 0x03, 0x00, 0x00, 0xb0, 0x03, 0x00, 0x00, 0xb4, 0x03, 0x00, 0x00,
  0x04, 0x00, 0x00, 0x00, 0x6d, 0x61, 0x69, 0x6e, 0x00, 0x00, 0x00, 0x00,
  0x0f, 0x00, 0x00, 0x00, 0x74, 0x03, 0x00, 0x00, 0x2c, 0x03, 0x00, 0x00,
  0xcc, 0x02, 0x00, 0x00, 0x84, 0x02, 0x00, 0x00, 0x5c, 0x02, 0x00, 0x00,
  0x00, 0x02, 0x00, 0x00, 0xb0, 0x01, 0x00, 0x00, 0x6c, 0x01, 0x00, 0x00,
  0x2c, 0x01, 0x00, 0x00, 0x04, 0x01, 0x00, 0x00, 0xcc, 0x00, 0x00, 0x00,
  0x94, 0x00, 0x00, 0x00, 0x5c, 0x00, 0x00, 0x00, 0x28, 0x00, 0x00, 0x00,
  0x04, 0x00, 0x00, 0x00, 0xda, 0xfd, 0xff, 0xff, 0x0c, 0x00, 0x00, 0x00,
  0x10, 0x00, 0x00, 0x00, 0x09, 0x00, 0x00, 0x00, 0x01, 0x00, 0x00, 0x00,
  0x1d, 0x00, 0x00, 0x00, 0x01, 0x00, 0x00, 0x00, 0x1c, 0x00, 0x00, 0x00,
  0x3a, 0xfd, 0xff, 0xff, 0x14, 0x00, 0x00, 0x00, 0x00, 0x00, 0x00, 0x09,
  0x14, 0x00, 0x00, 0x00, 0x18, 0x00, 0x00, 0x00, 0x08, 0x00, 0x00, 0x00,
  0xca, 0xfd, 0xff, 0xff, 0x00, 0x00, 0x80, 0x3f, 0x01, 0x00, 0x00, 0x00,
  0x1c, 0x00, 0x00, 0x00, 0x01, 0x00, 0x00, 0x00, 0x1b, 0x00, 0x00, 0x00,
  0x6a, 0xfd, 0xff, 0xff, 0x14, 0x00, 0x00, 0x00, 0x00, 0x00, 0x00, 0x08,
  0x10, 0x00, 0x00, 0x00, 0x14, 0x00, 0x00, 0x00, 0x07, 0x00, 0x00, 0x00,
  0xec, 0xec, 0xff, 0xff, 0x01, 0x00, 0x00, 0x00, 0x1b, 0x00, 0x00, 0x00,
  0x03, 0x00, 0x00, 0x00, 0x1a, 0x00, 0x00, 0x00, 0x07, 0x00, 0x00, 0x00,
  0x06, 0x00, 0x00, 0x00, 0x9e, 0xfd, 0xff, 0xff, 0x14, 0x00, 0x00, 0x00,
  0x00, 0x00, 0x00, 0x08, 0x10, 0x00, 0x00, 0x00, 0x14, 0x00, 0x00, 0x00,
  0x07, 0x00, 0x00, 0x00, 0x20, 0xed, 0xff, 0xff, 0x01, 0x00, 0x00, 0x00,
  0x1a, 0x00, 0x00, 0x00, 0x03, 0x00, 0x00, 0x00, 0x19, 0x00, 0x00, 0x00,
  0x08, 0x00, 0x00, 0x00, 0xff, 0xff, 0xff, 0xff, 0xd2, 0xfd, 0xff, 0xff,
  0x14, 0x00, 0x00, 0x00, 0x00, 0x00, 0x00, 0x08, 0x10, 0x00, 0x00, 0x00,
  0x14, 0x00, 0x00, 0x00, 0x07, 0x00, 0x00, 0x00, 0x54, 0xed, 0xff, 0xff,
  0x01, 0x00, 0x00, 0x00, 0x19, 0x00, 0x00, 0x00, 0x03, 0x00, 0x00, 0x00,
  0x18, 0x00, 0x00, 0x00, 0x0a, 0x00, 0x00, 0x00, 0x09, 0x00, 0x00, 0x00,
  0xc6, 0xfe, 0xff, 0xff, 0x0c, 0x00, 0x00, 0x00, 0x10, 0x00, 0x00, 0x00,
  0x04, 0x00, 0x00, 0x00, 0x01, 0x00, 0x00, 0x00, 0x18, 0x00, 0x00, 0x00,
  0x02, 0x00, 0x00, 0x00, 0x17, 0x00, 0x00, 0x00, 0x05, 0x00, 0x00, 0x00,
  0x2a, 0xfe, 0xff, 0xff, 0x14, 0x00, 0x00, 0x00, 0x00, 0x00, 0x00, 0x05,
  0x20, 0x00, 0x00, 0x00, 0x24, 0x00, 0x00, 0x00, 0x06, 0x00, 0x00, 0x00,
  0x82, 0xff, 0xff, 0xff, 0x04, 0x00, 0x00, 0x00, 0x04, 0x00, 0x00, 0x00,
  0x04, 0x00, 0x00, 0x00, 0x04, 0x00, 0x00, 0x00, 0x01, 0x00, 0x00, 0x00,
  0x17, 0x00, 0x00, 0x00, 0x01, 0x00, 0x00, 0x00, 0x16, 0x00, 0x00, 0x00,
  0x66, 0xfe, 0xff, 0xff, 0x14, 0x00, 0x00, 0x00, 0x00, 0x00, 0x00, 0x01,
  0x1c, 0x00, 0x00, 0x00, 0x20, 0x00, 0x00, 0x00, 0x05, 0x00, 0x00, 0x00,
  0x74, 0xff, 0xff, 0xff, 0x00, 0x00, 0x00, 0x01, 0x01, 0x00, 0x00, 0x00,
  0x01, 0x00, 0x00, 0x00, 0x01, 0x00, 0x00, 0x00, 0x16, 0x00, 0x00, 0x00,
  0x03, 0x00, 0x00, 0x00, 0x15, 0x00, 0x00, 0x00, 0x0c, 0x00, 0x00, 0x00,
  0x0b, 0x00, 0x00, 0x00, 0xa6, 0xfe, 0xff, 0xff, 0x24, 0x00, 0x00, 0x00,
  0x00, 0x00, 0x00, 0x05, 0x30, 0x00, 0x00, 0x00, 0x34, 0x00, 0x00, 0x00,
  0x06, 0x00, 0x00, 0x00, 0x00, 0x00, 0x0e, 0x00, 0x14, 0x00, 0x00, 0x00,
  0x10, 0x00, 0x0c, 0x00, 0x08, 0x00, 0x04, 0x00, 0x0e, 0x00, 0x00, 0x00,
  0x04, 0x00, 0x00, 0x00, 0x04, 0x00, 0x00, 0x00, 0x04, 0x00, 0x00, 0x00,
  0x04, 0x00, 0x00, 0x00, 0x01, 0x00, 0x00, 0x00, 0x15, 0x00, 0x00, 0x00,
  0x01, 0x00, 0x00, 0x00, 0x14, 0x00, 0x00, 0x00, 0xf2, 0xfe, 0xff, 0xff,
  0x20, 0x00, 0x00, 0x00, 0x00, 0x00, 0x00, 0x01, 0x28, 0x00, 0x00, 0x00,
  0x2c, 0x00, 0x00, 0x00, 0x05, 0x00, 0x00, 0x00, 0x0c, 0x00, 0x10, 0x00,
  0x00, 0x00, 0x0c, 0x00, 0x08, 0x00, 0x07, 0x00, 0x0c, 0x00, 0x00, 0x00,
  0x00, 0x00, 0x00, 0x01, 0x01, 0x00, 0x00, 0x00, 0x01, 0x00, 0x00, 0x00,
  0x01, 0x00, 0x00, 0x00, 0x14, 0x00, 0x00, 0x00, 0x03, 0x00, 0x00, 0x00,
  0x13, 0x00, 0x00, 0x00, 0x0e, 0x00, 0x00, 0x00, 0x0d, 0x00, 0x00, 0x00,
  0x00, 0x00, 0x0a, 0x00, 0x10, 0x00, 0x0c, 0x00, 0x08, 0x00, 0x04, 0x00,
  0x0a, 0x00, 0x00, 0x00, 0x0c, 0x00, 0x00, 0x00, 0x10, 0x00, 0x00, 0x00,
  0x04, 0x00, 0x00, 0x00, 0x01, 0x00, 0x00, 0x00, 0x13, 0x00, 0x00, 0x00,
  0x02, 0x00, 0x00, 0x00, 0x0f, 0x00, 0x00, 0x00, 0x12, 0x00, 0x00, 0x00,
  0x6e, 0xff, 0xff, 0xff, 0x1c, 0x00, 0x00, 0x00, 0x00, 0x00, 0x00, 0x3b,
  0x1c, 0x00, 0x00, 0x00, 0x20, 0x00, 0x00, 0x00, 0x03, 0x00, 0x00, 0x00,
  0x00, 0x00, 0x06, 0x00, 0x08, 0x00, 0x04, 0x00, 0x06, 0x00, 0x00, 0x00,
  0x04, 0x00, 0x00, 0x00, 0x01, 0x00, 0x00, 0x00, 0x12, 0x00, 0x00, 0x00,
  0x04, 0x00, 0x00, 0x00, 0x11, 0x00, 0x00, 0x00, 0x03, 0x00, 0x00, 0x00,
  0x04, 0x00, 0x00, 0x00, 0x04, 0x00, 0x00, 0x00, 0xb2, 0xff, 0xff, 0xff,
  0x24, 0x00, 0x00, 0x00, 0x00, 0x00, 0x00, 0x20, 0x24, 0x00, 0x00, 0x00,
  0x28, 0x00, 0x00, 0x00, 0x02, 0x00, 0x00, 0x00, 0x00, 0x00, 0x0e, 0x00,
  0x08, 0x00, 0x00, 0x00, 0x00, 0x00, 0x00, 0x00, 0x00, 0x00, 0x04, 0x00,
  0x0e, 0x00, 0x00, 0x00, 0x01, 0x00, 0x00, 0x00, 0x01, 0x00, 0x00, 0x00,
  0x11, 0x00, 0x00, 0x00, 0x04, 0x00, 0x00, 0x00, 0x10, 0x00, 0x00, 0x00,
  0x01, 0x00, 0x00, 0x00, 0x02, 0x00, 0x00, 0x00, 0x02, 0x00, 0x00, 0x00,
  0x00, 0x00, 0x0e, 0x00, 0x1a, 0x00, 0x14, 0x00, 0x10, 0x00, 0x0c, 0x00,
  0x0b, 0x00, 0x04, 0x00, 0x0e, 0x00, 0x00, 0x00, 0x1c, 0x00, 0x00, 0x00,
  0x00, 0x00, 0x00, 0x37, 0x1c, 0x00, 0x00, 0x00, 0x20, 0x00, 0x00, 0x00,
  0x01, 0x00, 0x00, 0x00, 0x00, 0x00, 0x06, 0x00, 0x08, 0x00, 0x07, 0x00,
  0x06, 0x00, 0x00, 0x00, 0x00, 0x00, 0x00, 0x02, 0x01, 0x00, 0x00, 0x00,
  0x10, 0x00, 0x00, 0x00, 0x01, 0x00, 0x00, 0x00, 0x0f, 0x00, 0x00, 0x00,
  0x00, 0x00, 0x0a, 0x00, 0x0c, 0x00, 0x00, 0x00, 0x08, 0x00, 0x04, 0x00,
  0x0a, 0x00, 0x00, 0x00, 0x08, 0x00, 0x00, 0x00, 0x0c, 0x00, 0x00, 0x00,
  0x01, 0x00, 0x00, 0x00, 0x0f, 0x00, 0x00, 0x00, 0x01, 0x00, 0x00, 0x00,
  0x00, 0x00, 0x00, 0x00, 0x01, 0x00, 0x00, 0x00, 0x1d, 0x00, 0x00, 0x00,
  0x01, 0x00, 0x00, 0x00, 0x00, 0x00, 0x00, 0x00, 0x1e, 0x00, 0x00, 0x00,
  0xec, 0x0f, 0x00, 0x00, 0x74, 0x0f, 0x00, 0x00, 0xfc, 0x0e, 0x00, 0x00,
  0xa4, 0x0e, 0x00, 0x00, 0x4c, 0x0e, 0x00, 0x00, 0xf8, 0x0d, 0x00, 0x00,
  0x5c, 0x0d, 0x00, 0x00, 0xe4, 0x0c, 0x00, 0x00, 0x70, 0x0c, 0x00, 0x00,
  0xec, 0x0b, 0x00, 0x00, 0x78, 0x0b, 0x00, 0x00, 0xd4, 0x0a, 0x00, 0x00,
  0x30, 0x0a, 0x00, 0x00, 0x8c, 0x09, 0x00, 0x00, 0xe8, 0x08, 0x00, 0x00,
  0x74, 0x08, 0x00, 0x00, 0x0c, 0x08, 0x00, 0x00, 0xb8, 0x07, 0x00, 0x00,
  0x60, 0x07, 0x00, 0x00, 0xcc, 0x06, 0x00, 0x00, 0x98, 0x05, 0x00, 0x00,
  0xfc, 0x04, 0x00, 0x00, 0xf0, 0x03, 0x00, 0x00, 0x54, 0x03, 0x00, 0x00,
  0xd0, 0x02, 0x00, 0x00, 0x2c, 0x02, 0x00, 0x00, 0xa8, 0x01, 0x00, 0x00,
  0xdc, 0x00, 0x00, 0x00, 0x60, 0x00, 0x00, 0x00, 0x04, 0x00, 0x00, 0x00,
  0xa2, 0xf0, 0xff, 0xff, 0x00, 0x00, 0x00, 0x01, 0x14, 0x00, 0x00, 0x00,
  0x1c, 0x00, 0x00, 0x00, 0x1c, 0x00, 0x00, 0x00, 0x1e, 0x00, 0x00, 0x00,
  0x34, 0x00, 0x00, 0x00, 0x02, 0x00, 0x00, 0x00, 0xff, 0xff, 0xff, 0xff,
  0x04, 0x00, 0x00, 0x00, 0x8c, 0xf0, 0xff, 0xff, 0x19, 0x00, 0x00, 0x00,
  0x53, 0x74, 0x61, 0x74, 0x65, 0x66, 0x75, 0x6c, 0x50, 0x61, 0x72, 0x74,
  0x69, 0x74, 0x69, 0x6f, 0x6e, 0x65, 0x64, 0x43, 0x61, 0x6c, 0x6c, 0x3a,
  0x30, 0x00, 0x00, 0x00, 0x02, 0x00, 0x00, 0x00, 0x01, 0x00, 0x00, 0x00,
  0x04, 0x00, 0x00, 0x00, 0x36, 0xf8, 0xff, 0xff, 0x00, 0x00, 0x00, 0x01,
  0x18, 0x00, 0x00, 0x00, 0x20, 0x00, 0x00, 0x00, 0x3c, 0x00, 0x00, 0x00,
  0x1d, 0x00, 0x00, 0x00, 0x00, 0x00, 0x00, 0x09, 0x50, 0x00, 0x00, 0x00,
  0x02, 0x00, 0x00, 0x00, 0xff, 0xff, 0xff, 0xff, 0x04, 0x00, 0x00, 0x00,
  0x6c, 0xf3, 0xff, 0xff, 0x08, 0x00, 0x00, 0x00, 0x10, 0x00, 0x00, 0x00,
  0x01, 0x00, 0x00, 0x00, 0x80, 0xff, 0xff, 0xff, 0xff, 0xff, 0xff, 0xff,
  0x01, 0x00, 0x00, 0x00, 0x00, 0x00, 0x80, 0x3b, 0x1a, 0x00, 0x00, 0x00,
  0x53, 0x74, 0x61, 0x74, 0x65, 0x66, 0x75, 0x6c, 0x50, 0x61, 0x72, 0x74,
  0x69, 0x74, 0x69, 0x6f, 0x6e, 0x65, 0x64, 0x43, 0x61, 0x6c, 0x6c, 0x3a,
  0x30, 0x31, 0x00, 0x00, 0x02, 0x00, 0x00, 0x00, 0x01, 0x00, 0x00, 0x00,
  0x04, 0x00, 0x00, 0x00, 0xae, 0xf8, 0xff, 0xff, 0x00, 0x00, 0x00, 0x01,
  0x18, 0x00, 0x00, 0x00, 0x20, 0x00, 0x00, 0x00, 0x40, 0x00, 0x00, 0x00,
  0x1c, 0x00, 0x00, 0x00, 0x00, 0x00, 0x00, 0x09, 0xa0, 0x00, 0x00, 0x00,
  0x02, 0x00, 0x00, 0x00, 0xff, 0xff, 0xff, 0xff, 0x04, 0x00, 0x00, 0x00,
  0xe4, 0xf3, 0xff, 0xff, 0x08, 0x00, 0x00, 0x00, 0x14, 0x00, 0x00, 0x00,
  0x01, 0x00, 0x00, 0x00, 0x16, 0x00, 0x00, 0x00, 0x00, 0x00, 0x00, 0x00,
  0x00, 0x00, 0x00, 0x00, 0x01, 0x00, 0x00, 0x00, 0x58, 0xd2, 0x32, 0x3e,
  0x64, 0x00, 0x00, 0x00, 0x63, 0x6f, 0x6e, 0x76, 0x5f, 0x6d, 0x6f, 0x64,
  0x65, 0x6c, 0x5f, 0x70, 0x61, 0x70, 0x65, 0x72, 0x2f, 0x64, 0x65, 0x6e,
  0x73, 0x65, 0x5f, 0x37, 0x33, 0x2f, 0x42, 0x69, 0x61, 0x73, 0x41, 0x64,
  0x64, 0x3b, 0x63, 0x6f, 0x6e, 0x76, 0x5f, 0x6d, 0x6f, 0x64, 0x65, 0x6c,
  0x5f, 0x70, 0x61, 0x70, 0x65, 0x72, 0x2f, 0x64, 0x65, 0x6e, 0x73, 0x65,
  0x5f, 0x37, 0x34, 0x2f, 0x4d, 0x61, 0x74, 0x4d, 0x75, 0x6c, 0x3b, 0x63,
  0x6f, 0x6e, 0x76, 0x5f, 0x6d, 0x6f, 0x64, 0x65, 0x6c, 0x5f, 0x70, 0x61,
  0x70, 0x65, 0x72, 0x2f, 0x64, 0x65, 0x6e, 0x73, 0x65, 0x5f, 0x37, 0x34,
  0x2f, 0x42, 0x69, 0x61, 0x73, 0x41, 0x64, 0x64, 0x00, 0x00, 0x00, 0x00,
  0x02, 0x00, 0x00, 0x00, 0x01, 0x00, 0x00, 0x00, 0x04, 0x00, 0x00, 0x00,
  0x76, 0xf9, 0xff, 0xff, 0x00, 0x00, 0x00, 0x01, 0x18, 0x00, 0x00, 0x00,
  0x20, 0x00, 0x00, 0x00, 0x3c, 0x00, 0x00, 0x00, 0x1b, 0x00, 0x00, 0x00,
  0x00, 0x00, 0x00, 0x09, 0x58, 0x00, 0x00, 0x00, 0x02, 0x00, 0x00, 0x00,
  0xff, 0xff, 0xff, 0xff, 0x04, 0x00, 0x00, 0x00, 0xac, 0xf4, 0xff, 0xff,
  0x08, 0x00, 0x00, 0x00, 0x10, 0x00, 0x00, 0x00, 0x01, 0x00, 0x00, 0x00,
  0xeb, 0xff, 0xff, 0xff, 0xff, 0xff, 0xff, 0xff, 0x01, 0x00, 0x00, 0x00,
  0xba, 0xbd, 0xe4, 0x3d, 0x21, 0x00, 0x00, 0x00, 0x63, 0x6f, 0x6e, 0x76,
  0x5f, 0x6d, 0x6f, 0x64, 0x65, 0x6c, 0x5f, 0x70, 0x61, 0x70, 0x65, 0x72,
  0x2f, 0x64, 0x65, 0x6e, 0x73, 0x65, 0x5f, 0x37, 0x33, 0x2f, 0x4d, 0x61,
  0x74, 0x4d, 0x75, 0x6c, 0x31, 0x00, 0x00, 0x00, 0x02, 0x00, 0x00, 0x00,
  0x01, 0x00, 0x00, 0x00, 0x04, 0x00, 0x00, 0x00, 0xf6, 0xf9, 0xff, 0xff,
  0x00, 0x00, 0x00, 0x01, 0x18, 0x00, 0x00, 0x00, 0x20, 0x00, 0x00, 0x00,
  0x3c, 0x00, 0x00, 0x00, 0x1a, 0x00, 0x00, 0x00, 0x00, 0x00, 0x00, 0x09,
  0x78, 0x00, 0x00, 0x00, 0x02, 0x00, 0x00, 0x00, 0xff, 0xff, 0xff, 0xff,
  0x08, 0x00, 0x00, 0x00, 0x2c, 0xf5, 0xff, 0xff, 0x08, 0x00, 0x00, 0x00,
  0x10, 0x00, 0x00, 0x00, 0x01, 0x00, 0x00, 0x00, 0xee, 0xff, 0xff, 0xff,
  0xff, 0xff, 0xff, 0xff, 0x01, 0x00, 0x00, 0x00, 0x28, 0xc4, 0x46, 0x3d,
  0x42, 0x00, 0x00, 0x00, 0x63, 0x6f, 0x6e, 0x76, 0x5f, 0x6d, 0x6f, 0x64,
  0x65, 0x6c, 0x5f, 0x70, 0x61, 0x70, 0x65, 0x72, 0x2f, 0x64, 0x65, 0x6e,
  0x73, 0x65, 0x5f, 0x37, 0x32, 0x2f, 0x4d, 0x61, 0x74, 0x4d, 0x75, 0x6c,
  0x3b, 0x63, 0x6f, 0x6e, 0x76, 0x5f, 0x6d, 0x6f, 0x64, 0x65, 0x6c, 0x5f,
  0x70, 0x61, 0x70, 0x65, 0x72, 0x2f, 0x64, 0x65, 0x6e, 0x73, 0x65, 0x5f,
  0x37, 0x32, 0x2f, 0x42, 0x69, 0x61, 0x73, 0x41, 0x64, 0x64, 0x00, 0x00,
  0x02, 0x00, 0x00, 0x00, 0x01, 0x00, 0x00, 0x00, 0x08, 0x00, 0x00, 0x00,
  0x96, 0xfa, 0xff, 0xff, 0x00, 0x00, 0x00, 0x01, 0x18, 0x00, 0x00, 0x00,
  0x20, 0x00, 0x00, 0x00, 0x3c, 0x00, 0x00, 0x00, 0x19, 0x00, 0x00, 0x00,
  0x00, 0x00, 0x00, 0x09, 0x58, 0x00, 0x00, 0x00, 0x02, 0x00, 0x00, 0x00,
  0xff, 0xff, 0xff, 0xff, 0xe4, 0x00, 0x00, 0x00, 0xcc, 0xf5, 0xff, 0xff,
  0x08, 0x00, 0x00, 0x00, 0x10, 0x00, 0x00, 0x00, 0x01, 0x00, 0x00, 0x00,
  0x80, 0xff, 0xff, 0xff, 0xff, 0xff, 0xff, 0xff, 0x01, 0x00, 0x00, 0x00,
  0xab, 0x6c, 0x21, 0x3c, 0x23, 0x00, 0x00, 0x00, 0x63, 0x6f, 0x6e, 0x76,
  0x5f, 0x6d, 0x6f, 0x64, 0x65, 0x6c, 0x5f, 0x70, 0x61, 0x70, 0x65, 0x72,
  0x2f, 0x66, 0x6c, 0x61, 0x74, 0x74, 0x65, 0x6e, 0x5f, 0x31, 0x38, 0x2f,
  0x52, 0x65, 0x73, 0x68, 0x61, 0x70, 0x65, 0x00, 0x02, 0x00, 0x00, 0x00,
  0x01, 0x00, 0x00, 0x00, 0xe4, 0x00, 0x00, 0x00, 0x16, 0xfb, 0xff, 0xff,
  0x00, 0x00, 0x00, 0x01, 0x18, 0x00, 0x00, 0x00, 0x28, 0x00, 0x00, 0x00,
  0x44, 0x00, 0x00, 0x00, 0x18, 0x00, 0x00, 0x00, 0x00, 0x00, 0x00, 0x09,
  0x68, 0x00, 0x00, 0x00, 0x04, 0x00, 0x00, 0x00, 0xff, 0xff, 0xff, 0xff,
  0x39, 0x00, 0x00, 0x00, 0x01, 0x00, 0x00, 0x00, 0x04, 0x00, 0x00, 0x00,
  0x54, 0xf6, 0xff, 0xff, 0x08, 0x00, 0x00, 0x00, 0x10, 0x00, 0x00, 0x00,
  0x01, 0x00, 0x00, 0x00, 0x80, 0xff, 0xff, 0xff, 0xff, 0xff, 0xff, 0xff,
  0x01, 0x00, 0x00, 0x00, 0xab, 0x6c, 0x21, 0x3c, 0x29, 0x00, 0x00, 0x00,
  0x63, 0x6f, 0x6e, 0x76, 0x5f, 0x6d, 0x6f, 0x64, 0x65, 0x6c, 0x5f, 0x70,
  0x61, 0x70, 0x65, 0x72, 0x2f, 0x6d, 0x61, 0x78, 0x5f, 0x70, 0x6f, 0x6f,
  0x6c, 0x69, 0x6e, 0x67, 0x32, 0x64, 0x5f, 0x33, 0x33, 0x2f, 0x4d, 0x61,
  0x78, 0x50, 0x6f, 0x6f, 0x6c, 0x00, 0x00, 0x00, 0x04, 0x00, 0x00, 0x00,
  0x01, 0x00, 0x00, 0x00, 0x39, 0x00, 0x00, 0x00, 0x01, 0x00, 0x00, 0x00,
  0x04, 0x00, 0x00, 0x00, 0xae, 0xfb, 0xff, 0xff, 0x00, 0x00, 0x00, 0x01,
  0x18, 0x00, 0x00, 0x00, 0x28, 0x00, 0x00, 0x00, 0x44, 0x00, 0x00, 0x00,
  0x17, 0x00, 0x00, 0x00, 0x00, 0x00, 0x00, 0x09, 0xd8, 0x00, 0x00, 0x00,
  0x04, 0x00, 0x00, 0x00, 0xff, 0xff, 0xff, 0xff, 0xe1, 0x00, 0x00, 0x00,
  0x01, 0x00, 0x00, 0x00, 0x04, 0x00, 0x00, 0x00, 0xec, 0xf6, 0xff, 0xff,
  0x08, 0x00, 0x00, 0x00, 0x10, 0x00, 0x00, 0x00, 0x01, 0x00, 0x00, 0x00,
  0x80, 0xff, 0xff, 0xff, 0xff, 0xff, 0xff, 0xff, 0x01, 0x00, 0x00, 0x00,
  0xab, 0x6c, 0x21, 0x3c, 0x9a, 0x00, 0x00, 0x00, 0x63, 0x6f, 0x6e, 0x76,
  0x5f, 0x6d, 0x6f, 0x64, 0x65, 0x6c, 0x5f, 0x70, 0x61, 0x70, 0x65, 0x72,
  0x2f, 0x61, 0x63, 0x74, 0x69, 0x76, 0x61, 0x74, 0x69, 0x6f, 0x6e, 0x5f,
  0x33, 0x37, 0x2f, 0x52, 0x65, 0x6c, 0x75, 0x3b, 0x63, 0x6f, 0x6e, 0x76,
  0x5f, 0x6d, 0x6f, 0x64, 0x65, 0x6c, 0x5f, 0x70, 0x61, 0x70, 0x65, 0x72,
  0x2f, 0x63, 0x6f, 0x6e, 0x76, 0x32, 0x64, 0x5f, 0x33, 0x35, 0x2f, 0x42,
  0x69, 0x61, 0x73, 0x41, 0x64, 0x64, 0x3b, 0x63, 0x6f, 0x6e, 0x76, 0x5f,
  0x6d, 0x6f, 0x64, 0x65, 0x6c, 0x5f, 0x70, 0x61, 0x70, 0x65, 0x72, 0x2f,
  0x63, 0x6f, 0x6e, 0x76, 0x32, 0x64, 0x5f, 0x33, 0x35, 0x2f, 0x43, 0x6f,
  0x6e, 0x76, 0x32, 0x44, 0x3b, 0x63, 0x6f, 0x6e, 0x76, 0x5f, 0x6d, 0x6f,
  0x64, 0x65, 0x6c, 0x5f, 0x70, 0x61, 0x70, 0x65, 0x72, 0x2f, 0x63, 0x6f,
  0x6e, 0x76, 0x32, 0x64, 0x5f, 0x33, 0x35, 0x2f, 0x42, 0x69, 0x61, 0x73,
  0x41, 0x64, 0x64, 0x2f, 0x52, 0x65, 0x61, 0x64, 0x56, 0x61, 0x72, 0x69,
  0x61, 0x62, 0x6c, 0x65, 0x4f, 0x70, 0x00, 0x00, 0x04, 0x00, 0x00, 0x00,
  0x01, 0x00, 0x00, 0x00, 0xe1, 0x00, 0x00, 0x00, 0x01, 0x00, 0x00, 0x00,
  0x04, 0x00, 0x00, 0x00, 0xb6, 0xfc, 0xff, 0xff, 0x00, 0x00, 0x00, 0x01,
  0x18, 0x00, 0x00, 0x00, 0x28, 0x00, 0x00, 0x00, 0x44, 0x00, 0x00, 0x00,
  0x16, 0x00, 0x00, 0x00, 0x00, 0x00, 0x00, 0x09, 0x68, 0x00, 0x00, 0x00,
  0x04, 0x00, 0x00, 0x00, 0xff, 0xff, 0xff, 0xff, 0xe1, 0x00, 0x00, 0x00,
  0x01, 0x00, 0x00, 0x00, 0x04, 0x00, 0x00, 0x00, 0xf4, 0xf7, 0xff, 0xff,
  0x08, 0x00, 0x00, 0x00, 0x10, 0x00, 0x00, 0x00, 0x01, 0x00, 0x00, 0x00,
  0x80, 0xff, 0xff, 0xff, 0xff, 0xff, 0xff, 0xff, 0x01, 0x00, 0x00, 0x00,
  0x09, 0x9a, 0xbe, 0x3b, 0x29, 0x00, 0x00, 0x00, 0x63, 0x6f, 0x6e, 0x76,
  0x5f, 0x6d, 0x6f, 0x64, 0x65, 0x6c, 0x5f, 0x70, 0x61, 0x70, 0x65, 0x72,
  0x2f, 0x6d, 0x61, 0x78, 0x5f, 0x70, 0x6f, 0x6f, 0x6c, 0x69, 0x6e, 0x67,
  0x32, 0x64, 0x5f, 0x33, 0x32, 0x2f, 0x4d, 0x61, 0x78, 0x50, 0x6f, 0x6f,
  0x6c, 0x00, 0x00, 0x00, 0x04, 0x00, 0x00, 0x00, 0x01, 0x00, 0x00, 0x00,
  0xe1, 0x00, 0x00, 0x00, 0x01, 0x00, 0x00, 0x00, 0x04, 0x00, 0x00, 0x00,
  0x4e, 0xfd, 0xff, 0xff, 0x00, 0x00, 0x00, 0x01, 0x18, 0x00, 0x00, 0x00,
  0x28, 0x00, 0x00, 0x00, 0x48, 0x00, 0x00, 0x00, 0x15, 0x00, 0x00, 0x00,
  0x00, 0x00, 0x00, 0x09, 0x00, 0x01, 0x00, 0x00, 0x04, 0x00, 0x00, 0x00,
  0xff, 0xff, 0xff, 0xff, 0x84, 0x03, 0x00, 0x00, 0x01, 0x00, 0x00, 0x00,
  0x04, 0x00, 0x00, 0x00, 0x8c, 0xf8, 0xff, 0xff, 0x08, 0x00, 0x00, 0x00,
  0x14, 0x00, 0x00, 0x00, 0x01, 0x00, 0x00, 0x00, 0x80, 0xff, 0xff, 0xff,
  0xff, 0xff, 0xff, 0xff, 0x00, 0x00, 0x00, 0x00, 0x01, 0x00, 0x00, 0x00,
  0x09, 0x9a, 0xbe, 0x3b, 0xbc, 0x00, 0x00, 0x00, 0x63, 0x6f, 0x6e, 0x76,
  0x5f, 0x6d, 0x6f, 0x64, 0x65, 0x6c, 0x5f, 0x70, 0x61, 0x70, 0x65, 0x72,
  0x2f, 0x61, 0x63, 0x74, 0x69, 0x76, 0x61, 0x74, 0x69, 0x6f, 0x6e, 0x5f,
  0x33, 0x36, 0x2f, 0x52, 0x65, 0x6c, 0x75, 0x3b, 0x63, 0x6f, 0x6e, 0x76,
  0x5f, 0x6d, 0x6f, 0x64, 0x65, 0x6c, 0x5f, 0x70, 0x61, 0x70, 0x65, 0x72,
  0x2f, 0x63, 0x6f, 0x6e, 0x76, 0x32, 0x64, 0x5f, 0x33, 0x34, 0x2f, 0x42,
  0x69, 0x61, 0x73, 0x41, 0x64, 0x64, 0x3b, 0x63, 0x6f, 0x6e, 0x76, 0x5f,
  0x6d, 0x6f, 0x64, 0x65, 0x6c, 0x5f, 0x70, 0x61, 0x70, 0x65, 0x72, 0x2f,
  0x63, 0x6f, 0x6e, 0x76, 0x32, 0x64, 0x5f, 0x33, 0x35, 0x2f, 0x43, 0x6f,
  0x6e, 0x76, 0x32, 0x44, 0x3b, 0x63, 0x6f, 0x6e, 0x76, 0x5f, 0x6d, 0x6f,
  0x64, 0x65, 0x6c, 0x5f, 0x70, 0x61, 0x70, 0x65, 0x72, 0x2f, 0x63, 0x6f,
  0x6e, 0x76, 0x32, 0x64, 0x5f, 0x33, 0x34, 0x2f, 0x43, 0x6f, 0x6e, 0x76,
  0x32, 0x44, 0x3b, 0x63, 0x6f, 0x6e, 0x76, 0x5f, 0x6d, 0x6f, 0x64, 0x65,
  0x6c, 0x5f, 0x70, 0x61, 0x70, 0x65, 0x72, 0x2f, 0x63, 0x6f, 0x6e, 0x76,
  0x32, 0x64, 0x5f, 0x33, 0x34, 0x2f, 0x42, 0x69, 0x61, 0x73, 0x41, 0x64,
  0x64, 0x2f, 0x52, 0x65, 0x61, 0x64, 0x56, 0x61, 0x72, 0x69, 0x61, 0x62,
  0x6c, 0x65, 0x4f, 0x70, 0x00, 0x00, 0x00, 0x00, 0x04, 0x00, 0x00, 0x00,
  0x01, 0x00, 0x00, 0x00, 0x84, 0x03, 0x00, 0x00, 0x01, 0x00, 0x00, 0x00,
  0x04, 0x00, 0x00, 0x00, 0x7e, 0xfe, 0xff, 0xff, 0x00, 0x00, 0x00, 0x01,
  0x18, 0x00, 0x00, 0x00, 0x28, 0x00, 0x00, 0x00, 0x44, 0x00, 0x00, 0x00,
  0x14, 0x00, 0x00, 0x00, 0x00, 0x00, 0x00, 0x09, 0x60, 0x00, 0x00, 0x00,
  0x04, 0x00, 0x00, 0x00, 0xff, 0xff, 0xff, 0xff, 0x84, 0x03, 0x00, 0x00,
  0x01, 0x00, 0x00, 0x00, 0x01, 0x00, 0x00, 0x00, 0xbc, 0xf9, 0xff, 0xff,
  0x08, 0x00, 0x00, 0x00, 0x10, 0x00, 0x00, 0x00, 0x01, 0x00, 0x00, 0x00,
  0xcb, 0xff, 0xff, 0xff, 0xff, 0xff, 0xff, 0xff, 0x01, 0x00, 0x00, 0x00,
  0x72, 0x0a, 0x17, 0x3c, 0x20, 0x00, 0x00, 0x00, 0x63, 0x6f, 0x6e, 0x76,
  0x5f, 0x6d, 0x6f, 0x64, 0x65, 0x6c, 0x5f, 0x70, 0x61, 0x70, 0x65, 0x72,
  0x2f, 0x52, 0x65, 0x73, 0x68, 0x61, 0x70, 0x65, 0x2f, 0x52, 0x65, 0x73,
  0x68, 0x61, 0x70, 0x65, 0x00, 0x00, 0x00, 0x00, 0x04, 0x00, 0x00, 0x00,
  0x01, 0x00, 0x00, 0x00, 0x84, 0x03, 0x00, 0x00, 0x01, 0x00, 0x00, 0x00,
  0x01, 0x00, 0x00, 0x00, 0x46, 0xf8, 0xff, 0xff, 0x00, 0x00, 0x00, 0x01,
  0x14, 0x00, 0x00, 0x00, 0x14, 0x00, 0x00, 0x00, 0x13, 0x00, 0x00, 0x00,
  0x00, 0x00, 0x00, 0x02, 0x34, 0x00, 0x00, 0x00, 0xb0, 0xf7, 0xff, 0xff,
  0x26, 0x00, 0x00, 0x00, 0x63, 0x6f, 0x6e, 0x76, 0x5f, 0x6d, 0x6f, 0x64,
  0x65, 0x6c, 0x5f, 0x70, 0x61, 0x70, 0x65, 0x72, 0x2f, 0x52, 0x65, 0x73,
  0x68, 0x61, 0x70, 0x65, 0x2f, 0x52, 0x65, 0x73, 0x68, 0x61, 0x70, 0x65,
  0x2f, 0x73, 0x68, 0x61, 0x70, 0x65, 0x00, 0x00, 0x01, 0x00, 0x00, 0x00,
  0x04, 0x00, 0x00, 0x00, 0x9a, 0xf8, 0xff, 0xff, 0x00, 0x00, 0x00, 0x01,
  0x14, 0x00, 0x00, 0x00, 0x14, 0x00, 0x00, 0x00, 0x12, 0x00, 0x00, 0x00,
  0x00, 0x00, 0x00, 0x02, 0x34, 0x00, 0x00, 0x00, 0x04, 0xf8, 0xff, 0xff,
  0x26, 0x00, 0x00, 0x00, 0x63, 0x6f, 0x6e, 0x76, 0x5f, 0x6d, 0x6f, 0x64,
  0x65, 0x6c, 0x5f, 0x70, 0x61, 0x70, 0x65, 0x72, 0x2f, 0x52, 0x65, 0x73,
  0x68, 0x61, 0x70, 0x65, 0x2f, 0x73, 0x74, 0x72, 0x69, 0x64, 0x65, 0x64,
  0x5f, 0x73, 0x6c, 0x69, 0x63, 0x65, 0x00, 0x00, 0x00, 0x00, 0x00, 0x00,
  0xea, 0xf8, 0xff, 0xff, 0x00, 0x00, 0x00, 0x01, 0x14, 0x00, 0x00, 0x00,
  0x14, 0x00, 0x00, 0x00, 0x11, 0x00, 0x00, 0x00, 0x00, 0x00, 0x00, 0x02,
  0x2c, 0x00, 0x00, 0x00, 0x54, 0xf8, 0xff, 0xff, 0x1e, 0x00, 0x00, 0x00,
  0x63, 0x6f, 0x6e, 0x76, 0x5f, 0x6d, 0x6f, 0x64, 0x65, 0x6c, 0x5f, 0x70,
  0x61, 0x70, 0x65, 0x72, 0x2f, 0x52, 0x65, 0x73, 0x68, 0x61, 0x70, 0x65,
  0x2f, 0x53, 0x68, 0x61, 0x70, 0x65, 0x00, 0x00, 0x01, 0x00, 0x00, 0x00,
  0x02, 0x00, 0x00, 0x00, 0x00, 0x00, 0x16, 0x00, 0x20, 0x00, 0x1c, 0x00,
  0x1b, 0x00, 0x14, 0x00, 0x10, 0x00, 0x0c, 0x00, 0x00, 0x00, 0x00, 0x00,
  0x08, 0x00, 0x07, 0x00, 0x16, 0x00, 0x00, 0x00, 0x00, 0x00, 0x00, 0x01,
  0x18, 0x00, 0x00, 0x00, 0x20, 0x00, 0x00, 0x00, 0x40, 0x00, 0x00, 0x00,
  0x10, 0x00, 0x00, 0x00, 0x00, 0x00, 0x00, 0x09, 0x48, 0x00, 0x00, 0x00,
  0x02, 0x00, 0x00, 0x00, 0xff, 0xff, 0xff, 0xff, 0x84, 0x03, 0x00, 0x00,
  0x4c, 0xfb, 0xff, 0xff, 0x08, 0x00, 0x00, 0x00, 0x14, 0x00, 0x00, 0x00,
  0x01, 0x00, 0x00, 0x00, 0xcb, 0xff, 0xff, 0xff, 0xff, 0xff, 0xff, 0xff,
  0x00, 0x00, 0x00, 0x00, 0x01, 0x00, 0x00, 0x00, 0x72, 0x0a, 0x17, 0x3c,
  0x0c, 0x00, 0x00, 0x00, 0x74, 0x66, 0x6c, 0x2e, 0x71, 0x75, 0x61, 0x6e,
  0x74, 0x69, 0x7a, 0x65, 0x00, 0x00, 0x00, 0x00, 0x02, 0x00, 0x00, 0x00,
  0x01, 0x00, 0x00, 0x00, 0x84, 0x03, 0x00, 0x00, 0xbe, 0xf9, 0xff, 0xff,
  0x00, 0x00, 0x00, 0x01, 0x14, 0x00, 0x00, 0x00, 0x58, 0x00, 0x00, 0x00,
  0x0f, 0x00, 0x00, 0x00, 0x00, 0x00, 0x00, 0x09, 0x74, 0x00, 0x00, 0x00,
  0xac, 0xfb, 0xff, 0xff, 0x08, 0x00, 0x00, 0x00, 0x2c, 0x00, 0x00, 0x00,
  0x04, 0x00, 0x00, 0x00, 0x00, 0x00, 0x00, 0x00, 0x00, 0x00, 0x00, 0x00,
  0x00, 0x00, 0x00, 0x00, 0x00, 0x00, 0x00, 0x00, 0x00, 0x00, 0x00, 0x00,
  0x00, 0x00, 0x00, 0x00, 0x00, 0x00, 0x00, 0x00, 0x00, 0x00, 0x00, 0x00,
  0x00, 0x00, 0x00, 0x00, 0x04, 0x00, 0x00, 0x00, 0xb4, 0xd8, 0x32, 0x3b,
  0xb1, 0x8c, 0x55, 0x3b, 0x3d, 0xf1, 0x62, 0x3b, 0x94, 0xba, 0x7d, 0x3b,
  0x21, 0x00, 0x00, 0x00, 0x63, 0x6f, 0x6e, 0x76, 0x5f, 0x6d, 0x6f, 0x64,
  0x65, 0x6c, 0x5f, 0x70, 0x61, 0x70, 0x65, 0x72, 0x2f, 0x63, 0x6f, 0x6e,
  0x76, 0x32, 0x64, 0x5f, 0x33, 0x34, 0x2f, 0x43, 0x6f, 0x6e, 0x76, 0x32,
  0x44, 0x00, 0x00, 0x00, 0x04, 0x00, 0x00, 0x00, 0x04, 0x00, 0x00, 0x00,
  0x04, 0x00, 0x00, 0x00, 0x04, 0x00, 0x00, 0x00, 0x01, 0x00, 0x00, 0x00,
  0x5e, 0xfa, 0xff, 0xff, 0x00, 0x00, 0x00, 0x01, 0x14, 0x00, 0x00, 0x00,
  0x54, 0x00, 0x00, 0x00, 0x0e, 0x00, 0x00, 0x00, 0x00, 0x00, 0x00, 0x02,
  0x80, 0x00, 0x00, 0x00, 0x4c, 0xfc, 0xff, 0xff, 0x08, 0x00, 0x00, 0x00,
  0x28, 0x00, 0x00, 0x00, 0x04, 0x00, 0x00, 0x00, 0x00, 0x00, 0x00, 0x00,
  0x00, 0x00, 0x00, 0x00, 0x00, 0x00, 0x00, 0x00, 0x00, 0x00, 0x00, 0x00,
  0x00, 0x00, 0x00, 0x00, 0x00, 0x00, 0x00, 0x00, 0x00, 0x00, 0x00, 0x00,
  0x00, 0x00, 0x00, 0x00, 0x04, 0x00, 0x00, 0x00, 0x3d, 0x0a, 0xd3, 0x37,
  0x66, 0xfd, 0xfb, 0x37, 0x8d, 0xe5, 0x05, 0x38, 0x68, 0xb3, 0x15, 0x38,
  0x31, 0x00, 0x00, 0x00, 0x63, 0x6f, 0x6e, 0x76, 0x5f, 0x6d, 0x6f, 0x64,
  0x65, 0x6c, 0x5f, 0x70, 0x61, 0x70, 0x65, 0x72, 0x2f, 0x63, 0x6f, 0x6e,
  0x76, 0x32, 0x64, 0x5f, 0x33, 0x34, 0x2f, 0x42, 0x69, 0x61, 0x73, 0x41,
  0x64, 0x64, 0x2f, 0x52, 0x65, 0x61, 0x64, 0x56, 0x61, 0x72, 0x69, 0x61,
  0x62, 0x6c, 0x65, 0x4f, 0x70, 0x00, 0x00, 0x00, 0x01, 0x00, 0x00, 0x00,
  0x04, 0x00, 0x00, 0x00, 0xfe, 0xfa, 0xff, 0xff, 0x00, 0x00, 0x00, 0x01,
  0x14, 0x00, 0x00, 0x00, 0x58, 0x00, 0x00, 0x00, 0x0d, 0x00, 0x00, 0x00,
  0x00, 0x00, 0x00, 0x09, 0x74, 0x00, 0x00, 0x00, 0xec, 0xfc, 0xff, 0xff,
  0x08, 0x00, 0x00, 0x00, 0x2c, 0x00, 0x00, 0x00, 0x04, 0x00, 0x00, 0x00,
  0x00, 0x00, 0x00, 0x00, 0x00, 0x00, 0x00, 0x00, 0x00, 0x00, 0x00, 0x00,
  0x00, 0x00, 0x00, 0x00, 0x00, 0x00, 0x00, 0x00, 0x00, 0x00, 0x00, 0x00,
  0x00, 0x00, 0x00, 0x00, 0x00, 0x00, 0x00, 0x00, 0x00, 0x00, 0x00, 0x00,
  0x04, 0x00, 0x00, 0x00, 0xcd, 0x62, 0x2f, 0x3b, 0x16, 0x1d, 0x42, 0x3b,
  0xd4, 0x4a, 0x31, 0x3b, 0x21, 0xaf, 0x3e, 0x3b, 0x21, 0x00, 0x00, 0x00,
  0x63, 0x6f, 0x6e, 0x76, 0x5f, 0x6d, 0x6f, 0x64, 0x65, 0x6c, 0x5f, 0x70,
  0x61, 0x70, 0x65, 0x72, 0x2f, 0x63, 0x6f, 0x6e, 0x76, 0x32, 0x64, 0x5f,
  0x33, 0x35, 0x2f, 0x43, 0x6f, 0x6e, 0x76, 0x32, 0x44, 0x00, 0x00, 0x00,
  0x04, 0x00, 0x00, 0x00, 0x04, 0x00, 0x00, 0x00, 0x04, 0x00, 0x00, 0x00,
  0x04, 0x00, 0x00, 0x00, 0x04, 0x00, 0x00, 0x00, 0x9e, 0xfb, 0xff, 0xff,
  0x00, 0x00, 0x00, 0x01, 0x14, 0x00, 0x00, 0x00, 0x54, 0x00, 0x00, 0x00,
  0x0c, 0x00, 0x00, 0x00, 0x00, 0x00, 0x00, 0x02, 0x80, 0x00, 0x00, 0x00,
  0x8c, 0xfd, 0xff, 0xff, 0x08, 0x00, 0x00, 0x00, 0x28, 0x00, 0x00, 0x00,
  0x04, 0x00, 0x00, 0x00, 0x00, 0x00, 0x00, 0x00, 0x00, 0x00, 0x00, 0x00,
  0x00, 0x00, 0x00, 0x00, 0x00, 0x00, 0x00, 0x00, 0x00, 0x00, 0x00, 0x00,
  0x00, 0x00, 0x00, 0x00, 0x00, 0x00, 0x00, 0x00, 0x00, 0x00, 0x00, 0x00,
  0x04, 0x00, 0x00, 0x00, 0xdc, 0x94, 0x82, 0x37, 0x63, 0x86, 0x90, 0x37,
  0x37, 0x00, 0x84, 0x37, 0xb7, 0xf8, 0x8d, 0x37, 0x31, 0x00, 0x00, 0x00,
  0x63, 0x6f, 0x6e, 0x76, 0x5f, 0x6d, 0x6f, 0x64, 0x65, 0x6c, 0x5f, 0x70,
  0x61, 0x70, 0x65, 0x72, 0x2f, 0x63, 0x6f, 0x6e, 0x76, 0x32, 0x64, 0x5f,
  0x33, 0x35, 0x2f, 0x42, 0x69, 0x61, 0x73, 0x41, 0x64, 0x64, 0x2f, 0x52,
  0x65, 0x61, 0x64, 0x56, 0x61, 0x72, 0x69, 0x61, 0x62, 0x6c, 0x65, 0x4f,
  0x70, 0x00, 0x00, 0x00, 0x01, 0x00, 0x00, 0x00, 0x04, 0x00, 0x00, 0x00,
  0x3e, 0xfc, 0xff, 0xff, 0x00, 0x00, 0x00, 0x01, 0x14, 0x00, 0x00, 0x00,
  0x30, 0x00, 0x00, 0x00, 0x0b, 0x00, 0x00, 0x00, 0x00, 0x00, 0x00, 0x09,
  0x4c, 0x00, 0x00, 0x00, 0x2c, 0xfe, 0xff, 0xff, 0x08, 0x00, 0x00, 0x00,
  0x10, 0x00, 0x00, 0x00, 0x01, 0x00, 0x00, 0x00, 0x00, 0x00, 0x00, 0x00,
  0x00, 0x00, 0x00, 0x00, 0x01, 0x00, 0x00, 0x00, 0x74, 0x3f, 0x55, 0x3b,
  0x21, 0x00, 0x00, 0x00, 0x63, 0x6f, 0x6e, 0x76, 0x5f, 0x6d, 0x6f, 0x64,
  0x65, 0x6c, 0x5f, 0x70, 0x61, 0x70, 0x65, 0x72, 0x2f, 0x64, 0x65, 0x6e,
  0x73, 0x65, 0x5f, 0x37, 0x32, 0x2f, 0x4d, 0x61, 0x74, 0x4d, 0x75, 0x6c,
  0x31, 0x00, 0x00, 0x00, 0x02, 0x00, 0x00, 0x00, 0x08, 0x00, 0x00, 0x00,
  0xe4, 0x00, 0x00, 0x00, 0xae, 0xfc, 0xff, 0xff, 0x00, 0x00, 0x00, 0x01,
  0x14, 0x00, 0x00, 0x00, 0x34, 0x00, 0x00, 0x00, 0x0a, 0x00, 0x00, 0x00,
  0x00, 0x00, 0x00, 0x02, 0x60, 0x00, 0x00, 0x00, 0x9c, 0xfe, 0xff, 0xff,
  0x08, 0x00, 0x00, 0x00, 0x14, 0x00, 0x00, 0x00, 0x01, 0x00, 0x00, 0x00,
  0x00, 0x00, 0x00, 0x00, 0x00, 0x00, 0x00, 0x00, 0x00, 0x00, 0x00, 0x00,
  0x01, 0x00, 0x00, 0x00, 0x6d, 0x77, 0x06, 0x38, 0x30, 0x00, 0x00, 0x00,
  0x63, 0x6f, 0x6e, 0x76, 0x5f, 0x6d, 0x6f, 0x64, 0x65, 0x6c, 0x5f, 0x70,
  0x61, 0x70, 0x65, 0x72, 0x2f, 0x64, 0x65, 0x6e, 0x73, 0x65, 0x5f, 0x37,
  0x32, 0x2f, 0x42, 0x69, 0x61, 0x73, 0x41, 0x64, 0x64, 0x2f, 0x52, 0x65,
  0x61, 0x64, 0x56, 0x61, 0x72, 0x69, 0x61, 0x62, 0x6c, 0x65, 0x4f, 0x70,
  0x00, 0x00, 0x00, 0x00, 0x01, 0x00, 0x00, 0x00, 0x08, 0x00, 0x00, 0x00,
  0x2e, 0xfd, 0xff, 0xff, 0x00, 0x00, 0x00, 0x01, 0x14, 0x00, 0x00, 0x00,
  0x30, 0x00, 0x00, 0x00, 0x09, 0x00, 0x00, 0x00, 0x00, 0x00, 0x00, 0x09,
  0x4c, 0x00, 0x00, 0x00, 0x1c, 0xff, 0xff, 0xff, 0x08, 0x00, 0x00, 0x00,
  0x10, 0x00, 0x00, 0x00, 0x01, 0x00, 0x00, 0x00, 0x00, 0x00, 0x00, 0x00,
  0x00, 0x00, 0x00, 0x00, 0x01, 0x00, 0x00, 0x00, 0xc4, 0xbe, 0xf2, 0x3b,
  0x20, 0x00, 0x00, 0x00, 0x63, 0x6f, 0x6e, 0x76, 0x5f, 0x6d, 0x6f, 0x64,
  0x65, 0x6c, 0x5f, 0x70, 0x61, 0x70, 0x65, 0x72, 0x2f, 0x64, 0x65, 0x6e,
  0x73, 0x65, 0x5f, 0x37, 0x33, 0x2f, 0x4d, 0x61, 0x74, 0x4d, 0x75, 0x6c,
  0x00, 0x00, 0x00, 0x00, 0x02, 0x00, 0x00, 0x00, 0x04, 0x00, 0x00, 0x00,
  0x08, 0x00, 0x00, 0x00, 0x9e, 0xfd, 0xff, 0xff, 0x00, 0x00, 0x00, 0x01,
  0x14, 0x00, 0x00, 0x00, 0x34, 0x00, 0x00, 0x00, 0x08, 0x00, 0x00, 0x00,
  0x00, 0x00, 0x00, 0x09, 0x50, 0x00, 0x00, 0x00, 0x8c, 0xff, 0xff, 0xff,
  0x08, 0x00, 0x00, 0x00, 0x14, 0x00, 0x00, 0x00, 0x01, 0x00, 0x00, 0x00,
  0x00, 0x00, 0x00, 0x00, 0x00, 0x00, 0x00, 0x00, 0x00, 0x00, 0x00, 0x00,
  0x01, 0x00, 0x00, 0x00, 0x94, 0xa7, 0x02, 0x3c, 0x20, 0x00, 0x00, 0x00,
  0x63, 0x6f, 0x6e, 0x76, 0x5f, 0x6d, 0x6f, 0x64, 0x65, 0x6c, 0x5f, 0x70,
  0x61, 0x70, 0x65, 0x72, 0x2f, 0x64, 0x65, 0x6e, 0x73, 0x65, 0x5f, 0x37,
  0x34, 0x2f, 0x4d, 0x61, 0x74, 0x4d, 0x75, 0x6c, 0x00, 0x00, 0x00, 0x00,
  0x02, 0x00, 0x00, 0x00, 0x04, 0x00, 0x00, 0x00, 0x04, 0x00, 0x00, 0x00,
  0x12, 0xfe, 0xff, 0xff, 0x00, 0x00, 0x00, 0x01, 0x20, 0x00, 0x00, 0x00,
  0x3c, 0x00, 0x00, 0x00, 0x07, 0x00, 0x00, 0x00, 0x00, 0x00, 0x00, 0x02,
  0x78, 0x00, 0x00, 0x00, 0x0c, 0x00, 0x0c, 0x00, 0x00, 0x00, 0x00, 0x00,
  0x08, 0x00, 0x04, 0x00, 0x0c, 0x00, 0x00, 0x00, 0x08, 0x00, 0x00, 0x00,
  0x10, 0x00, 0x00, 0x00, 0x01, 0x00, 0x00, 0x00, 0x00, 0x00, 0x00, 0x00,
  0x00, 0x00, 0x00, 0x00, 0x01, 0x00, 0x00, 0x00, 0x29, 0x7c, 0x69, 0x3a,
  0x42, 0x00, 0x00, 0x00, 0x63, 0x6f, 0x6e, 0x76, 0x5f, 0x6d, 0x6f, 0x64,
  0x65, 0x6c, 0x5f, 0x70, 0x61, 0x70, 0x65, 0x72, 0x2f, 0x64, 0x65, 0x6e,
  0x73, 0x65, 0x5f, 0x37, 0x34, 0x2f, 0x4d, 0x61, 0x74, 0x4d, 0x75, 0x6c,
  0x3b, 0x63, 0x6f, 0x6e, 0x76, 0x5f, 0x6d, 0x6f, 0x64, 0x65, 0x6c, 0x5f,
  0x70, 0x61, 0x70, 0x65, 0x72, 0x2f, 0x64, 0x65, 0x6e, 0x73, 0x65, 0x5f,
  0x37, 0x34, 0x2f, 0x42, 0x69, 0x61, 0x73, 0x41, 0x64, 0x64, 0x00, 0x00,
  0x01, 0x00, 0x00, 0x00, 0x04, 0x00, 0x00, 0x00, 0xaa, 0xfe, 0xff, 0xff,
  0x00, 0x00, 0x00, 0x01, 0x14, 0x00, 0x00, 0x00, 0x14, 0x00, 0x00, 0x00,
  0x06, 0x00, 0x00, 0x00, 0x00, 0x00, 0x00, 0x02, 0x30, 0x00, 0x00, 0x00,
  0x14, 0xfe, 0xff, 0xff, 0x21, 0x00, 0x00, 0x00, 0x63, 0x6f, 0x6e, 0x76,
  0x5f, 0x6d, 0x6f, 0x64, 0x65, 0x6c, 0x5f, 0x70, 0x61, 0x70, 0x65, 0x72,
  0x2f, 0x66, 0x6c, 0x61, 0x74, 0x74, 0x65, 0x6e, 0x5f, 0x31, 0x38, 0x2f,
  0x43, 0x6f, 0x6e, 0x73, 0x74, 0x00, 0x00, 0x00, 0x01, 0x00, 0x00, 0x00,
  0x02, 0x00, 0x00, 0x00, 0xfa, 0xfe, 0xff, 0xff, 0x00, 0x00, 0x00, 0x01,
  0x14, 0x00, 0x00, 0x00, 0x14, 0x00, 0x00, 0x00, 0x03, 0x00, 0x00, 0x00,
  0x00, 0x00, 0x00, 0x02, 0x38, 0x00, 0x00, 0x00, 0x64, 0xfe, 0xff, 0xff,
  0x28, 0x00, 0x00, 0x00, 0x63, 0x6f, 0x6e, 0x76, 0x5f, 0x6d, 0x6f, 0x64,
  0x65, 0x6c, 0x5f, 0x70, 0x61, 0x70, 0x65, 0x72, 0x2f, 0x52, 0x65, 0x73,
  0x68, 0x61, 0x70, 0x65, 0x2f, 0x52, 0x65, 0x73, 0x68, 0x61, 0x70, 0x65,
  0x2f, 0x73, 0x68, 0x61, 0x70, 0x65, 0x2f, 0x32, 0x00, 0x00, 0x00, 0x00,
  0x00, 0x00, 0x00, 0x00, 0x4e, 0xff, 0xff, 0xff, 0x00, 0x00, 0x00, 0x01,
  0x14, 0x00, 0x00, 0x00, 0x14, 0x00, 0x00, 0x00, 0x04, 0x00, 0x00, 0x00,
  0x00, 0x00, 0x00, 0x02, 0x38, 0x00, 0x00, 0x00, 0xb8, 0xfe, 0xff, 0xff,
  0x28, 0x00, 0x00, 0x00, 0x63, 0x6f, 0x6e, 0x76, 0x5f, 0x6d, 0x6f, 0x64,
  0x65, 0x6c, 0x5f, 0x70, 0x61, 0x70, 0x65, 0x72, 0x2f, 0x52, 0x65, 0x73,
  0x68, 0x61, 0x70, 0x65, 0x2f, 0x52, 0x65, 0x73, 0x68, 0x61, 0x70, 0x65,
  0x2f, 0x73, 0x68, 0x61, 0x70, 0x65, 0x2f, 0x31, 0x00, 0x00, 0x00, 0x00,
  0x00, 0x00, 0x00, 0x00, 0xa2, 0xff, 0xff, 0xff, 0x00, 0x00, 0x00, 0x01,
  0x14, 0x00, 0x00, 0x00, 0x14, 0x00, 0x00, 0x00, 0x03, 0x00, 0x00, 0x00,
  0x00, 0x00, 0x00, 0x02, 0x3c, 0x00, 0x00, 0x00, 0x0c, 0xff, 0xff, 0xff,
  0x2e, 0x00, 0x00, 0x00, 0x63, 0x6f, 0x6e, 0x76, 0x5f, 0x6d, 0x6f, 0x64,
  0x65, 0x6c, 0x5f, 0x70, 0x61, 0x70, 0x65, 0x72, 0x2f, 0x52, 0x65, 0x73,
  0x68, 0x61, 0x70, 0x65, 0x2f, 0x73, 0x74, 0x72, 0x69, 0x64, 0x65, 0x64,
  0x5f, 0x73, 0x6c, 0x69, 0x63, 0x65, 0x2f, 0x73, 0x74, 0x61, 0x63, 0x6b,
  0x5f, 0x31, 0x00, 0x00, 0x01, 0x00, 0x00, 0x00, 0x01, 0x00, 0x00, 0x00,
  0x00, 0x00, 0x16, 0x00, 0x1c, 0x00, 0x18, 0x00, 0x17, 0x00, 0x10, 0x00,
  0x0c, 0x00, 0x08, 0x00, 0x00, 0x00, 0x00, 0x00, 0x00, 0x00, 0x07, 0x00,
  0x16, 0x00, 0x00, 0x00, 0x00, 0x00, 0x00, 0x01, 0x14, 0x00, 0x00, 0x00,
  0x14, 0x00, 0x00, 0x00, 0x02, 0x00, 0x00, 0x00, 0x00, 0x00, 0x00, 0x02,
  0x3c, 0x00, 0x00, 0x00, 0x80, 0xff, 0xff, 0xff, 0x2c, 0x00, 0x00, 0x00,
  0x63, 0x6f, 0x6e, 0x76, 0x5f, 0x6d, 0x6f, 0x64, 0x65, 0x6c, 0x5f, 0x70,
  0x61, 0x70, 0x65, 0x72, 0x2f, 0x52, 0x65, 0x73, 0x68, 0x61, 0x70, 0x65,
  0x2f, 0x73, 0x74, 0x72, 0x69, 0x64, 0x65, 0x64, 0x5f, 0x73, 0x6c, 0x69,
  0x63, 0x65, 0x2f, 0x73, 0x74, 0x61, 0x63, 0x6b, 0x00, 0x00, 0x00, 0x00,
  0x01, 0x00, 0x00, 0x00, 0x01, 0x00, 0x00, 0x00, 0x00, 0x00, 0x16, 0x00,
  0x1c, 0x00, 0x18, 0x00, 0x00, 0x00, 0x14, 0x00, 0x10, 0x00, 0x0c, 0x00,
  0x00, 0x00, 0x00, 0x00, 0x08, 0x00, 0x07, 0x00, 0x16, 0x00, 0x00, 0x00,
  0x00, 0x00, 0x00, 0x01, 0x14, 0x00, 0x00, 0x00, 0x20, 0x00, 0x00, 0x00,
  0x20, 0x00, 0x00, 0x00, 0x01, 0x00, 0x00, 0x00, 0x3c, 0x00, 0x00, 0x00,
  0x02, 0x00, 0x00, 0x00, 0xff, 0xff, 0xff, 0xff, 0x84, 0x03, 0x00, 0x00,
  0x04, 0x00, 0x04, 0x00, 0x04, 0x00, 0x00, 0x00, 0x1f, 0x00, 0x00, 0x00,
  0x73, 0x65, 0x72, 0x76, 0x69, 0x6e, 0x67, 0x5f, 0x64, 0x65, 0x66, 0x61,
  0x75, 0x6c, 0x74, 0x5f, 0x52, 0x65, 0x73, 0x68, 0x61, 0x70, 0x65, 0x5f,
  0x69, 0x6e, 0x70, 0x75, 0x74, 0x3a, 0x30, 0x00, 0x02, 0x00, 0x00, 0x00,
  0x01, 0x00, 0x00, 0x00, 0x84, 0x03, 0x00, 0x00, 0x0a, 0x00, 0x00, 0x00,
  0xc0, 0x00, 0x00, 0x00, 0xa4, 0x00, 0x00, 0x00, 0x94, 0x00, 0x00, 0x00,
  0x84, 0x00, 0x00, 0x00, 0x74, 0x00, 0x00, 0x00, 0x60, 0x00, 0x00, 0x00,
  0x40, 0x00, 0x00, 0x00, 0x2c, 0x00, 0x00, 0x00, 0x18, 0x00, 0x00, 0x00,
  0x04, 0x00, 0x00, 0x00, 0xc0, 0xff, 0xff, 0xff, 0x06, 0x00, 0x00, 0x00,
  0x02, 0x00, 0x00, 0x00, 0x00, 0x00, 0x00, 0x06, 0xd0, 0xff, 0xff, 0xff,
  0x19, 0x00, 0x00, 0x00, 0x02, 0x00, 0x00, 0x00, 0x00, 0x00, 0x00, 0x19,
  0xe0, 0xff, 0xff, 0xff, 0x09, 0x00, 0x00, 0x00, 0x04, 0x00, 0x00, 0x00,
  0x00, 0x00, 0x00, 0x09, 0xf0, 0xff, 0xff, 0xff, 0x11, 0x00, 0x00, 0x00,
  0x02, 0x00, 0x00, 0x00, 0x00, 0x00, 0x00, 0x11, 0x0c, 0x00, 0x10, 0x00,
  0x0f, 0x00, 0x00, 0x00, 0x08, 0x00, 0x04, 0x00, 0x0c, 0x00, 0x00, 0x00,
  0x03, 0x00, 0x00, 0x00, 0x03, 0x00, 0x00, 0x00, 0x00, 0x00, 0x00, 0x03,
  0xd0, 0xff, 0xff, 0xff, 0x16, 0x00, 0x00, 0x00, 0x00, 0x00, 0x00, 0x16,
  0xdc, 0xff, 0xff, 0xff, 0x53, 0x00, 0x00, 0x00, 0x00, 0x00, 0x00, 0x53,
  0xe8, 0xff, 0xff, 0xff, 0x2d, 0x00, 0x00, 0x00, 0x00, 0x00, 0x00, 0x2d,
  0xf4, 0xff, 0xff, 0xff, 0x4d, 0x00, 0x00, 0x00, 0x00, 0x00, 0x00, 0x4d,
  0x0c, 0x00, 0x0c, 0x00, 0x0b, 0x00, 0x00, 0x00, 0x00, 0x00, 0x04, 0x00,
  0x0c, 0x00, 0x00, 0x00, 0x72, 0x00, 0x00, 0x00, 0x00, 0x00, 0x00, 0x72
};
