unsigned char conv_model_tflite[] = {
  0x1c, 0x00, 0x00, 0x00, 0x54, 0x46, 0x4c, 0x33, 0x14, 0x00, 0x20, 0x00,
  0x1c, 0x00, 0x18, 0x00, 0x14, 0x00, 0x10, 0x00, 0x0c, 0x00, 0x00, 0x00,
  0x08, 0x00, 0x04, 0x00, 0x14, 0x00, 0x00, 0x00, 0x1c, 0x00, 0x00, 0x00,
  0x8c, 0x00, 0x00, 0x00, 0xe4, 0x00, 0x00, 0x00, 0x5c, 0x25, 0x00, 0x00,
  0x6c, 0x25, 0x00, 0x00, 0x70, 0x35, 0x00, 0x00, 0x03, 0x00, 0x00, 0x00,
  0x01, 0x00, 0x00, 0x00, 0x04, 0x00, 0x00, 0x00, 0x2e, 0xd8, 0xff, 0xff,
  0x0c, 0x00, 0x00, 0x00, 0x1c, 0x00, 0x00, 0x00, 0x3c, 0x00, 0x00, 0x00,
  0x0f, 0x00, 0x00, 0x00, 0x73, 0x65, 0x72, 0x76, 0x69, 0x6e, 0x67, 0x5f,
  0x64, 0x65, 0x66, 0x61, 0x75, 0x6c, 0x74, 0x00, 0x01, 0x00, 0x00, 0x00,
  0x04, 0x00, 0x00, 0x00, 0x90, 0xff, 0xff, 0xff, 0x1b, 0x00, 0x00, 0x00,
  0x04, 0x00, 0x00, 0x00, 0x08, 0x00, 0x00, 0x00, 0x64, 0x65, 0x6e, 0x73,
  0x65, 0x5f, 0x37, 0x34, 0x00, 0x00, 0x00, 0x00, 0x01, 0x00, 0x00, 0x00,
  0x04, 0x00, 0x00, 0x00, 0x36, 0xd8, 0xff, 0xff, 0x04, 0x00, 0x00, 0x00,
  0x0d, 0x00, 0x00, 0x00, 0x52, 0x65, 0x73, 0x68, 0x61, 0x70, 0x65, 0x5f,
  0x69, 0x6e, 0x70, 0x75, 0x74, 0x00, 0x00, 0x00, 0x02, 0x00, 0x00, 0x00,
  0x34, 0x00, 0x00, 0x00, 0x04, 0x00, 0x00, 0x00, 0xdc, 0xff, 0xff, 0xff,
  0x1e, 0x00, 0x00, 0x00, 0x04, 0x00, 0x00, 0x00, 0x13, 0x00, 0x00, 0x00,
  0x43, 0x4f, 0x4e, 0x56, 0x45, 0x52, 0x53, 0x49, 0x4f, 0x4e, 0x5f, 0x4d,
  0x45, 0x54, 0x41, 0x44, 0x41, 0x54, 0x41, 0x00, 0x08, 0x00, 0x0c, 0x00,
  0x08, 0x00, 0x04, 0x00, 0x08, 0x00, 0x00, 0x00, 0x1d, 0x00, 0x00, 0x00,
  0x04, 0x00, 0x00, 0x00, 0x13, 0x00, 0x00, 0x00, 0x6d, 0x69, 0x6e, 0x5f,
  0x72, 0x75, 0x6e, 0x74, 0x69, 0x6d, 0x65, 0x5f, 0x76, 0x65, 0x72, 0x73,
  0x69, 0x6f, 0x6e, 0x00, 0x1f, 0x00, 0x00, 0x00, 0x74, 0x24, 0x00, 0x00,
  0x6c, 0x24, 0x00, 0x00, 0x4c, 0x24, 0x00, 0x00, 0x2c, 0x24, 0x00, 0x00,
  0x0c, 0x24, 0x00, 0x00, 0xfc, 0x22, 0x00, 0x00, 0xec, 0x1e, 0x00, 0x00,
  0xd8, 0x1e, 0x00, 0x00, 0xc4, 0x1e, 0x00, 0x00, 0xb0, 0x1e, 0x00, 0x00,
  0xa8, 0x1e, 0x00, 0x00, 0x90, 0x1e, 0x00, 0x00, 0x60, 0x1e, 0x00, 0x00,
  0xd0, 0x01, 0x00, 0x00, 0x40, 0x01, 0x00, 0x00, 0xf0, 0x00, 0x00, 0x00,
  0xe8, 0x00, 0x00, 0x00, 0xe0, 0x00, 0x00, 0x00, 0xd8, 0x00, 0x00, 0x00,
  0xd0, 0x00, 0x00, 0x00, 0xc8, 0x00, 0x00, 0x00, 0xc0, 0x00, 0x00, 0x00,
  0xb8, 0x00, 0x00, 0x00, 0xb0, 0x00, 0x00, 0x00, 0xa8, 0x00, 0x00, 0x00,
  0xa0, 0x00, 0x00, 0x00, 0x98, 0x00, 0x00, 0x00, 0x90, 0x00, 0x00, 0x00,
  0x88, 0x00, 0x00, 0x00, 0x68, 0x00, 0x00, 0x00, 0x04, 0x00, 0x00, 0x00,
  0x2e, 0xd9, 0xff, 0xff, 0x04, 0x00, 0x00, 0x00, 0x54, 0x00, 0x00, 0x00,
  0x0c, 0x00, 0x00, 0x00, 0x08, 0x00, 0x0e, 0x00, 0x08, 0x00, 0x04, 0x00,
  0x08, 0x00, 0x00, 0x00, 0x10, 0x00, 0x00, 0x00, 0x24, 0x00, 0x00, 0x00,
  0x00, 0x00, 0x06, 0x00, 0x08, 0x00, 0x04, 0x00, 0x06, 0x00, 0x00, 0x00,
  0x04, 0x00, 0x00, 0x00, 0x00, 0x00, 0x00, 0x00, 0x00, 0x00, 0x0a, 0x00,
  0x10, 0x00, 0x0c, 0x00, 0x08, 0x00, 0x04, 0x00, 0x0a, 0x00, 0x00, 0x00,
  0x02, 0x00, 0x00, 0x00, 0x02, 0x00, 0x00, 0x00, 0x04, 0x00, 0x00, 0x00,
  0x06, 0x00, 0x00, 0x00, 0x32, 0x2e, 0x31, 0x31, 0x2e, 0x30, 0x00, 0x00,
  0x8e, 0xd9, 0xff, 0xff, 0x04, 0x00, 0x00, 0x00, 0x10, 0x00, 0x00, 0x00,
  0x31, 0x2e, 0x31, 0x31, 0x2e, 0x30, 0x00, 0x00, 0x00, 0x00, 0x00, 0x00,
  0x00, 0x00, 0x00, 0x00, 0x9c, 0xcc, 0xff, 0xff, 0xa0, 0xcc, 0xff, 0xff,
  0xa4, 0xcc, 0xff, 0xff, 0xa8, 0xcc, 0xff, 0xff, 0xac, 0xcc, 0xff, 0xff,
  0xb0, 0xcc, 0xff, 0xff, 0xb4, 0xcc, 0xff, 0xff, 0xb8, 0xcc, 0xff, 0xff,
  0xbc, 0xcc, 0xff, 0xff, 0xc0, 0xcc, 0xff, 0xff, 0xc4, 0xcc, 0xff, 0xff,
  0xc8, 0xcc, 0xff, 0xff, 0xcc, 0xcc, 0xff, 0xff, 0xde, 0xd9, 0xff, 0xff,
  0x04, 0x00, 0x00, 0x00, 0x40, 0x00, 0x00, 0x00, 0x6a, 0xbf, 0x36, 0xbf,
  0x1b, 0x57, 0xd7, 0x3e, 0x56, 0xfa, 0x5b, 0xbe, 0x45, 0xa2, 0x81, 0xbf,
  0xd7, 0x57, 0x43, 0xbf, 0x70, 0xdf, 0x48, 0xbf, 0xc9, 0xcb, 0x21, 0xbf,
  0x55, 0x06, 0x5c, 0x3f, 0x94, 0x2c, 0x5d, 0x3f, 0x78, 0x3f, 0x89, 0x3e,
  0x59, 0x6c, 0x99, 0x3e, 0xc6, 0x41, 0x7c, 0xbf, 0x07, 0x0c, 0x31, 0xbe,
  0x92, 0x15, 0x53, 0xbf, 0xde, 0x90, 0x54, 0x3f, 0xbd, 0xa9, 0x28, 0x3e,
  0x2a, 0xda, 0xff, 0xff, 0x04, 0x00, 0x00, 0x00, 0x80, 0x00, 0x00, 0x00,
  0xbc, 0x88, 0x68, 0xbf, 0x95, 0xe2, 0x27, 0xbf, 0xb8, 0x6c, 0x84, 0x3e,
  0xf6, 0xdf, 0xfc, 0x3e, 0x45, 0xe8, 0x1f, 0x3f, 0x46, 0xd9, 0x70, 0xbf,
  0xf9, 0x8f, 0xb0, 0x3d, 0xa1, 0x78, 0x4d, 0x3f, 0x56, 0x37, 0x1e, 0x3f,
  0x28, 0xf0, 0x39, 0xbe, 0x97, 0x6c, 0xe1, 0xbe, 0x42, 0xad, 0x62, 0x3f,
  0x8b, 0x2f, 0x11, 0xbe, 0xa0, 0x0e, 0x8f, 0xbd, 0xb4, 0x92, 0x42, 0x3f,
  0xd4, 0xcf, 0x01, 0xbf, 0x5c, 0x06, 0xec, 0xbe, 0x0f, 0x7b, 0xce, 0x3e,
  0x06, 0x8f, 0xec, 0x3e, 0x07, 0x21, 0x2d, 0x3f, 0xfc, 0xe7, 0x59, 0x3f,
  0x44, 0x34, 0x82, 0x3e, 0xa2, 0xac, 0xe6, 0xbe, 0xe4, 0x75, 0x23, 0x3f,
  0x96, 0x72, 0x29, 0x3e, 0x2d, 0x28, 0x3a, 0x3f, 0x13, 0xa8, 0x1d, 0x3f,
  0x37, 0x0a, 0x29, 0xbf, 0x75, 0xb7, 0x6f, 0xbd, 0x71, 0xca, 0xba, 0xbe,
  0x8f, 0x1b, 0x2c, 0xbf, 0xaa, 0x14, 0x1e, 0x3f, 0xb6, 0xda, 0xff, 0xff,
  0x04, 0x00, 0x00, 0x00, 0x80, 0x1c, 0x00, 0x00, 0x3b, 0x61, 0xd6, 0x3b,
  0x39, 0xa9, 0xb3, 0x3d, 0x33, 0xe3, 0x5f, 0x3d, 0x66, 0xc6, 0x2f, 0x3d,
  0x38, 0x2b, 0x01, 0x3e, 0xdb, 0xb2, 0xdc, 0xb9, 0x4f, 0x1a, 0x37, 0x3b,
  0x7b, 0xb6, 0x82, 0x3e, 0xb1, 0xc3, 0xfc, 0x3c, 0xdc, 0x9f, 0xe2, 0xbc,
  0x8d, 0xe1, 0xdb, 0x3d, 0xfd, 0x17, 0x11, 0x3e, 0xe9, 0x56, 0x5b, 0xbc,
  0xde, 0x98, 0x27, 0x3d, 0x1b, 0xd5, 0xce, 0xbc, 0x3a, 0x42, 0x07, 0x3e,
  0x60, 0x73, 0x1a, 0x3e, 0xb0, 0x46, 0x20, 0xbe, 0x04, 0x3b, 0xe2, 0xbd,
  0x51, 0xcf, 0xc9, 0x3d, 0x7f, 0x27, 0x1b, 0xbd, 0xed, 0xd4, 0x53, 0x3d,
  0xff, 0x30, 0xe0, 0xbc, 0x8c, 0xc8, 0x7a, 0x3e, 0xfd, 0x2d, 0x57, 0x3d,
  0x79, 0x5b, 0x26, 0xbd, 0x59, 0x37, 0xc3, 0xbd, 0x5a, 0x4b, 0x85, 0x3d,
  0x5a, 0x86, 0xd6, 0xba, 0x9e, 0xae, 0x5f, 0x3d, 0x98, 0xda, 0x58, 0x3d,
  0xfe, 0x2f, 0x8b, 0x3e, 0xee, 0xa7, 0x8e, 0x3d, 0x5d, 0x69, 0x73, 0xbe,
  0x1e, 0xa4, 0x27, 0xbe, 0xd6, 0x1b, 0x5c, 0x3e, 0x56, 0x95, 0x92, 0x3c,
  0xf8, 0xea, 0xd8, 0xbd, 0x11, 0xc7, 0x59, 0xbe, 0x95, 0x51, 0xb3, 0x3d,
  0x4d, 0xa8, 0xa4, 0x3d, 0xbd, 0x45, 0x34, 0xbe, 0x33, 0x46, 0x6c, 0xbe,
  0xe0, 0x9d, 0x49, 0x3e, 0xb1, 0x37, 0xd1, 0x3d, 0x17, 0x88, 0x16, 0xbb,
  0xf0, 0xde, 0xce, 0xbd, 0x92, 0x21, 0x26, 0x3e, 0x76, 0xe1, 0x2d, 0x3e,
  0xb2, 0x51, 0x4e, 0xbe, 0x4d, 0xa0, 0x71, 0x3d, 0xae, 0x54, 0xc0, 0x3b,
  0x33, 0xd8, 0xab, 0xbd, 0x07, 0x42, 0x28, 0x3d, 0x03, 0x12, 0x27, 0xbe,
  0xed, 0xf5, 0x13, 0x3d, 0x00, 0xd5, 0xd0, 0xbd, 0x50, 0xe8, 0x90, 0xbe,
  0xba, 0xa3, 0x66, 0xbe, 0x2f, 0x8f, 0xb8, 0x3d, 0xef, 0xb4, 0x55, 0x3d,
  0x26, 0xc1, 0x6d, 0xbe, 0x33, 0xa0, 0xec, 0x3b, 0xdb, 0x53, 0x62, 0x3e,
  0x68, 0xe4, 0xdc, 0x3d, 0xb8, 0x91, 0x2f, 0xbe, 0x7d, 0x03, 0x83, 0xbe,
  0x70, 0xff, 0xbe, 0x3d, 0x6c, 0x3f, 0xa5, 0x3d, 0x2e, 0x0f, 0xd6, 0x3c,
  0x12, 0x27, 0xed, 0xbd, 0xdd, 0x9e, 0x94, 0x3b, 0x79, 0x42, 0xd6, 0xbc,
  0x6b, 0x3f, 0x5a, 0xbe, 0x06, 0x8c, 0xc4, 0xbc, 0xee, 0x5f, 0xc4, 0x3d,
  0xb8, 0xe1, 0x6d, 0x3d, 0x90, 0x2a, 0x0c, 0xbe, 0x5e, 0x83, 0xf9, 0xb9,
  0x75, 0x78, 0xaa, 0xbc, 0x03, 0xab, 0x27, 0x3d, 0x7d, 0xf7, 0x85, 0xbc,
  0x22, 0x22, 0xd1, 0x3c, 0xa0, 0xc2, 0x4a, 0x3e, 0xdb, 0x4a, 0x1c, 0x3d,
  0x44, 0x8a, 0x61, 0xbe, 0xeb, 0xfa, 0x80, 0xbe, 0xda, 0x31, 0xca, 0x3d,
  0x6d, 0xd0, 0x17, 0x3d, 0xb1, 0x21, 0x1e, 0xbe, 0xec, 0x67, 0x3b, 0x3c,
  0x61, 0x15, 0x17, 0x3d, 0x80, 0xc4, 0xa5, 0x3d, 0x9e, 0x7b, 0xbe, 0xbd,
  0x33, 0xb1, 0x91, 0xbd, 0x85, 0xcf, 0x54, 0x3e, 0xcf, 0x00, 0x13, 0x3e,
  0x26, 0xfe, 0x8b, 0x3b, 0x66, 0xe8, 0x38, 0x3d, 0xc0, 0xe1, 0x72, 0xbc,
  0xd0, 0x63, 0x96, 0x3d, 0xdb, 0x38, 0x0a, 0xbe, 0x1f, 0x44, 0x7f, 0xbd,
  0x59, 0x95, 0x88, 0x3e, 0xa4, 0xca, 0x26, 0xbe, 0x3b, 0x4d, 0x09, 0xbe,
  0x42, 0xe4, 0x7e, 0xbd, 0xe5, 0x16, 0x16, 0x3e, 0xd0, 0xd5, 0xba, 0x3d,
  0x28, 0x94, 0xb4, 0xbc, 0x37, 0x86, 0xa5, 0xbd, 0xf1, 0x4c, 0x1e, 0x3d,
  0xd1, 0x3e, 0x41, 0xbd, 0xdd, 0xa1, 0x52, 0xbe, 0x40, 0xbb, 0x08, 0xbe,
  0xf3, 0x31, 0x0b, 0x3e, 0xe9, 0x02, 0x9a, 0xbe, 0xba, 0x14, 0x9c, 0xbd,
  0x7f, 0xa6, 0x66, 0xbe, 0x2b, 0x9e, 0x8a, 0x3e, 0x1c, 0x40, 0xfb, 0xbd,
  0x50, 0xf6, 0x82, 0xbe, 0x42, 0x7a, 0x84, 0xbe, 0xd3, 0x3a, 0x5f, 0x3e,
  0x59, 0x8a, 0xb1, 0xbe, 0xcd, 0xb6, 0x13, 0xbe, 0xc9, 0x8d, 0x67, 0xbe,
  0x6c, 0xfb, 0x7b, 0x3e, 0x9e, 0xdd, 0x57, 0xbe, 0x51, 0x4f, 0xf4, 0xbd,
  0x7f, 0xe7, 0xb4, 0xbd, 0x61, 0x4f, 0x6b, 0x3d, 0xad, 0x0c, 0x4b, 0xbe,
  0x06, 0x53, 0x67, 0xbe, 0xa3, 0x71, 0x18, 0xbe, 0x9a, 0x9c, 0x5a, 0x3e,
  0xb9, 0x09, 0x18, 0xbe, 0x64, 0x4e, 0x35, 0xbe, 0xee, 0xd5, 0x2b, 0xbe,
  0x83, 0x73, 0xd6, 0x3d, 0xa6, 0x04, 0x98, 0xbe, 0x62, 0x05, 0xcf, 0xbd,
  0xea, 0xb2, 0x2e, 0xbe, 0xa0, 0x00, 0x76, 0x3e, 0x89, 0xc7, 0x91, 0xbe,
  0x01, 0x70, 0x9d, 0xbd, 0xb6, 0x31, 0xde, 0xbd, 0x23, 0x93, 0xb9, 0x3d,
  0x8f, 0x9c, 0xa2, 0xbd, 0x66, 0x65, 0x97, 0xbe, 0x53, 0x87, 0x5e, 0xbe,
  0x7d, 0x87, 0x4a, 0x3e, 0xf7, 0x76, 0x4f, 0xbe, 0xc9, 0x21, 0x99, 0xbe,
  0xb8, 0x39, 0xe8, 0xbd, 0xd3, 0xaa, 0x96, 0x3e, 0x5f, 0x80, 0x87, 0xbd,
  0x83, 0xdb, 0x13, 0xbe, 0x3c, 0x8e, 0x45, 0xbe, 0xd4, 0x84, 0xf9, 0x3d,
  0xb9, 0x5c, 0x72, 0xbe, 0xd6, 0x73, 0x48, 0xbe, 0x26, 0x63, 0x5a, 0xbd,
  0x85, 0x9c, 0xc5, 0x3d, 0x42, 0xf2, 0xec, 0xbd, 0x5b, 0x58, 0x9d, 0xbe,
  0x91, 0x3b, 0x8f, 0xbe, 0x74, 0xb7, 0x0b, 0x3e, 0x6e, 0xe6, 0x99, 0xbd,
  0xf4, 0x79, 0x66, 0xbe, 0xfe, 0x06, 0xa8, 0xbe, 0x43, 0x92, 0x57, 0x3e,
  0x4d, 0x6b, 0x81, 0xbd, 0xf6, 0x64, 0x93, 0xbe, 0xe1, 0x00, 0x9d, 0xbd,
  0xe0, 0x1d, 0x95, 0x3e, 0x66, 0xfa, 0xa9, 0xbe, 0x06, 0x57, 0x85, 0xbe,
  0x3c, 0x53, 0x1c, 0xbe, 0xd5, 0x38, 0x96, 0x3e, 0x6c, 0x66, 0x46, 0xbe,
  0x47, 0xbe, 0x0f, 0xbe, 0x63, 0x47, 0x99, 0xbe, 0x26, 0x49, 0x6e, 0x3e,
  0xbc, 0x40, 0x01, 0xbe, 0x67, 0x56, 0x54, 0xbe, 0x61, 0x39, 0x36, 0xbe,
  0x07, 0x51, 0xdd, 0x3d, 0x56, 0x6b, 0x0c, 0xbe, 0xf4, 0x19, 0x8e, 0xbe,
  0x53, 0xbb, 0x59, 0xbe, 0x21, 0x97, 0x23, 0x3e, 0xad, 0x35, 0x39, 0xbd,
  0x7c, 0xe3, 0x98, 0xbe, 0x41, 0x87, 0x4c, 0xbe, 0xb7, 0x86, 0x19, 0x3d,
  0x5c, 0xf9, 0x8f, 0xbe, 0xbb, 0x4b, 0xa2, 0xbe, 0xeb, 0x14, 0xf9, 0xbd,
  0x60, 0xc0, 0xfc, 0x3d, 0x37, 0xb9, 0xe4, 0xbd, 0x0b, 0xb3, 0x9f, 0xbe,
  0x06, 0x4f, 0x18, 0xbe, 0xe4, 0x4b, 0x96, 0x3e, 0x45, 0x9f, 0x14, 0xbe,
  0x43, 0x35, 0x79, 0xbe, 0xe7, 0x89, 0x90, 0xbe, 0x32, 0x4a, 0x84, 0x3d,
  0xc6, 0x9d, 0x97, 0xbd, 0x98, 0xb3, 0x75, 0xbe, 0x67, 0x4e, 0x35, 0xbe,
  0x15, 0xa7, 0x16, 0x3c, 0x07, 0x74, 0x00, 0xbe, 0xe1, 0xce, 0x8c, 0xbe,
  0xf8, 0x29, 0xc8, 0xbe, 0xcc, 0xe6, 0x51, 0x3e, 0x80, 0x61, 0x8a, 0xbe,
  0xe2, 0x87, 0x67, 0xbe, 0x8b, 0xfc, 0xdc, 0xbd, 0xaa, 0xb6, 0x9a, 0x3e,
  0xbc, 0xc5, 0xa3, 0xbe, 0x5c, 0x29, 0xa7, 0xbe, 0xa6, 0xff, 0x4d, 0xbd,
  0x3e, 0xd1, 0xc8, 0x3d, 0x8d, 0x08, 0x93, 0xbe, 0xef, 0x17, 0xa4, 0x3d,
  0x04, 0xab, 0xa3, 0xbd, 0x66, 0x67, 0x0f, 0x3e, 0xc4, 0x0e, 0x7c, 0xb7,
  0x64, 0xe4, 0x18, 0xbd, 0xe7, 0xf6, 0xc0, 0x3c, 0x53, 0x26, 0xa1, 0xbd,
  0xeb, 0x60, 0x90, 0x3d, 0x7f, 0x7b, 0x6b, 0x3e, 0x09, 0x50, 0x93, 0x3d,
  0x5c, 0xc5, 0x35, 0xbe, 0xa2, 0xfd, 0x54, 0x3e, 0x01, 0x01, 0x1a, 0x3d,
  0x0b, 0xe6, 0x41, 0x3d, 0xd1, 0x2a, 0x68, 0xbe, 0x63, 0xaf, 0x18, 0x3c,
  0x89, 0x3b, 0x57, 0x3e, 0x7b, 0x04, 0x0f, 0x3d, 0x88, 0x1f, 0x1b, 0xbe,
  0xe6, 0x17, 0xb0, 0x3d, 0x71, 0xd8, 0x86, 0x3e, 0x7b, 0x1d, 0x06, 0xbc,
  0xf6, 0xd8, 0xa5, 0xbd, 0xc5, 0x6a, 0xf2, 0x3d, 0xef, 0x79, 0x42, 0x3d,
  0xc8, 0x05, 0xa1, 0x3d, 0xa0, 0xef, 0x94, 0xbd, 0x0b, 0x66, 0x89, 0x3d,
  0x3e, 0x4b, 0x28, 0x3c, 0xe5, 0xfb, 0x98, 0x3d, 0x20, 0xa6, 0x5b, 0xbe,
  0x22, 0xda, 0x2c, 0x3e, 0x58, 0x95, 0xa3, 0xbc, 0xab, 0xdf, 0x2c, 0x3e,
  0x0a, 0x04, 0x46, 0x3c, 0x33, 0x60, 0x4a, 0x3e, 0xd4, 0xf7, 0x90, 0x3e,
  0x4c, 0x8b, 0x09, 0x3d, 0x3e, 0xe3, 0x75, 0x3c, 0x9a, 0x3f, 0x09, 0x3e,
  0xc8, 0x75, 0x22, 0xba, 0x48, 0x7d, 0x77, 0x3e, 0x25, 0x70, 0x11, 0xbe,
  0x22, 0x47, 0x58, 0x3e, 0x31, 0xfe, 0xbe, 0x3c, 0x6d, 0xae, 0x1c, 0x3e,
  0x57, 0xe7, 0xc0, 0xbc, 0xa9, 0xe0, 0x1d, 0x3e, 0x2d, 0x29, 0x30, 0x3e,
  0xb2, 0x7d, 0x59, 0x3e, 0x58, 0x99, 0x42, 0xbe, 0xba, 0x74, 0x10, 0x3e,
  0x9d, 0x01, 0x8d, 0x3e, 0xaf, 0xd4, 0x17, 0x3e, 0x30, 0xfe, 0x8c, 0xbd,
  0x73, 0x4a, 0x3f, 0x3e, 0x51, 0x43, 0x3a, 0x3e, 0x03, 0xfe, 0x22, 0xba,
  0x4f, 0x03, 0x49, 0xbe, 0xb2, 0xd0, 0x37, 0x3e, 0x15, 0xf0, 0x45, 0x3e,
  0xa3, 0xd3, 0x38, 0x3d, 0x34, 0xac, 0x5f, 0xbe, 0xa8, 0x9d, 0x0f, 0x3e,
  0x3e, 0xd6, 0x08, 0x3e, 0xdc, 0x66, 0xbd, 0xbb, 0x16, 0x8c, 0x20, 0x3d,
  0x2c, 0xc9, 0x89, 0x3d, 0x54, 0x50, 0x93, 0xbc, 0xcb, 0x5e, 0x29, 0x3e,
  0x7f, 0xd1, 0xb1, 0xbd, 0xb5, 0xe6, 0x84, 0x3e, 0x15, 0xe2, 0x81, 0x3e,
  0xd3, 0x9a, 0xe0, 0x3b, 0x2e, 0x55, 0x1b, 0xbe, 0x3b, 0xc8, 0x2f, 0x3e,
  0xf3, 0xb5, 0x5a, 0x3d, 0xc1, 0x47, 0x24, 0x3e, 0x87, 0x94, 0xca, 0xb9,
  0x03, 0x7b, 0xea, 0x3d, 0x0a, 0xdb, 0xb9, 0x3d, 0x98, 0xb5, 0xff, 0x3c,
  0x02, 0xe7, 0x70, 0xbe, 0x0a, 0xb9, 0x8a, 0x3e, 0x12, 0xd3, 0xb5, 0x3d,
  0xd4, 0x63, 0x99, 0x3e, 0x01, 0x2b, 0x57, 0xbd, 0xc9, 0x16, 0x7f, 0x3e,
  0x1f, 0xc6, 0x81, 0x3e, 0x61, 0xb6, 0x5c, 0x3d, 0x0f, 0x3a, 0x70, 0xbe,
  0x7a, 0xb5, 0x35, 0x3e, 0xa6, 0x5e, 0x8f, 0x3d, 0x6f, 0xed, 0x29, 0x3e,
  0x22, 0x6c, 0xbd, 0xbd, 0x69, 0x7a, 0x44, 0x3e, 0xa8, 0xd6, 0x7a, 0x3e,
  0x72, 0x1c, 0xb7, 0x3d, 0xeb, 0x7e, 0xde, 0xbc, 0x43, 0x47, 0x3b, 0x3e,
  0x36, 0x74, 0x4b, 0x3e, 0x4a, 0xdc, 0xb7, 0x3c, 0x49, 0xa1, 0x71, 0x3d,
  0x12, 0xc5, 0x07, 0x3e, 0xa6, 0x78, 0x41, 0x3e, 0xf4, 0x14, 0x5e, 0x3e,
  0xdd, 0x06, 0x84, 0xbe, 0xe8, 0xfe, 0x00, 0x3e, 0x09, 0xa0, 0x93, 0x3e,
  0xe7, 0x32, 0x76, 0x3e, 0x87, 0x32, 0x1f, 0x3b, 0xb8, 0x39, 0x79, 0x3d,
  0x6f, 0x1b, 0xd0, 0x3d, 0x6b, 0xf2, 0xfc, 0x3d, 0x86, 0x9e, 0xc9, 0xbd,
  0x77, 0xaa, 0x46, 0x3e, 0x21, 0xea, 0x23, 0x3e, 0x00, 0x95, 0x03, 0xbd,
  0xba, 0x3b, 0x03, 0xbe, 0x09, 0x36, 0x45, 0xbd, 0xd3, 0xa7, 0xb7, 0x3c,
  0xf5, 0xf7, 0x33, 0xbe, 0xb0, 0xe2, 0xd1, 0xbb, 0x69, 0x5a, 0x2a, 0xbe,
  0xe3, 0x9a, 0x45, 0xbe, 0xf9, 0x40, 0x3d, 0xbe, 0x25, 0x4b, 0x25, 0xbd,
  0xdd, 0xe4, 0x88, 0xbe, 0xf8, 0x2b, 0x07, 0xbe, 0x37, 0xd6, 0x16, 0xbe,
  0x3a, 0xf1, 0x3e, 0x3d, 0x12, 0x97, 0xc1, 0xbd, 0x01, 0x0d, 0x7c, 0xbe,
  0x5b, 0x4c, 0x63, 0x3d, 0x8b, 0x37, 0x17, 0xbe, 0xd5, 0x90, 0x9a, 0xbc,
  0x70, 0x8b, 0x42, 0xbd, 0xbb, 0x76, 0xc6, 0x3b, 0xfe, 0xe2, 0x18, 0x3b,
  0x63, 0x8f, 0x7a, 0xbe, 0xf1, 0xe4, 0x6a, 0xbd, 0x46, 0xa3, 0x96, 0x3c,
  0xcb, 0x0b, 0x36, 0xbe, 0x81, 0xa7, 0x29, 0xbd, 0x53, 0xd1, 0x18, 0xbe,
  0x94, 0x21, 0x68, 0xbd, 0x79, 0x23, 0x5c, 0xbd, 0xd4, 0x83, 0xe2, 0xbd,
  0x74, 0x3c, 0x8f, 0xbd, 0x29, 0x17, 0x66, 0xbc, 0x67, 0x5e, 0x11, 0x3d,
  0xea, 0xb4, 0xa8, 0xbe, 0x70, 0x68, 0x2e, 0x3c, 0x1e, 0xca, 0x54, 0xbe,
  0x28, 0xad, 0x1c, 0xbe, 0xd3, 0xda, 0x10, 0xbe, 0xcc, 0xc6, 0x24, 0xbe,
  0x89, 0xc3, 0x79, 0xbe, 0x74, 0x4a, 0x11, 0x3d, 0x02, 0xb6, 0xa0, 0xbe,
  0x59, 0xcc, 0x60, 0xbc, 0x85, 0x83, 0x75, 0xbe, 0x3f, 0xf7, 0x09, 0x3d,
  0xb8, 0x5d, 0xdb, 0xbd, 0x61, 0x9c, 0x7f, 0xbe, 0x12, 0x71, 0x8e, 0xbd,
  0xda, 0x32, 0x9b, 0x3d, 0x05, 0x62, 0xd3, 0xbd, 0x37, 0xa6, 0x72, 0xbd,
  0xdb, 0xf3, 0x91, 0xbc, 0xb9, 0x87, 0xef, 0xbd, 0xfd, 0x00, 0x8e, 0xbe,
  0xee, 0x54, 0x36, 0xbe, 0x21, 0x99, 0x01, 0xbe, 0xd0, 0x88, 0x99, 0xbd,
  0x3b, 0x4f, 0xdf, 0xbd, 0x7f, 0xfb, 0x69, 0xbd, 0xd5, 0x3a, 0x2e, 0xbe,
  0x2e, 0xed, 0xbb, 0x3d, 0x6b, 0x91, 0x01, 0xbd, 0x0b, 0xda, 0x4f, 0xbe,
  0x91, 0xf6, 0x98, 0x39, 0x88, 0x4c, 0x98, 0x3d, 0x39, 0xb6, 0x34, 0xbe,
  0xb8, 0xc5, 0xb9, 0xbc, 0xfc, 0x1f, 0x5b, 0xbe, 0x5c, 0x04, 0x83, 0xbd,
  0x5a, 0x86, 0x47, 0xbe, 0xd4, 0xf5, 0xcb, 0xbd, 0xee, 0x84, 0x48, 0xbe,
  0x66, 0xe4, 0xab, 0x3d, 0x05, 0x66, 0x10, 0xbe, 0x88, 0x2c, 0x95, 0xbd,
  0x7f, 0x1f, 0xdf, 0xbd, 0xde, 0xe7, 0x45, 0xbe, 0x77, 0xb7, 0x7d, 0xbd,
  0x94, 0x83, 0x8f, 0xbe, 0xb5, 0x37, 0x70, 0xbe, 0xe9, 0x55, 0xa1, 0x3b,
  0x71, 0x02, 0xa2, 0xbd, 0x3a, 0xcb, 0x41, 0xbe, 0x6a, 0x86, 0xd5, 0xbd,
  0xc1, 0x5d, 0x0a, 0xbe, 0x40, 0xd1, 0x8d, 0xbd, 0x23, 0x1f, 0x74, 0xbe,
  0xfb, 0x56, 0xec, 0xbd, 0x40, 0x50, 0xe8, 0xbd, 0x29, 0x18, 0xf5, 0xbd,
  0x8d, 0x08, 0x90, 0xbd, 0x4b, 0xde, 0xa5, 0xbb, 0x92, 0x92, 0x19, 0xbe,
  0x18, 0x7a, 0x15, 0xbe, 0x3e, 0x7e, 0xd6, 0x3b, 0x4b, 0x20, 0x19, 0xbd,
  0x4b, 0xfb, 0x30, 0xbe, 0xf0, 0x51, 0x23, 0xbe, 0x28, 0x87, 0xf4, 0xbd,
  0xd2, 0xc1, 0x0f, 0xbe, 0xe8, 0x7e, 0xc8, 0xbd, 0x9a, 0x62, 0x92, 0xbe,
  0x32, 0xa7, 0x97, 0xbd, 0x6a, 0x71, 0x1c, 0xbe, 0xbe, 0x4c, 0x99, 0xbd,
  0x66, 0xe7, 0xfa, 0xbd, 0xd2, 0x9e, 0x2e, 0xbe, 0x6f, 0xc3, 0x60, 0xbe,
  0x05, 0x4f, 0x2f, 0x3c, 0x3a, 0xea, 0x23, 0xbe, 0x44, 0x53, 0x1a, 0xbe,
  0x15, 0xa6, 0x15, 0xbe, 0x60, 0xfa, 0xf0, 0xbd, 0x4c, 0xbd, 0x9c, 0x3c,
  0xd8, 0x69, 0x60, 0x3e, 0x76, 0xf9, 0x2c, 0x3e, 0xd2, 0xd6, 0x21, 0xbe,
  0xd6, 0x24, 0x9d, 0x3e, 0xc8, 0xb1, 0x80, 0x3c, 0x5d, 0x0e, 0x62, 0x3d,
  0x87, 0x45, 0x69, 0xbe, 0xe3, 0x59, 0x88, 0x3e, 0x70, 0xb5, 0xa8, 0x3d,
  0xe2, 0xcf, 0x3b, 0x3e, 0xd0, 0xce, 0x15, 0xbe, 0x5a, 0xa3, 0x81, 0xbb,
  0x34, 0xbd, 0xee, 0x3d, 0xef, 0x7d, 0xa2, 0x3d, 0xcc, 0x28, 0x69, 0xbd,
  0xa5, 0x0b, 0x72, 0x3e, 0x89, 0x92, 0xce, 0x3d, 0x80, 0xb8, 0xb2, 0x3c,
  0x4f, 0xe8, 0xa0, 0xbd, 0xc2, 0xfd, 0xfe, 0x3d, 0x43, 0x0e, 0x6f, 0x3e,
  0xd0, 0x3f, 0x63, 0x3e, 0xbe, 0x76, 0x80, 0xbc, 0x20, 0x95, 0x15, 0x3e,
  0xb2, 0xb8, 0x91, 0x3e, 0x4c, 0x6d, 0xe4, 0xbb, 0x29, 0x55, 0x82, 0xbe,
  0x22, 0xd8, 0xfc, 0xbb, 0x17, 0x59, 0xa0, 0x3d, 0x69, 0xa6, 0x9c, 0x3d,
  0x84, 0x37, 0x05, 0x3c, 0xfa, 0xc8, 0x79, 0x3e, 0xe7, 0x7b, 0x03, 0x3e,
  0xa2, 0x02, 0x82, 0x3b, 0xf5, 0x8a, 0x83, 0xbe, 0xa7, 0x28, 0x2d, 0x3e,
  0x77, 0x50, 0x23, 0x3e, 0x42, 0x26, 0x97, 0x3e, 0xdd, 0x66, 0x74, 0xbe,
  0x2a, 0xf3, 0x69, 0x3e, 0xd4, 0x0d, 0xcd, 0x3d, 0x92, 0x20, 0x05, 0x3e,
  0xc9, 0xfb, 0x76, 0xbe, 0xeb, 0xc5, 0x05, 0x3e, 0xf4, 0x8f, 0xb2, 0x3d,
  0xb0, 0xa5, 0x4d, 0x3e, 0xed, 0x9b, 0x23, 0xbe, 0x6d, 0xb3, 0x8c, 0x3e,
  0x81, 0x11, 0x58, 0x3e, 0x96, 0x4e, 0xfb, 0x3d, 0x24, 0x38, 0xcc, 0x3c,
  0xe2, 0xe2, 0x1d, 0x3e, 0x07, 0xae, 0x74, 0x3e, 0xfa, 0x30, 0xac, 0x3d,
  0xdf, 0xf5, 0x7b, 0xbe, 0x02, 0x19, 0x95, 0x3d, 0xee, 0x62, 0x5e, 0x3d,
  0x40, 0x1e, 0xfa, 0x3d, 0x91, 0xf6, 0x30, 0xbe, 0xd1, 0xb9, 0x64, 0x3e,
  0x8a, 0xc4, 0x8b, 0x3e, 0x92, 0x06, 0x40, 0x3e, 0xac, 0x8e, 0xbb, 0xbd,
  0xb8, 0xcd, 0x67, 0x3e, 0xdd, 0xef, 0x9d, 0x3d, 0xa7, 0x51, 0x9a, 0x3e,
  0x97, 0x80, 0x7b, 0xbe, 0xd6, 0xc9, 0x04, 0x3e, 0x03, 0xc4, 0xfd, 0x3d,
  0x50, 0x3f, 0xa2, 0x3e, 0xcd, 0x14, 0xfc, 0xbb, 0xe5, 0x19, 0x34, 0x3e,
  0x99, 0xb4, 0x94, 0x3d, 0xac, 0xa6, 0x98, 0x3e, 0x92, 0x37, 0x0a, 0xbd,
  0x3b, 0xf5, 0x7c, 0x3e, 0x84, 0x6c, 0x5d, 0x3e, 0x4c, 0x6b, 0xda, 0x3c,
  0xae, 0xbe, 0xcc, 0x3b, 0xc2, 0x16, 0x07, 0x3e, 0xab, 0x88, 0xa6, 0x3e,
  0x95, 0x2c, 0xb2, 0x3e, 0x1e, 0x2e, 0x10, 0xbd, 0x63, 0x79, 0x13, 0x3d,
  0x84, 0x07, 0x92, 0x3e, 0x55, 0x4e, 0x3c, 0x3e, 0xe8, 0x97, 0x45, 0xbe,
  0x6b, 0x28, 0x1b, 0x3c, 0x6b, 0x20, 0xa1, 0x3d, 0x89, 0xa6, 0x06, 0x3e,
  0xda, 0x04, 0x13, 0xbd, 0xf1, 0x9a, 0xd8, 0x3a, 0x02, 0xc1, 0x3a, 0x3e,
  0xfb, 0x79, 0xbe, 0x3c, 0xa2, 0xbb, 0xbb, 0xbd, 0xcc, 0xb2, 0x87, 0x3e,
  0x8d, 0x8e, 0x3d, 0x3e, 0x1c, 0x1b, 0x9c, 0x3e, 0x8c, 0x02, 0x3a, 0x3d,
  0xf1, 0x92, 0x70, 0x3e, 0x83, 0xb7, 0xcd, 0x3d, 0xe9, 0x34, 0x02, 0x3d,
  0x18, 0x9b, 0xee, 0xbd, 0xcd, 0xed, 0x80, 0x3d, 0xbf, 0xfe, 0x82, 0x3e,
  0x0c, 0x74, 0x26, 0x3e, 0xd6, 0xd2, 0x0b, 0xbd, 0x0c, 0x30, 0x97, 0x3c,
  0x36, 0x9a, 0xd9, 0x3d, 0x49, 0x2b, 0xbe, 0x3d, 0xba, 0xeb, 0x33, 0xbe,
  0x57, 0xd2, 0x9e, 0x3c, 0x68, 0x0c, 0xe7, 0x3c, 0xc4, 0x36, 0x94, 0x3e,
  0xac, 0x55, 0x7d, 0x3d, 0xf9, 0x48, 0x0c, 0xbe, 0xc7, 0xc7, 0x1f, 0x3d,
  0x28, 0xaf, 0xfd, 0x3d, 0xbe, 0xf6, 0x86, 0xbe, 0xd5, 0x40, 0x24, 0xbe,
  0x40, 0x71, 0x8e, 0x3d, 0x6d, 0x08, 0x38, 0x3e, 0xa6, 0xda, 0x53, 0xbe,
  0x09, 0x3a, 0x1a, 0xbd, 0x91, 0x9a, 0x29, 0x3e, 0x97, 0x7e, 0x8c, 0xbd,
  0xf1, 0x9f, 0xd7, 0x3b, 0x26, 0x60, 0x18, 0xbe, 0x1e, 0x2d, 0x91, 0x3e,
  0x7c, 0x82, 0x8d, 0xbb, 0x3b, 0x10, 0x45, 0xbe, 0xe4, 0x6e, 0x7e, 0x3d,
  0xf6, 0xd0, 0x1c, 0x3e, 0x7f, 0x6a, 0x04, 0x3e, 0xc4, 0x49, 0x70, 0xbe,
  0x9a, 0xd5, 0xe6, 0xbd, 0x8f, 0x96, 0x98, 0x3e, 0xf1, 0xc5, 0x7c, 0xbc,
  0xf4, 0xf0, 0x50, 0xbc, 0xb4, 0xe2, 0x88, 0x3d, 0xae, 0x88, 0x00, 0x3e,
  0x9d, 0x81, 0x12, 0x3d, 0x99, 0xab, 0x7c, 0xbe, 0x3a, 0xf3, 0x8c, 0x3d,
  0x51, 0x07, 0x8b, 0x3e, 0xcb, 0x4b, 0x97, 0x3e, 0x02, 0x04, 0x22, 0xbe,
  0xb8, 0x68, 0xa5, 0x3d, 0xc3, 0x0b, 0x9d, 0x3e, 0x25, 0xd9, 0x9d, 0x3d,
  0x8f, 0x26, 0xe0, 0xbd, 0xa5, 0xca, 0xb7, 0x3d, 0x56, 0xdd, 0x79, 0x3e,
  0x5d, 0x3a, 0x3a, 0xbc, 0x93, 0xb6, 0xea, 0x3c, 0x00, 0x55, 0x85, 0xbc,
  0x17, 0x54, 0x22, 0x3e, 0x17, 0x46, 0xe8, 0x3d, 0xd6, 0xd3, 0x5e, 0xbe,
  0xae, 0x4c, 0xb1, 0xbd, 0x7d, 0x4c, 0xde, 0x3c, 0x62, 0xda, 0x6e, 0x3d,
  0x20, 0x48, 0x25, 0xbe, 0xa1, 0x76, 0xd5, 0xbd, 0x2b, 0x7d, 0xb1, 0x3d,
  0xdd, 0xa7, 0x0e, 0xbd, 0xec, 0xe3, 0x99, 0x38, 0x53, 0x6e, 0xdc, 0x3d,
  0xd7, 0x53, 0x9f, 0x3d, 0x39, 0x9e, 0xdc, 0x3d, 0xa0, 0x86, 0x8c, 0xbb,
  0xe2, 0x42, 0x05, 0xbe, 0x8d, 0xe0, 0x97, 0x3e, 0x97, 0x8f, 0x34, 0x3e,
  0x62, 0x66, 0xe2, 0xbd, 0xb4, 0xd1, 0x17, 0xbe, 0x8d, 0x00, 0x1c, 0x3c,
  0x95, 0xda, 0x71, 0x3e, 0x30, 0x2b, 0x2a, 0x3d, 0x9c, 0x90, 0x0a, 0xbe,
  0x49, 0xf0, 0xa8, 0x3e, 0x3f, 0x43, 0xff, 0x3c, 0x8c, 0xd8, 0xee, 0xbc,
  0xe2, 0xa3, 0x1f, 0xbe, 0xae, 0x99, 0x02, 0x3e, 0x04, 0xd4, 0x1d, 0x3e,
  0x03, 0x73, 0x36, 0x3d, 0x2d, 0x77, 0x94, 0xbd, 0xdc, 0x32, 0x68, 0x3e,
  0x94, 0x3a, 0x0a, 0x3b, 0xa6, 0xf3, 0x40, 0x3c, 0xd3, 0x02, 0x37, 0xbe,
  0xb0, 0x7d, 0x37, 0x3e, 0x62, 0xf9, 0x2b, 0x3e, 0x1a, 0x5e, 0x42, 0xbe,
  0x6f, 0x80, 0xc7, 0xbd, 0xed, 0x4c, 0x1d, 0x3e, 0x48, 0xd9, 0x85, 0x3e,
  0xff, 0xcd, 0x1a, 0x3d, 0x73, 0x81, 0x9d, 0x3d, 0x07, 0xc1, 0x0b, 0x3e,
  0x15, 0x58, 0x6a, 0x3e, 0xc3, 0xf1, 0x23, 0xbe, 0x78, 0xee, 0xea, 0xbb,
  0x80, 0x4a, 0x80, 0x3e, 0x21, 0x01, 0x68, 0x3e, 0x7d, 0x12, 0xb2, 0x3c,
  0x85, 0x83, 0x72, 0x3c, 0x61, 0x94, 0xb2, 0x3d, 0x3d, 0x2d, 0x66, 0x3d,
  0xf0, 0x59, 0x9b, 0x3c, 0x08, 0xc1, 0x4f, 0xbc, 0x62, 0x11, 0xab, 0x3d,
  0x4b, 0xd5, 0xf9, 0x3b, 0x84, 0x20, 0x3f, 0xbe, 0x43, 0x3d, 0x22, 0xbc,
  0x4c, 0x5e, 0x5b, 0x3d, 0xfe, 0x41, 0xe5, 0x3c, 0x47, 0x2c, 0x89, 0xbd,
  0xe8, 0x5b, 0xe7, 0x3d, 0xa0, 0x96, 0xc6, 0x3d, 0x26, 0xbf, 0x6a, 0x3e,
  0x20, 0xde, 0x45, 0xbc, 0xe7, 0x60, 0xe5, 0xbc, 0x1b, 0x70, 0x67, 0xbd,
  0xfe, 0x94, 0x0f, 0x3e, 0x51, 0x48, 0x8e, 0xbd, 0x33, 0xbd, 0x4d, 0xbe,
  0xdb, 0x32, 0x90, 0xbd, 0x13, 0x83, 0xaa, 0xba, 0x66, 0xde, 0x59, 0x3d,
  0xeb, 0x3e, 0x4f, 0xbe, 0xcb, 0xaa, 0x7c, 0xbc, 0xe4, 0x0a, 0x91, 0xbb,
  0xf3, 0xb4, 0xb2, 0x3d, 0x2e, 0x84, 0x49, 0x3d, 0x01, 0xfe, 0x83, 0xbc,
  0x9f, 0xc0, 0xb5, 0xbc, 0x1f, 0x41, 0x13, 0x3e, 0x9a, 0xec, 0xc4, 0xbd,
  0xf5, 0x00, 0x7a, 0xbd, 0x4f, 0x20, 0x87, 0xbd, 0xaa, 0xe8, 0x7b, 0xbc,
  0x17, 0x3b, 0x3d, 0xbd, 0xbf, 0xb4, 0xf3, 0xbc, 0xbf, 0xa3, 0x6d, 0xbd,
  0x93, 0x53, 0xe1, 0x3c, 0xe6, 0x91, 0xb0, 0xbd, 0x13, 0x2c, 0x8f, 0xbe,
  0xee, 0xbe, 0x82, 0xbe, 0x5f, 0xfa, 0xcc, 0xbd, 0x19, 0xd4, 0x3c, 0xbe,
  0x3e, 0x63, 0xe1, 0xbd, 0x96, 0xcb, 0xc5, 0xbb, 0x79, 0xe2, 0x43, 0x3d,
  0x5b, 0x07, 0x57, 0xbe, 0x08, 0xb3, 0x71, 0xbe, 0x7d, 0x58, 0x11, 0xbe,
  0xc7, 0x00, 0x0c, 0x3e, 0x50, 0xf9, 0x1a, 0x3d, 0x0d, 0xa6, 0x3a, 0xbe,
  0x86, 0x88, 0xb7, 0xbb, 0x0f, 0xbf, 0xdc, 0x3d, 0x05, 0x9d, 0xd4, 0x3c,
  0xd0, 0x90, 0x2d, 0xbd, 0xad, 0x0d, 0xa1, 0xbe, 0x0b, 0xe5, 0x99, 0x3d,
  0xf3, 0x92, 0x93, 0xbd, 0x93, 0x25, 0xe4, 0xbc, 0xf2, 0x62, 0x4d, 0xbe,
  0x20, 0x8e, 0x3b, 0x3e, 0x66, 0x66, 0xb9, 0xbc, 0xca, 0xd0, 0x08, 0xbe,
  0x97, 0xa3, 0x99, 0xbe, 0x6e, 0x9d, 0x81, 0x3d, 0x3a, 0x12, 0x47, 0xbe,
  0xf9, 0xa3, 0x2e, 0xbe, 0x39, 0x9e, 0xbe, 0xbd, 0xbd, 0x6d, 0x32, 0x3e,
  0x19, 0x05, 0x2d, 0xbe, 0x9f, 0xd2, 0x21, 0xbe, 0xcc, 0xb5, 0xc6, 0xbd,
  0x89, 0xc5, 0x19, 0x3e, 0x1b, 0x80, 0xda, 0xbd, 0xe2, 0x75, 0x1e, 0xbe,
  0x7a, 0xee, 0xcb, 0xbd, 0xf2, 0x9f, 0x26, 0x3e, 0x1f, 0x45, 0x42, 0xbd,
  0x2a, 0x6b, 0x35, 0xbe, 0xf4, 0xc9, 0x15, 0xbe, 0x3f, 0x4c, 0x1c, 0xbc,
  0x88, 0x2b, 0xec, 0x3a, 0xc7, 0x9d, 0x72, 0xbe, 0x9e, 0x11, 0x91, 0xbe,
  0xbf, 0x12, 0xb9, 0xbd, 0x4f, 0xf1, 0xd9, 0x3b, 0x9a, 0x0e, 0x90, 0xbe,
  0xa0, 0x71, 0x1c, 0xbe, 0x94, 0xb1, 0xdf, 0xbc, 0x8c, 0x17, 0xff, 0xbd,
  0xe6, 0x2b, 0x17, 0xbe, 0x35, 0xc7, 0x73, 0xbc, 0xe4, 0x73, 0xcc, 0xba,
  0xa6, 0xed, 0xb0, 0xbd, 0xcc, 0xac, 0xec, 0xbd, 0xa8, 0xf4, 0x50, 0xbe,
  0x42, 0xc8, 0xab, 0x3d, 0x94, 0xa8, 0x73, 0xbd, 0x1f, 0xe6, 0x7f, 0xbe,
  0xa3, 0xd4, 0x13, 0xbe, 0x45, 0xa5, 0xe0, 0x3d, 0x11, 0xdb, 0x5d, 0xbd,
  0xcb, 0x43, 0x27, 0xbe, 0x9d, 0x67, 0x17, 0xbe, 0x42, 0x4f, 0xcf, 0x3d,
  0x05, 0x0e, 0x70, 0xbe, 0xa1, 0x2a, 0x7a, 0xbe, 0x65, 0xc4, 0xb0, 0xbe,
  0x7f, 0xbe, 0xca, 0xbc, 0x5a, 0x76, 0x87, 0xbe, 0xe8, 0xd1, 0xc0, 0xbd,
  0x00, 0x71, 0x26, 0xbd, 0x87, 0xb7, 0xad, 0x3d, 0x59, 0xd2, 0xf3, 0xbc,
  0x15, 0xf8, 0x0a, 0xbe, 0xe8, 0x0b, 0xc5, 0x39, 0xd6, 0x87, 0x3c, 0x3e,
  0xaa, 0xe7, 0xa3, 0xbc, 0xf7, 0xe7, 0xa7, 0xbd, 0x95, 0x41, 0x67, 0xbe,
  0xed, 0x5c, 0x49, 0xbd, 0xae, 0xd5, 0x3c, 0xbe, 0x72, 0x1b, 0x63, 0xbd,
  0x8a, 0x3d, 0x8e, 0xbd, 0xf8, 0x2a, 0xc2, 0x3c, 0xa1, 0x2c, 0x02, 0xbd,
  0xd6, 0xd9, 0x92, 0xbd, 0xf9, 0x5b, 0x94, 0xbe, 0xe5, 0xe2, 0x40, 0x3e,
  0x17, 0x1c, 0xba, 0x3d, 0x6e, 0x4a, 0xef, 0x3c, 0x44, 0xf5, 0xa2, 0x3d,
  0x13, 0xd8, 0xe4, 0xbc, 0x31, 0x27, 0x56, 0x3e, 0xa7, 0x37, 0xce, 0x3d,
  0xf7, 0xb1, 0xea, 0x3b, 0x8a, 0xaa, 0x80, 0xbc, 0x7f, 0xf0, 0x1c, 0x3e,
  0xe7, 0x4a, 0x59, 0x3e, 0xa1, 0xd9, 0x3c, 0x3e, 0x8c, 0x9a, 0x24, 0xbd,
  0xad, 0x64, 0x3b, 0x3e, 0x35, 0xe3, 0x3a, 0x3e, 0x84, 0x9b, 0x36, 0xbc,
  0x0e, 0x57, 0x15, 0xbe, 0xf6, 0xf5, 0x3f, 0x3e, 0x4c, 0xad, 0x60, 0x3e,
  0x5e, 0x67, 0x2b, 0x3e, 0xad, 0xe3, 0xec, 0xbd, 0x3e, 0x4f, 0xbd, 0x3e,
  0x41, 0x83, 0xaa, 0x3d, 0x97, 0x7c, 0x69, 0xbc, 0xbc, 0xd4, 0xc2, 0x3c,
  0xaa, 0xdb, 0x25, 0x3e, 0xe3, 0x2d, 0x62, 0xbc, 0x00, 0x75, 0x85, 0x3e,
  0xb0, 0xe6, 0xef, 0x3d, 0x68, 0x9d, 0xa2, 0x3e, 0xc9, 0xcd, 0x9f, 0x3d,
  0xc6, 0x58, 0x2c, 0x3d, 0x83, 0x7b, 0x52, 0xbe, 0x04, 0x47, 0xa1, 0x3e,
  0x10, 0x41, 0x6b, 0x3e, 0x03, 0x43, 0x74, 0x3e, 0x65, 0x0d, 0x26, 0x3d,
  0x19, 0xc3, 0xf4, 0x3d, 0x24, 0xda, 0xae, 0x3d, 0x76, 0x97, 0xd6, 0x3d,
  0x96, 0x2e, 0xde, 0xbc, 0x47, 0x5e, 0x7a, 0x3e, 0xbf, 0x52, 0x1b, 0x3d,
  0xf7, 0x5a, 0x5d, 0x3e, 0x8d, 0xf1, 0x36, 0xb7, 0x84, 0x7b, 0x73, 0x3e,
  0x8a, 0xe7, 0xa6, 0xbc, 0xff, 0xd3, 0x4f, 0x3e, 0x27, 0xbf, 0x63, 0xbe,
  0x0f, 0xab, 0xc1, 0x3e, 0x5a, 0x52, 0x55, 0x3e, 0xbf, 0x90, 0xe0, 0x3d,
  0xd9, 0x93, 0xd7, 0xbc, 0xcb, 0x48, 0x3e, 0x3e, 0x21, 0x25, 0x97, 0xbc,
  0xad, 0x1c, 0x81, 0x3d, 0xff, 0x4f, 0xc4, 0x3c, 0xa3, 0xa3, 0xa8, 0x3e,
  0x91, 0x6a, 0x0f, 0xbb, 0xe7, 0xa1, 0x49, 0x3e, 0xb8, 0x19, 0xc7, 0xbd,
  0x6e, 0xc3, 0x4f, 0x3e, 0x27, 0x5b, 0x18, 0x3e, 0x1e, 0xb5, 0x38, 0x3d,
  0x44, 0xa8, 0xcf, 0x3d, 0x9f, 0xd4, 0x9d, 0x3e, 0xe0, 0x54, 0x15, 0x3e,
  0x95, 0xd3, 0xa9, 0x3d, 0xde, 0xb1, 0x3b, 0xbe, 0x7b, 0x44, 0x50, 0x3e,
  0x38, 0x89, 0x37, 0x3e, 0x8b, 0xc0, 0x96, 0x3e, 0xc8, 0x38, 0x14, 0xbe,
  0xf6, 0x97, 0x58, 0x3e, 0xe1, 0xb2, 0x0e, 0x3e, 0xe5, 0xb7, 0x66, 0x3e,
  0xcb, 0x4c, 0x3c, 0xbe, 0xda, 0x9a, 0xa5, 0x3d, 0x4a, 0x8f, 0x1a, 0x3e,
  0x44, 0x3a, 0x37, 0x3e, 0x38, 0x93, 0xa2, 0x3d, 0xfe, 0x60, 0x90, 0x3e,
  0xb9, 0x9d, 0x4e, 0x3d, 0x9c, 0x88, 0x84, 0x3e, 0x57, 0xf3, 0xd3, 0xbd,
  0x34, 0xc6, 0x2e, 0x3e, 0x18, 0xd6, 0x8d, 0x3e, 0x4d, 0xc6, 0xe1, 0x3d,
  0xec, 0xb4, 0x13, 0xbe, 0xe7, 0xa2, 0x65, 0x3e, 0x1f, 0x09, 0xc4, 0xbc,
  0x90, 0x7a, 0x03, 0x3e, 0xf7, 0x1c, 0x08, 0x3d, 0x82, 0x49, 0x10, 0x3e,
  0x89, 0x9a, 0x89, 0x3e, 0x85, 0x2d, 0x79, 0x3e, 0x9d, 0x0c, 0x31, 0xbd,
  0x33, 0x02, 0x2a, 0x3e, 0x82, 0xad, 0x9e, 0x3e, 0x94, 0x88, 0x9f, 0x3e,
  0x90, 0x54, 0xac, 0x3a, 0xf2, 0x55, 0x0b, 0x3e, 0x13, 0xfc, 0x63, 0x3d,
  0x79, 0xf9, 0xac, 0x3d, 0x0b, 0x9d, 0xa8, 0x3d, 0x3f, 0xc0, 0x8f, 0x3e,
  0x6d, 0x78, 0x14, 0x3e, 0x5b, 0xe5, 0x9d, 0x3e, 0x2a, 0x68, 0x25, 0xbe,
  0x38, 0x64, 0x66, 0x3e, 0x3d, 0xae, 0x26, 0x3d, 0xf7, 0xfe, 0x68, 0x3e,
  0x36, 0x6e, 0xf9, 0x3d, 0xe6, 0x3d, 0xbe, 0x3e, 0xe2, 0xe2, 0xd0, 0xbd,
  0x2e, 0x79, 0xb2, 0xbd, 0x8b, 0x4d, 0x0d, 0xbe, 0x6c, 0x77, 0x2f, 0x3d,
  0x55, 0xd5, 0xe6, 0x3c, 0x12, 0xc2, 0x76, 0x3d, 0x52, 0x6a, 0x83, 0xbe,
  0x8a, 0x43, 0xba, 0x3d, 0x7a, 0x5d, 0xb5, 0xbd, 0xb7, 0x86, 0x08, 0xbe,
  0x13, 0xd4, 0x37, 0xbd, 0xcb, 0x6c, 0x2d, 0x3d, 0x36, 0xc8, 0x83, 0xbd,
  0x77, 0x33, 0x64, 0x3c, 0x4a, 0x86, 0xf9, 0xbd, 0xa0, 0x73, 0xd8, 0xbd,
  0xea, 0x57, 0xcc, 0xbd, 0x0e, 0xbc, 0x6a, 0xbd, 0xac, 0x1d, 0xbd, 0xbc,
  0x04, 0xbd, 0x98, 0xbd, 0x23, 0x30, 0x38, 0xbd, 0xb4, 0xd5, 0x6e, 0xbd,
  0xa3, 0x61, 0x8a, 0xbd, 0x98, 0x37, 0xbb, 0xbd, 0x8d, 0x03, 0x14, 0x3d,
  0x80, 0x35, 0x4d, 0xbd, 0x8b, 0xaa, 0xff, 0xbc, 0x51, 0x77, 0x5e, 0xbd,
  0x55, 0xae, 0x05, 0x3e, 0xdf, 0x1d, 0x2d, 0xbe, 0x54, 0x60, 0x37, 0xbe,
  0x0f, 0x86, 0x37, 0xbc, 0xe4, 0xe5, 0xf6, 0x3c, 0xf6, 0xdb, 0xeb, 0xbb,
  0x7d, 0x05, 0x93, 0xbe, 0x72, 0xa6, 0x45, 0x3d, 0xe4, 0xbf, 0xce, 0x3d,
  0xb9, 0x5a, 0xdf, 0xbc, 0x47, 0x0d, 0x31, 0xbc, 0xcc, 0x44, 0x2d, 0xbe,
  0xd0, 0x36, 0x80, 0xbc, 0x01, 0x88, 0xca, 0x3d, 0xc0, 0x2b, 0x2f, 0xbe,
  0xf1, 0x04, 0x01, 0xbe, 0x22, 0x25, 0x28, 0x3d, 0x25, 0x5a, 0x8f, 0x3d,
  0x72, 0x7a, 0x76, 0xbe, 0x41, 0xfb, 0xc9, 0x3c, 0x52, 0x13, 0x73, 0x3d,
  0x7c, 0x7d, 0xb4, 0x3d, 0xf4, 0x4d, 0x78, 0xbe, 0xf3, 0x11, 0x72, 0x3d,
  0xee, 0xb3, 0x11, 0x3e, 0x5f, 0x9f, 0x4c, 0xbe, 0x8d, 0x8a, 0x8c, 0xbd,
  0xc4, 0x92, 0x07, 0xba, 0x62, 0xe0, 0x77, 0xbd, 0x8b, 0x31, 0x59, 0xba,
  0xd7, 0x2c, 0x7b, 0xbe, 0x16, 0x75, 0x61, 0x3d, 0x13, 0x00, 0x08, 0xbc,
  0x93, 0x36, 0x22, 0xbd, 0xe6, 0xd4, 0x1b, 0xbd, 0xe9, 0x75, 0xb5, 0xbd,
  0x87, 0x45, 0x56, 0xbd, 0xa7, 0xfb, 0x23, 0x3d, 0x36, 0x10, 0x4b, 0x3d,
  0x6d, 0xf3, 0x08, 0xbc, 0x89, 0x5b, 0xda, 0xbd, 0x39, 0x7a, 0x05, 0x3e,
  0xef, 0x11, 0x39, 0xbe, 0x74, 0x79, 0xed, 0xbc, 0x59, 0xe2, 0x31, 0x3d,
  0x01, 0x73, 0x15, 0xbd, 0x89, 0xf4, 0xcc, 0xbd, 0x04, 0x5d, 0x56, 0x3d,
  0xd0, 0xe5, 0x75, 0xbd, 0x94, 0x8a, 0x52, 0xbc, 0xd6, 0x48, 0xca, 0xbd,
  0x39, 0xd2, 0x7c, 0xbd, 0x27, 0xd2, 0x3d, 0x3e, 0x51, 0x6e, 0x41, 0x3b,
  0xcd, 0x8c, 0x3a, 0xbd, 0x28, 0x2f, 0x5d, 0x3d, 0x44, 0x06, 0x56, 0x3e,
  0xc1, 0x63, 0xd1, 0xbd, 0x3f, 0x90, 0x9c, 0x3c, 0x18, 0x0b, 0x55, 0x3d,
  0x0f, 0xb3, 0xc8, 0x39, 0x84, 0xf3, 0x7b, 0xbd, 0xf6, 0xc6, 0x7b, 0xbd,
  0x2e, 0xa7, 0xc1, 0x3d, 0x0c, 0x82, 0xb4, 0xbd, 0xa9, 0x59, 0x15, 0xbe,
  0x91, 0x26, 0xeb, 0xbd, 0x3d, 0xb1, 0xd9, 0xbc, 0x74, 0x9b, 0x15, 0x3e,
  0xe2, 0x78, 0xbb, 0xbd, 0x7e, 0xd5, 0xda, 0xba, 0xb7, 0x78, 0x47, 0xbe,
  0xc9, 0xaa, 0x06, 0x3d, 0xa5, 0x2c, 0xc4, 0xbd, 0x9d, 0x9f, 0x95, 0x3c,
  0x06, 0xaa, 0xa5, 0x3d, 0xe7, 0xff, 0xfa, 0x3d, 0x51, 0x73, 0x08, 0xbd,
  0xce, 0x72, 0x89, 0xbe, 0xf9, 0xcb, 0x67, 0xbd, 0x61, 0x3e, 0xdd, 0x3d,
  0x9f, 0x6c, 0x21, 0xbe, 0x48, 0xda, 0xfd, 0xbd, 0xc2, 0x08, 0xa3, 0xbd,
  0xe7, 0xa8, 0xfb, 0x3d, 0xbf, 0x85, 0xd6, 0x3d, 0x51, 0x12, 0x8c, 0xbd,
  0x9e, 0xaa, 0xd9, 0x3d, 0xb7, 0x66, 0x80, 0x3e, 0x50, 0xf3, 0x86, 0x3e,
  0x0f, 0xff, 0x95, 0x3c, 0xe7, 0xc1, 0x28, 0x3e, 0x6d, 0x75, 0x89, 0x3e,
  0x34, 0x38, 0x46, 0x3e, 0xe3, 0xd8, 0xe2, 0xbd, 0x52, 0xb8, 0x6a, 0x3e,
  0xbd, 0xdd, 0x7c, 0x3e, 0xe9, 0xd3, 0x0d, 0x3e, 0x77, 0xa7, 0x8a, 0xbe,
  0x31, 0xa2, 0x72, 0x3e, 0x9c, 0x2c, 0x62, 0x3e, 0xf6, 0xe7, 0x93, 0x3e,
  0x85, 0x90, 0x1e, 0xbe, 0xae, 0xb9, 0x24, 0x3e, 0x40, 0x09, 0x75, 0x3e,
  0xfe, 0x27, 0x34, 0x3e, 0x0c, 0xa6, 0x9a, 0xbe, 0xc8, 0x8d, 0x8a, 0x3e,
  0xfa, 0x67, 0x5a, 0x3e, 0x86, 0xc1, 0x43, 0x3e, 0x8c, 0xc9, 0x72, 0xbe,
  0x3b, 0xac, 0x43, 0x3e, 0x61, 0x1c, 0x00, 0x3e, 0xb1, 0x9a, 0x03, 0x3e,
  0xc1, 0x9a, 0x50, 0xbd, 0xf6, 0xaf, 0x95, 0x3e, 0xd2, 0xab, 0x4c, 0x3e,
  0xd6, 0xa0, 0xa4, 0x3e, 0xe9, 0xfe, 0x97, 0xbe, 0xbe, 0x51, 0xa0, 0x3e,
  0x9a, 0xae, 0x88, 0x3e, 0x77, 0x0f, 0xa8, 0x3e, 0x99, 0x7c, 0x49, 0xbd,
  0x65, 0x75, 0x51, 0x3e, 0x3a, 0x2d, 0x89, 0x3e, 0x52, 0x30, 0xef, 0x3d,
  0x46, 0xe7, 0x4c, 0xbe, 0x3d, 0x70, 0x05, 0x3e, 0x06, 0xff, 0x82, 0x3e,
  0x08, 0xba, 0x53, 0x3d, 0x7c, 0xca, 0xcf, 0xbd, 0x2b, 0x0c, 0x88, 0x3e,
  0xaa, 0x13, 0x66, 0x3e, 0xb3, 0x42, 0x8f, 0x3e, 0x6a, 0x30, 0x73, 0xbe,
  0xd9, 0xe5, 0x3a, 0x3e, 0x88, 0x63, 0x7f, 0x3e, 0x53, 0x2b, 0x86, 0x3e,
  0xe1, 0x92, 0x83, 0xbe, 0x22, 0x29, 0x15, 0x3e, 0x4c, 0xc2, 0xa8, 0x3d,
  0x28, 0x2d, 0x07, 0x3e, 0xbf, 0xf0, 0xa4, 0xbe, 0x5c, 0x78, 0xfd, 0x3d,
  0xa0, 0x6d, 0xf7, 0x3d, 0x8c, 0xbf, 0x7a, 0x3e, 0x92, 0xf7, 0xfa, 0xbd,
  0x53, 0x24, 0x89, 0x3d, 0x54, 0x0c, 0xed, 0x3d, 0x4d, 0xbe, 0x98, 0x3e,
  0x93, 0x55, 0x38, 0xbd, 0x29, 0xce, 0xb9, 0x3e, 0x2a, 0x7c, 0x21, 0x3e,
  0xf8, 0x76, 0x44, 0x3d, 0xf3, 0x18, 0x2c, 0xbd, 0x92, 0xc3, 0xca, 0x3d,
  0x5e, 0x32, 0x16, 0x3e, 0xb6, 0x52, 0x92, 0x3e, 0xb9, 0xb4, 0x25, 0xbe,
  0xca, 0x23, 0x5b, 0x3e, 0x20, 0xed, 0xb7, 0x3e, 0x4e, 0xcc, 0xaf, 0x3e,
  0x36, 0x02, 0x8d, 0xbe, 0x46, 0x3f, 0x64, 0x3e, 0x13, 0x87, 0x26, 0x3e,
  0x1a, 0x62, 0x2c, 0x3e, 0xa9, 0x1b, 0x66, 0xbe, 0xe8, 0xeb, 0x3b, 0x3e,
  0x06, 0xa9, 0xbe, 0x3e, 0xa2, 0x15, 0x78, 0x3e, 0x24, 0x11, 0x26, 0xbe,
  0x22, 0xef, 0x87, 0x3e, 0x71, 0x6f, 0x6c, 0x3d, 0xc2, 0x7e, 0x17, 0x3e,
  0xac, 0x41, 0xe2, 0xbd, 0x0d, 0xee, 0x96, 0x3e, 0xea, 0x6a, 0xa7, 0x3e,
  0x2e, 0xf7, 0x82, 0x3e, 0x6f, 0x9c, 0x84, 0xbd, 0xb4, 0x37, 0x3e, 0x3e,
  0xe7, 0xd4, 0xb5, 0x3d, 0xdf, 0x79, 0x19, 0x3e, 0x75, 0x37, 0xba, 0xbc,
  0x35, 0x81, 0xa1, 0x3d, 0xa8, 0x39, 0x4c, 0x3e, 0xf7, 0xb7, 0x88, 0x3e,
  0xa6, 0x9d, 0x8c, 0xbc, 0x90, 0x1b, 0x4e, 0x3e, 0x4a, 0xf5, 0x92, 0x3e,
  0x4c, 0x79, 0x5c, 0x3e, 0xb8, 0x74, 0x8d, 0xbe, 0x81, 0xca, 0xb3, 0x3e,
  0x66, 0x44, 0x8a, 0x3e, 0x0a, 0x44, 0x8a, 0x3e, 0x58, 0x83, 0x09, 0xbe,
  0xed, 0x67, 0x88, 0x3d, 0x28, 0x14, 0x66, 0x3e, 0x78, 0x09, 0x1a, 0x3e,
  0x34, 0xf6, 0x3a, 0xbe, 0x05, 0x9f, 0xa1, 0x3e, 0xba, 0x12, 0x37, 0xbd,
  0x70, 0x13, 0xea, 0x3d, 0x16, 0xe9, 0x73, 0xbe, 0x65, 0x69, 0x1a, 0x3e,
  0xd6, 0x2f, 0x2e, 0xbe, 0x42, 0xf0, 0x87, 0xbb, 0x77, 0xa2, 0x90, 0xbb,
  0x40, 0x4c, 0xd9, 0xbd, 0x3b, 0x65, 0x3a, 0xbe, 0xd3, 0x4f, 0x5d, 0xbe,
  0x98, 0xf9, 0xbb, 0x3d, 0xbc, 0x00, 0xac, 0x3c, 0x86, 0xa6, 0xc8, 0xbc,
  0xdd, 0xc1, 0x1f, 0xbe, 0xb4, 0x4d, 0x04, 0x3d, 0x3e, 0x65, 0x78, 0xbc,
  0x86, 0x9b, 0x60, 0xbe, 0xb6, 0x8f, 0x95, 0xbc, 0x55, 0xa6, 0xf9, 0xbd,
  0x18, 0x15, 0x6f, 0x3e, 0xaf, 0xac, 0x8e, 0xbe, 0x12, 0x75, 0xa9, 0x3c,
  0xd5, 0x5a, 0xa2, 0x3d, 0x30, 0x13, 0x05, 0x3e, 0xbc, 0x0d, 0x8a, 0xbe,
  0x2e, 0x59, 0x1b, 0x3c, 0x45, 0xff, 0x92, 0xbc, 0xcc, 0x33, 0x96, 0xbd,
  0x4b, 0x8e, 0x58, 0xbe, 0xc3, 0x05, 0xa2, 0xbb, 0x39, 0xc1, 0xa6, 0x3d,
  0x5d, 0xc4, 0xe0, 0x3d, 0xb1, 0xcb, 0x49, 0xbc, 0xaf, 0xb0, 0x45, 0x3d,
  0x97, 0x66, 0x84, 0x3d, 0x45, 0x74, 0x40, 0x3e, 0x93, 0xe8, 0xa4, 0x3c,
  0xf4, 0x12, 0x89, 0xbe, 0x5b, 0x84, 0xad, 0x3d, 0x5c, 0x63, 0x57, 0x3e,
  0x5c, 0x7c, 0x85, 0xbc, 0x69, 0x17, 0x57, 0xbe, 0xf8, 0x77, 0x98, 0xbc,
  0x7b, 0x2a, 0xfc, 0x3d, 0xd1, 0x81, 0x9b, 0xbe, 0x56, 0x22, 0x67, 0xbe,
  0xa6, 0x7d, 0x9a, 0xbd, 0xae, 0xd4, 0xf8, 0x3d, 0x8f, 0x7a, 0xda, 0x3b,
  0x4c, 0xbe, 0x96, 0x3c, 0xd7, 0xae, 0xe0, 0x3d, 0xcc, 0x48, 0xd5, 0x3d,
  0x46, 0x93, 0x97, 0xbe, 0x68, 0x95, 0x9a, 0x3b, 0x89, 0x39, 0x58, 0x3d,
  0x50, 0xc6, 0xa5, 0xbb, 0xfd, 0x38, 0x48, 0xbd, 0x14, 0x11, 0x6f, 0xbd,
  0xba, 0x54, 0x53, 0xbb, 0xc1, 0xa3, 0x0c, 0x3e, 0xaf, 0xb1, 0xc8, 0xbd,
  0x92, 0x65, 0x50, 0xbe, 0x35, 0x3c, 0x88, 0x3d, 0xe7, 0x75, 0xf4, 0x3d,
  0x1f, 0xe0, 0xb3, 0x3c, 0x46, 0xab, 0x95, 0xbd, 0xec, 0x62, 0xe4, 0x39,
  0x70, 0xf3, 0x5a, 0x3d, 0xcb, 0x85, 0x03, 0xbe, 0xe7, 0x23, 0x90, 0xbe,
  0xd7, 0x0f, 0xc5, 0xbd, 0x96, 0x57, 0x15, 0xbd, 0x56, 0x22, 0x4d, 0xbe,
  0xf6, 0xf7, 0x5c, 0xbe, 0xf2, 0x0f, 0x37, 0xbc, 0x67, 0x07, 0xff, 0x3d,
  0x47, 0x3a, 0x43, 0x3b, 0x7d, 0xb9, 0x7f, 0xbd, 0x17, 0xcb, 0xaf, 0x3d,
  0x55, 0x75, 0xf1, 0x3d, 0xea, 0xd2, 0xf9, 0xbd, 0x4c, 0x00, 0xf8, 0xbc,
  0xad, 0x83, 0xa0, 0xba, 0x89, 0x72, 0x8f, 0x3c, 0x91, 0xff, 0xd2, 0x3b,
  0x12, 0x5d, 0x21, 0xbe, 0x4c, 0xa4, 0xfc, 0x3a, 0xeb, 0xce, 0xba, 0x3c,
  0xaa, 0xd8, 0x94, 0xbc, 0xb7, 0x1a, 0x2a, 0xbe, 0x08, 0x02, 0x2c, 0x3d,
  0x90, 0x3d, 0x00, 0x3c, 0x70, 0x55, 0xd3, 0xbd, 0x49, 0xa2, 0x22, 0xbe,
  0x7d, 0x29, 0xbe, 0xbd, 0xb0, 0xdf, 0x13, 0xbd, 0x0c, 0x5d, 0x87, 0xbe,
  0x7f, 0xab, 0xaf, 0xbd, 0x8e, 0xbf, 0x26, 0xbe, 0xd5, 0x71, 0x3f, 0x3e,
  0x18, 0x49, 0x86, 0xb9, 0xd9, 0xd5, 0x86, 0xbe, 0x10, 0x84, 0xa6, 0x3d,
  0xed, 0x82, 0x2b, 0x3e, 0x29, 0xaa, 0x11, 0xbe, 0x56, 0x91, 0x6e, 0x3c,
  0xe8, 0x0b, 0xbd, 0xbd, 0x77, 0xf6, 0x48, 0x3c, 0x51, 0x8c, 0xcf, 0xbc,
  0xe0, 0x94, 0x98, 0xbe, 0xfc, 0x2b, 0x0a, 0xbd, 0xf6, 0x11, 0xd3, 0xbc,
  0x22, 0xc6, 0x98, 0xbe, 0x65, 0x8b, 0x76, 0xbe, 0xea, 0x3d, 0xf0, 0x3d,
  0x9b, 0xc6, 0xda, 0x3d, 0x82, 0x0e, 0x59, 0xbe, 0xe8, 0xd5, 0x9b, 0xbc,
  0xd5, 0x0f, 0x4d, 0xbe, 0xf3, 0xbf, 0xc9, 0xbd, 0xa4, 0x46, 0x4a, 0xbd,
  0xc2, 0x07, 0x98, 0xbe, 0x97, 0x36, 0x77, 0xbd, 0x5b, 0x58, 0x47, 0xbe,
  0x59, 0xbb, 0x6e, 0xbe, 0xf9, 0x25, 0x93, 0xbe, 0xf3, 0xe3, 0x25, 0x3d,
  0x41, 0xd7, 0x45, 0xbe, 0x15, 0x94, 0x65, 0xbe, 0x1f, 0x59, 0x9d, 0xbe,
  0x68, 0x85, 0xdd, 0xbd, 0x92, 0x58, 0x4c, 0x3d, 0x6b, 0x85, 0x93, 0xbe,
  0xfe, 0x61, 0x50, 0xbe, 0xb7, 0x37, 0x33, 0xbe, 0x77, 0x85, 0xe3, 0x3d,
  0x63, 0x2f, 0x22, 0xbd, 0xe1, 0x98, 0x65, 0xbe, 0x5f, 0xe6, 0x43, 0xbd,
  0xf2, 0x6b, 0x09, 0x3d, 0x0f, 0xd1, 0x0a, 0xbd, 0x7d, 0x7e, 0x43, 0xbe,
  0x41, 0x82, 0xac, 0x3a, 0xaf, 0x03, 0xc8, 0xbd, 0xc3, 0x7d, 0x3a, 0xbe,
  0xeb, 0x3d, 0xa5, 0xbe, 0x5e, 0x0e, 0x5c, 0xbd, 0x36, 0x6e, 0x03, 0x3d,
  0x24, 0x8c, 0x33, 0xbe, 0xac, 0x10, 0x76, 0xbe, 0xec, 0x66, 0x7c, 0xba,
  0xad, 0xbf, 0x22, 0xbe, 0x61, 0xdf, 0x4e, 0xbe, 0xca, 0xf3, 0x7b, 0xbd,
  0x42, 0x81, 0x77, 0xbd, 0xb9, 0xb7, 0x58, 0xbe, 0xa5, 0xb3, 0x92, 0xbe,
  0xf4, 0x63, 0x86, 0xbe, 0xdf, 0x0a, 0xfe, 0x3d, 0x25, 0x79, 0x2c, 0xbd,
  0x72, 0xe7, 0x81, 0xbe, 0x36, 0x60, 0x93, 0xbe, 0x67, 0x5e, 0x0f, 0x3e,
  0xb2, 0xc0, 0x51, 0x3d, 0xbb, 0x7b, 0x98, 0xbe, 0x23, 0x96, 0x1a, 0xbe,
  0xae, 0xd2, 0xe1, 0x3d, 0x7a, 0xd1, 0x09, 0x3d, 0x57, 0xf0, 0xad, 0xbe,
  0x71, 0xdd, 0x67, 0xbe, 0x0c, 0xdc, 0xe5, 0x3d, 0x64, 0x02, 0x07, 0xbe,
  0x69, 0xc8, 0xab, 0xbe, 0xc0, 0x69, 0x87, 0xbe, 0x13, 0xb9, 0x31, 0xbe,
  0xf7, 0x56, 0x26, 0xbe, 0x0c, 0xda, 0x36, 0xbe, 0x6f, 0x0e, 0x26, 0xbe,
  0x8c, 0x67, 0xab, 0xbd, 0x93, 0x24, 0x2e, 0xbd, 0x53, 0x1c, 0x90, 0xbe,
  0x14, 0x27, 0x27, 0xbe, 0xe6, 0xda, 0x25, 0xbe, 0x59, 0x21, 0xa8, 0x3c,
  0xc9, 0xc9, 0xe2, 0xbc, 0x70, 0xe8, 0xa1, 0xbe, 0x42, 0x13, 0xe5, 0x3d,
  0x1c, 0x1c, 0x1a, 0xbe, 0x6d, 0x7f, 0x20, 0xbe, 0x26, 0xef, 0xd9, 0xbd,
  0xb6, 0x97, 0x00, 0x3e, 0x94, 0xe3, 0x1f, 0xbe, 0xc8, 0x31, 0x38, 0xbe,
  0xe2, 0x26, 0x16, 0xbe, 0x57, 0xe5, 0xf8, 0x3c, 0x17, 0xdb, 0x08, 0xbd,
  0x06, 0x83, 0x08, 0xbe, 0x4a, 0xa1, 0xe9, 0xbd, 0x7d, 0xa4, 0x9e, 0xbb,
  0x1a, 0xda, 0x19, 0xbe, 0x6e, 0xac, 0x8c, 0xbe, 0x38, 0x36, 0x05, 0xbe,
  0x5c, 0x93, 0x17, 0xbe, 0x89, 0x46, 0x38, 0xbe, 0x5f, 0xad, 0x75, 0xbd,
  0x1e, 0x57, 0x5b, 0xbe, 0x43, 0xdb, 0xc3, 0xbc, 0x20, 0xf1, 0x01, 0xbe,
  0xa9, 0xee, 0x86, 0xbc, 0xec, 0x7a, 0x95, 0xbe, 0x29, 0x84, 0xe2, 0xbd,
  0xd9, 0x10, 0xf8, 0xbd, 0x2a, 0x7f, 0x98, 0xbe, 0x55, 0xfc, 0xa4, 0xbe,
  0x1b, 0x1d, 0xdb, 0x3d, 0x67, 0xee, 0x18, 0xbe, 0x94, 0xdb, 0xaf, 0xbd,
  0x17, 0x66, 0xe1, 0xbd, 0x03, 0xc8, 0x07, 0x3e, 0xc8, 0x12, 0xd1, 0x3d,
  0x11, 0x6c, 0xab, 0xbe, 0x77, 0x91, 0xb5, 0xbe, 0x1b, 0x60, 0x11, 0xbe,
  0xc1, 0xeb, 0x02, 0xbd, 0xa2, 0x93, 0xf8, 0xbc, 0x62, 0x88, 0x87, 0xbe,
  0x66, 0x7c, 0x77, 0x3d, 0x5f, 0xbe, 0x33, 0xbd, 0xf7, 0x04, 0x4d, 0xbe,
  0x5c, 0x5c, 0x93, 0xbd, 0xbf, 0x49, 0x9d, 0x3d, 0xb3, 0xdf, 0x0b, 0xbe,
  0xd7, 0xf8, 0x64, 0xbe, 0x17, 0x74, 0x2b, 0xbe, 0x0b, 0x82, 0x46, 0x3e,
  0x2a, 0xa5, 0x60, 0xbe, 0x26, 0x64, 0xac, 0xbb, 0x5c, 0x62, 0x4d, 0xbe,
  0x1f, 0x64, 0x81, 0x3d, 0x40, 0x2b, 0xe6, 0xbb, 0xec, 0x32, 0x16, 0xbd,
  0xb6, 0x5e, 0xb8, 0xbd, 0x01, 0xb1, 0xad, 0x3d, 0x6b, 0xf7, 0xb0, 0x3c,
  0xdb, 0x8a, 0xd0, 0xbd, 0x3e, 0xd3, 0x2f, 0xbe, 0xdb, 0x79, 0x52, 0x3e,
  0xb4, 0x88, 0x4e, 0xbe, 0x05, 0x94, 0x8e, 0xbe, 0x7f, 0x1f, 0x85, 0xbe,
  0xc1, 0xac, 0x8b, 0x3e, 0x11, 0x04, 0xe1, 0xbd, 0xe7, 0xe5, 0xa8, 0xbd,
  0x3b, 0x4a, 0x9e, 0xbe, 0xa5, 0x3b, 0xf3, 0x3d, 0x0b, 0xf2, 0xb0, 0x3c,
  0x93, 0xc8, 0x1d, 0xbe, 0x53, 0x41, 0x2a, 0xbe, 0x3e, 0x78, 0x48, 0x3e,
  0x54, 0x9b, 0x30, 0xbe, 0xc6, 0x94, 0x91, 0xbe, 0xc4, 0xd8, 0x81, 0xbb,
  0x04, 0x4e, 0x28, 0x3e, 0xca, 0xa3, 0x31, 0xbe, 0xb1, 0x94, 0x87, 0xbc,
  0xd9, 0x5e, 0x85, 0xbe, 0x09, 0x70, 0xdb, 0x3c, 0x29, 0xb7, 0xbe, 0xbd,
  0xfe, 0xf4, 0x9f, 0xbe, 0x24, 0xc3, 0x15, 0xbd, 0x17, 0xb4, 0x34, 0x3e,
  0x9d, 0xe3, 0x27, 0xbe, 0xfa, 0x02, 0x1a, 0xbe, 0x44, 0xb5, 0x17, 0xbe,
  0xa0, 0xc2, 0xeb, 0xbc, 0x43, 0x06, 0x31, 0xbe, 0x54, 0x02, 0x1f, 0xbe,
  0xec, 0x4e, 0x89, 0xbe, 0xda, 0x20, 0x8c, 0x3e, 0xf2, 0xc9, 0xbb, 0xbd,
  0x5f, 0x8e, 0x10, 0xbe, 0xfd, 0x34, 0x67, 0xbd, 0x7e, 0xc4, 0xef, 0x3d,
  0xc2, 0x9a, 0x13, 0xbe, 0x7d, 0x1b, 0xea, 0xbd, 0x09, 0x45, 0xb7, 0xbd,
  0xcc, 0xcb, 0x40, 0x3e, 0x13, 0x80, 0x48, 0x3c, 0xd5, 0x8e, 0x63, 0xbd,
  0x82, 0x60, 0x32, 0xbd, 0x2d, 0x2c, 0x4d, 0x3d, 0x77, 0xde, 0xfd, 0xbd,
  0xed, 0xcf, 0x5f, 0x3c, 0x20, 0x17, 0x5b, 0xbd, 0xd9, 0x8d, 0x1a, 0xbd,
  0x07, 0xad, 0xa5, 0x3c, 0xe4, 0x30, 0x6d, 0xbe, 0x35, 0xaa, 0x9b, 0xbe,
  0xa9, 0x8a, 0xf0, 0x3d, 0x68, 0x34, 0x16, 0xbe, 0x11, 0xaa, 0x0a, 0xbe,
  0x9f, 0x64, 0x1c, 0xbe, 0x25, 0x45, 0xa6, 0x3c, 0x1c, 0x11, 0x87, 0xbe,
  0xca, 0x58, 0x3a, 0xbe, 0xff, 0x81, 0xe5, 0xbd, 0xeb, 0x82, 0x4d, 0x3e,
  0x2c, 0xe9, 0x22, 0xbe, 0x12, 0x6d, 0x81, 0xbe, 0x17, 0xad, 0x92, 0xbe,
  0xf2, 0xd5, 0x50, 0x3e, 0x40, 0x3e, 0x86, 0xbe, 0xb6, 0x77, 0x2f, 0xbe,
  0xa4, 0x50, 0xb5, 0xbd, 0xae, 0x29, 0xba, 0x3b, 0xa3, 0xb1, 0x78, 0xbc,
  0xa8, 0x2a, 0x71, 0xbe, 0x18, 0xfc, 0x10, 0xbe, 0xc3, 0x91, 0x35, 0xbc,
  0xb3, 0x03, 0x20, 0xbe, 0x04, 0x1b, 0x90, 0xbd, 0x83, 0xb4, 0x9e, 0xbe,
  0x49, 0x2d, 0x6b, 0x3e, 0xe5, 0x8f, 0x08, 0x3a, 0xea, 0x79, 0x69, 0xbe,
  0x4b, 0x1a, 0xa9, 0xbd, 0xf4, 0x02, 0x5a, 0x3e, 0x87, 0x9b, 0x1b, 0xbe,
  0x1d, 0xe8, 0x95, 0xbe, 0xbc, 0x38, 0x91, 0xbe, 0x94, 0x4a, 0xcf, 0x3c,
  0x7f, 0x07, 0x46, 0xbc, 0x8d, 0xed, 0x4c, 0xbd, 0x28, 0xd6, 0x64, 0xbe,
  0xcc, 0x57, 0xca, 0x3b, 0x52, 0xcf, 0x30, 0xbd, 0xb2, 0xb6, 0x58, 0xbe,
  0xa2, 0x76, 0x33, 0xbe, 0xb5, 0xc6, 0x8a, 0x3e, 0xa0, 0x90, 0x50, 0xbd,
  0xcb, 0x4c, 0x9a, 0xbe, 0x4d, 0x3d, 0x92, 0xbe, 0x0b, 0xe0, 0x37, 0xbd,
  0xa4, 0x70, 0x06, 0xbe, 0xed, 0x86, 0x2b, 0xbe, 0x1b, 0xfa, 0xfa, 0x3b,
  0xe6, 0x38, 0x56, 0x3e, 0x47, 0x95, 0x00, 0x3e, 0x93, 0x8f, 0x31, 0xbd,
  0x49, 0x23, 0x87, 0x3d, 0x4d, 0x75, 0x42, 0x3e, 0xed, 0x53, 0x51, 0x3e,
  0x70, 0x0d, 0xc5, 0x3d, 0x9a, 0x5e, 0xac, 0x3d, 0xb8, 0x1c, 0x4b, 0xbd,
  0xf9, 0x4a, 0xdf, 0x3d, 0x87, 0x36, 0x70, 0x3d, 0x3d, 0xa4, 0xe4, 0xbb,
  0x4b, 0xf4, 0x7b, 0xbb, 0x8f, 0xdd, 0x24, 0x3e, 0x94, 0xd5, 0x95, 0x3d,
  0x85, 0xa1, 0x08, 0xbd, 0x2d, 0x0a, 0xc0, 0x3b, 0x44, 0x42, 0x40, 0x3d,
  0x73, 0x93, 0xce, 0xbd, 0x5c, 0xfe, 0x9d, 0x3d, 0xa5, 0xe9, 0x11, 0x3c,
  0x06, 0x1c, 0x54, 0x3e, 0x07, 0x0f, 0xfe, 0x3c, 0x36, 0xb8, 0x5a, 0xbd,
  0x9e, 0xc6, 0x54, 0x3e, 0xd3, 0x19, 0x39, 0x3e, 0xfe, 0xa7, 0x5f, 0x3c,
  0xd8, 0x14, 0x6f, 0x3d, 0x01, 0x70, 0x28, 0x3c, 0x55, 0x7b, 0x4f, 0x3e,
  0x22, 0x2c, 0x7e, 0xbd, 0x48, 0xdb, 0x09, 0xbc, 0xa1, 0x24, 0x48, 0x3e,
  0xe2, 0x0c, 0x6b, 0x3d, 0x64, 0xc1, 0x2a, 0xbe, 0x29, 0x45, 0x6d, 0x3c,
  0x4a, 0xec, 0x89, 0x3d, 0xbe, 0x46, 0xeb, 0x3c, 0x53, 0x41, 0xae, 0x3d,
  0xd2, 0x53, 0x22, 0xbe, 0xed, 0x21, 0x3e, 0x3e, 0x95, 0x79, 0x8f, 0x3e,
  0xfb, 0x58, 0x5e, 0xbb, 0x02, 0x76, 0xee, 0xbd, 0xd0, 0xeb, 0x51, 0x3e,
  0xab, 0xa1, 0xdb, 0x3c, 0x2c, 0x38, 0xc3, 0x3d, 0x56, 0x25, 0xd1, 0xbd,
  0xcc, 0x3a, 0xfb, 0x3d, 0x92, 0xde, 0x96, 0x3e, 0xe7, 0x78, 0xf1, 0xbd,
  0x9b, 0xf3, 0xd3, 0x3d, 0x14, 0xe0, 0x64, 0x3e, 0x08, 0xef, 0x7a, 0x3e,
  0x24, 0xb2, 0x2e, 0xbe, 0xfb, 0x8c, 0x08, 0x3e, 0x23, 0x71, 0x6b, 0x3e,
  0x65, 0xd2, 0xc2, 0x3c, 0x0a, 0x3f, 0xb2, 0x3d, 0x21, 0xfc, 0x92, 0x3d,
  0x31, 0x80, 0x71, 0xbc, 0x88, 0x07, 0x85, 0x3e, 0x51, 0x96, 0x97, 0x3d,
  0x59, 0xa3, 0xe8, 0xbc, 0x03, 0x9c, 0x57, 0x3e, 0x37, 0x11, 0x80, 0x3e,
  0x0b, 0x3e, 0x6a, 0xbd, 0xb4, 0x6e, 0xb0, 0x3c, 0x99, 0x11, 0x49, 0xbc,
  0x81, 0x2c, 0x5b, 0x3d, 0x2b, 0xa9, 0x59, 0x3d, 0x39, 0x4e, 0xf3, 0xbd,
  0xa7, 0x70, 0xcc, 0xbc, 0xb1, 0x0a, 0x90, 0x3d, 0x08, 0xf9, 0xd9, 0xbc,
  0x61, 0x49, 0x96, 0xbd, 0xd0, 0xe3, 0x2a, 0xbd, 0x9b, 0xc9, 0x2e, 0x3e,
  0x9c, 0x03, 0x6c, 0xbd, 0xde, 0x72, 0x06, 0xbe, 0xc9, 0x84, 0x3f, 0x3e,
  0xb6, 0x69, 0xb6, 0x3d, 0xfe, 0x86, 0xe6, 0xbd, 0xfd, 0xbd, 0x8e, 0x3d,
  0x3a, 0xf3, 0x74, 0x3e, 0x93, 0xd3, 0x46, 0x3d, 0x5b, 0x6a, 0x9a, 0xbd,
  0x6a, 0xf3, 0x18, 0x3e, 0x04, 0x74, 0x3c, 0xbd, 0xd5, 0xd2, 0x44, 0x3e,
  0x42, 0x59, 0xa1, 0xbd, 0x69, 0xac, 0x8b, 0x3d, 0x61, 0x06, 0x70, 0x3e,
  0xb9, 0x21, 0x5e, 0x3d, 0x2c, 0x47, 0xf3, 0x3d, 0x6f, 0xec, 0xfe, 0xbd,
  0x85, 0xa5, 0x2c, 0x3e, 0x26, 0x62, 0x8e, 0x3e, 0x48, 0xc0, 0xda, 0x3d,
  0x69, 0x4c, 0x82, 0xbd, 0x5b, 0x9d, 0x80, 0x3d, 0x01, 0x48, 0x8e, 0x3e,
  0xb5, 0xee, 0x92, 0x3c, 0x85, 0xe1, 0x85, 0xbd, 0x68, 0x6e, 0xac, 0x3d,
  0x24, 0xd9, 0x8e, 0x3e, 0x52, 0x79, 0xe1, 0x3d, 0x30, 0x8c, 0x7c, 0xbd,
  0x00, 0xce, 0x07, 0xbd, 0x13, 0x48, 0x80, 0x3d, 0x7c, 0xd0, 0x1f, 0x3c,
  0xce, 0x39, 0x0e, 0x3e, 0xcf, 0x37, 0x4f, 0x3e, 0xe1, 0x1f, 0xf2, 0x3c,
  0x10, 0xb2, 0x79, 0x3e, 0x0d, 0xee, 0xcc, 0x3d, 0x21, 0x67, 0x79, 0xbe,
  0x63, 0x22, 0x97, 0x3d, 0xe6, 0xa9, 0x8d, 0x3e, 0xad, 0xbe, 0xcc, 0x3d,
  0x01, 0xdf, 0x85, 0x3c, 0x73, 0x30, 0x25, 0x3b, 0x32, 0x43, 0x63, 0x3e,
  0x75, 0x41, 0x0a, 0xbd, 0x1b, 0x92, 0xf7, 0xbd, 0xe8, 0xd4, 0x7f, 0x3e,
  0xa2, 0x81, 0xb3, 0x3d, 0x8a, 0xe7, 0x46, 0x3e, 0x5e, 0x26, 0x93, 0xbc,
  0xbd, 0xbf, 0x61, 0x3d, 0x55, 0x81, 0x90, 0x3e, 0xcb, 0x99, 0x16, 0x3e,
  0x25, 0xca, 0x5b, 0xbe, 0x01, 0x97, 0x85, 0xbc, 0xa4, 0x10, 0xab, 0x3c,
  0x9f, 0x6e, 0x61, 0x3e, 0xde, 0x27, 0xef, 0xbd, 0xdd, 0x68, 0x55, 0x3e,
  0x17, 0xb4, 0x64, 0x3d, 0xe2, 0x95, 0xac, 0x3d, 0xdc, 0xfd, 0xe4, 0x3c,
  0x79, 0xc0, 0x1f, 0x3d, 0xcc, 0x80, 0x82, 0x3e, 0x7e, 0xbf, 0x79, 0xbc,
  0xc0, 0x25, 0x88, 0xbe, 0x31, 0x23, 0x6b, 0x3e, 0x64, 0xd7, 0x92, 0x3d,
  0xa9, 0x7b, 0x2e, 0x3e, 0xdd, 0x27, 0x52, 0xbe, 0xa0, 0xe0, 0x53, 0x3e,
  0x70, 0xae, 0x50, 0x3e, 0x0f, 0xba, 0xb1, 0x3d, 0x24, 0x63, 0xbc, 0xbd,
  0x02, 0xe5, 0x07, 0x3e, 0xc8, 0x71, 0x84, 0x3e, 0x4d, 0x3e, 0x6a, 0x3d,
  0x2d, 0x6e, 0xad, 0x3c, 0xb4, 0x94, 0x5c, 0x3e, 0xcc, 0x37, 0xf2, 0x3d,
  0x8a, 0xa9, 0x5c, 0x3e, 0xd1, 0xfc, 0x8c, 0xbe, 0x69, 0xfd, 0xe0, 0x3d,
  0xd3, 0x53, 0x63, 0x3d, 0x01, 0x88, 0x97, 0x3e, 0x8a, 0x0e, 0x93, 0xbd,
  0x16, 0xf4, 0x4f, 0x3e, 0x6d, 0x7c, 0x6a, 0x3e, 0xd1, 0x22, 0x73, 0x3e,
  0x44, 0xe6, 0x3a, 0xbe, 0x34, 0xe7, 0x56, 0xbc, 0x87, 0x36, 0x8e, 0x3e,
  0x55, 0xa9, 0x0a, 0x3e, 0xdd, 0x60, 0xb4, 0xbd, 0x34, 0x5e, 0x3a, 0x3d,
  0x62, 0x53, 0xd9, 0x3c, 0x44, 0xe6, 0xc3, 0x3d, 0x29, 0x83, 0x38, 0x3d,
  0x12, 0x45, 0x17, 0x3e, 0x82, 0x33, 0xd0, 0x3d, 0x52, 0xfa, 0x55, 0x3e,
  0x68, 0xc3, 0x3a, 0xbd, 0x65, 0x48, 0x23, 0x3e, 0xf3, 0xc8, 0x07, 0x3e,
  0x95, 0x72, 0x95, 0x3e, 0x56, 0xec, 0x44, 0xbc, 0x88, 0x8d, 0x46, 0x3d,
  0x2d, 0x49, 0x56, 0x3e, 0x42, 0x46, 0xbc, 0xbb, 0x66, 0x28, 0x06, 0xbe,
  0xa3, 0xd8, 0x9a, 0x3a, 0x4e, 0xe1, 0x32, 0x3e, 0x13, 0xbb, 0x5c, 0x3e,
  0xac, 0x25, 0x42, 0xbe, 0x32, 0x24, 0x48, 0xbd, 0xcb, 0x2a, 0xa0, 0x3e,
  0x0b, 0x2e, 0x89, 0x3e, 0xb9, 0xf9, 0xc7, 0x3c, 0x63, 0x2c, 0x3d, 0x3e,
  0xcf, 0x90, 0x5e, 0x3e, 0x45, 0x74, 0x41, 0x3d, 0x75, 0x1d, 0x6d, 0xbd,
  0x4a, 0xdd, 0xe8, 0x3d, 0x61, 0x93, 0x1d, 0x3e, 0x50, 0x05, 0x1c, 0x3e,
  0xab, 0xe2, 0x89, 0xbe, 0x0b, 0xdc, 0x85, 0xbd, 0xc2, 0xb5, 0x03, 0x3e,
  0x5a, 0xe5, 0xf1, 0x3c, 0x9c, 0x34, 0x05, 0xbc, 0xc7, 0x88, 0xae, 0xbb,
  0x7e, 0x09, 0xaa, 0x3d, 0xaa, 0x7a, 0x8f, 0x3e, 0xbf, 0x91, 0x6f, 0xbe,
  0x17, 0x3a, 0x39, 0x3c, 0x41, 0x8e, 0x82, 0x3d, 0x88, 0x0c, 0xbb, 0x3d,
  0x1d, 0x15, 0xa2, 0xbd, 0xb9, 0x75, 0x55, 0x3e, 0xe5, 0x21, 0x90, 0x3e,
  0xc8, 0x54, 0x85, 0x3e, 0xe8, 0x5e, 0x0e, 0x3d, 0x76, 0x52, 0x56, 0x3d,
  0x1f, 0x3e, 0x95, 0x3e, 0xac, 0x2c, 0x95, 0x3e, 0x0a, 0x83, 0x23, 0x3d,
  0xec, 0x6d, 0x42, 0x3e, 0x14, 0x0b, 0xc8, 0x3d, 0x65, 0x2c, 0xa5, 0x3d,
  0x0b, 0x56, 0x14, 0xbe, 0x0f, 0xf2, 0x56, 0xbc, 0x06, 0x6b, 0x2a, 0x3e,
  0xa8, 0x1d, 0x97, 0x3e, 0xd7, 0xcf, 0xb7, 0xbc, 0xd9, 0x9c, 0x84, 0x3e,
  0x45, 0xd0, 0x3e, 0x3e, 0x3c, 0xf7, 0x19, 0x3e, 0xfa, 0x59, 0x4d, 0xbe,
  0xcb, 0x15, 0x35, 0x3c, 0x9a, 0x9c, 0x95, 0x3e, 0x9f, 0x9b, 0x86, 0x3d,
  0xcb, 0x0a, 0xef, 0xbd, 0x1e, 0x19, 0x10, 0x3e, 0x4b, 0xfc, 0x65, 0x3e,
  0x5d, 0x59, 0x57, 0x3e, 0x75, 0x62, 0x93, 0xbe, 0x3e, 0xbc, 0xba, 0x3c,
  0xc2, 0x82, 0x87, 0x3e, 0x08, 0x5c, 0x3f, 0x3e, 0xfd, 0x4f, 0x6e, 0xbe,
  0xcc, 0x05, 0x7f, 0x3e, 0xa8, 0x53, 0x8f, 0x3e, 0x02, 0x9d, 0xa1, 0x3e,
  0xf6, 0xab, 0xc4, 0x3c, 0x68, 0x7e, 0x7d, 0x3c, 0x8f, 0xad, 0x39, 0x3e,
  0xa9, 0x90, 0x97, 0x3e, 0x9e, 0xf7, 0x89, 0xbe, 0x74, 0x9e, 0x2f, 0x3e,
  0xc4, 0x82, 0xd9, 0x3d, 0x49, 0x20, 0x90, 0x3e, 0xc6, 0xa6, 0xdc, 0x3b,
  0x0e, 0x66, 0x2e, 0xbc, 0x04, 0x6b, 0xbc, 0x3e, 0x72, 0x0f, 0xba, 0x3e,
  0xc0, 0xd7, 0x33, 0xbe, 0xcc, 0x97, 0x88, 0x3e, 0x0e, 0x4d, 0xef, 0x3d,
  0x84, 0x84, 0xbd, 0x3e, 0xb5, 0x91, 0x5f, 0xbe, 0x55, 0x5f, 0x12, 0x3e,
  0xf7, 0x60, 0xa4, 0x3e, 0x7e, 0x4f, 0x07, 0x3e, 0x83, 0x61, 0x1e, 0xbe,
  0x0c, 0x6a, 0x82, 0x3e, 0x88, 0x28, 0x5b, 0x3e, 0x02, 0x11, 0xb3, 0x3e,
  0x08, 0xba, 0x65, 0xbe, 0x33, 0x00, 0xec, 0x3d, 0xe7, 0xa3, 0x4b, 0x3e,
  0x2a, 0xe1, 0xcb, 0x3e, 0xb1, 0xc4, 0xd9, 0xbd, 0xfa, 0x81, 0x81, 0x3b,
  0x4c, 0xab, 0x26, 0x3e, 0x2c, 0x5b, 0x12, 0x3e, 0x67, 0x2f, 0x34, 0xbd,
  0x80, 0x03, 0xf1, 0x3d, 0x44, 0x86, 0x8d, 0x3e, 0x16, 0x1d, 0x7f, 0x3e,
  0x54, 0x00, 0x92, 0xbb, 0x49, 0x57, 0x0b, 0x3d, 0xaa, 0x58, 0xcb, 0x3d,
  0x43, 0xb4, 0x9c, 0x3e, 0x74, 0xb6, 0x88, 0xbe, 0x69, 0x3d, 0x33, 0x3e,
  0x96, 0xa5, 0xa1, 0x3e, 0x38, 0x41, 0x65, 0x3e, 0xb2, 0xef, 0x9b, 0xbb,
  0xce, 0xd0, 0x89, 0x3e, 0x87, 0xb1, 0x8a, 0x3e, 0xb3, 0xa3, 0x3a, 0x3e,
  0x6f, 0xcf, 0x3b, 0xbe, 0x62, 0x8a, 0x2f, 0x3e, 0x64, 0xc6, 0x48, 0x3e,
  0x7f, 0xb5, 0xdd, 0x3d, 0x88, 0x18, 0x0c, 0xbe, 0x33, 0xbf, 0x56, 0x3e,
  0x66, 0xda, 0xc3, 0x3e, 0xf2, 0xe0, 0x7c, 0x3e, 0x65, 0xdb, 0x60, 0xbe,
  0x8b, 0x50, 0x7a, 0x3e, 0xa8, 0xf8, 0xb4, 0x3e, 0x77, 0xcd, 0x06, 0x3e,
  0x5b, 0x64, 0xb6, 0xbd, 0xc8, 0xb9, 0xef, 0x3c, 0x77, 0x6d, 0x89, 0x3e,
  0xe6, 0x1d, 0xb1, 0x3e, 0x44, 0x39, 0x27, 0xbe, 0xdb, 0x21, 0xf5, 0x3d,
  0x52, 0x7f, 0x07, 0x3e, 0x9f, 0x65, 0x8a, 0x3e, 0x9c, 0x70, 0x33, 0xbd,
  0xff, 0x82, 0x25, 0x3e, 0x84, 0x2d, 0x6b, 0x3e, 0xcb, 0x0a, 0xbb, 0x3d,
  0xe6, 0xcc, 0x4b, 0xbd, 0x5a, 0x57, 0x12, 0x3e, 0x6b, 0x6a, 0x86, 0x3e,
  0x19, 0xe3, 0x9f, 0x3e, 0xe6, 0x8c, 0x71, 0xbe, 0x9a, 0xe3, 0xae, 0x3d,
  0x23, 0xae, 0xa7, 0x3e, 0xf5, 0x94, 0xd3, 0x3e, 0x01, 0x03, 0x8b, 0xbe,
  0x39, 0x8e, 0x9b, 0x3e, 0x3f, 0x80, 0x51, 0x3e, 0xea, 0x6a, 0x8f, 0x3e,
  0xcc, 0xd4, 0x2b, 0xbe, 0xec, 0x7c, 0x94, 0x3e, 0xf4, 0x2c, 0xdd, 0x3d,
  0x96, 0x6d, 0xff, 0xbd, 0x7b, 0x65, 0x2d, 0xbe, 0x42, 0xf7, 0xff, 0xff,
  0x04, 0x00, 0x00, 0x00, 0x20, 0x00, 0x00, 0x00, 0x84, 0x13, 0x6c, 0x3d,
  0x08, 0xa0, 0x0d, 0xbd, 0x30, 0x75, 0x5f, 0xbd, 0xa3, 0x61, 0xf8, 0xbb,
  0x1e, 0x51, 0x96, 0xbd, 0x95, 0x7d, 0x02, 0xbd, 0xb7, 0x9a, 0x38, 0x3d,
  0x53, 0xe2, 0x69, 0xbd, 0x6e, 0xf7, 0xff, 0xff, 0x04, 0x00, 0x00, 0x00,
  0x08, 0x00, 0x00, 0x00, 0xff, 0xff, 0xff, 0xff, 0xe4, 0x00, 0x00, 0x00,
  0x74, 0xea, 0xff, 0xff, 0x86, 0xf7, 0xff, 0xff, 0x04, 0x00, 0x00, 0x00,
  0x04, 0x00, 0x00, 0x00, 0x00, 0x00, 0x00, 0x00, 0x96, 0xf7, 0xff, 0xff,
  0x04, 0x00, 0x00, 0x00, 0x04, 0x00, 0x00, 0x00, 0x01, 0x00, 0x00, 0x00,
  0xa6, 0xf7, 0xff, 0xff, 0x04, 0x00, 0x00, 0x00, 0x04, 0x00, 0x00, 0x00,
  0x84, 0x03, 0x00, 0x00, 0xb6, 0xf7, 0xff, 0xff, 0x04, 0x00, 0x00, 0x00,
  0x00, 0x04, 0x00, 0x00, 0x4b, 0xaf, 0x0c, 0x3e, 0xb2, 0x8f, 0xa8, 0x3d,
  0xea, 0xab, 0xb2, 0xbd, 0xd8, 0x3b, 0x56, 0xbe, 0x5b, 0xd5, 0x86, 0xbe,
  0xfa, 0x81, 0x84, 0x3d, 0x9e, 0x25, 0x9a, 0x3d, 0xd8, 0xd0, 0x1d, 0x3e,
  0x38, 0x50, 0x90, 0x3c, 0xcc, 0x71, 0x5b, 0xbe, 0xb9, 0x7a, 0x4d, 0x3e,
  0xeb, 0x4d, 0xda, 0xbd, 0x2a, 0xaa, 0xab, 0x3d, 0xd5, 0xc9, 0x05, 0x3e,
  0xe0, 0xae, 0x8d, 0x3b, 0x94, 0x56, 0x2c, 0x3d, 0xbc, 0xd5, 0x0a, 0xbe,
  0x2c, 0xd6, 0x21, 0x3d, 0xa0, 0x99, 0x91, 0xbc, 0x04, 0x60, 0x10, 0xbd,
  0xa8, 0xca, 0x5c, 0x3c, 0x7f, 0x12, 0x86, 0xbc, 0x84, 0x08, 0x6f, 0x3e,
  0xf8, 0x26, 0xa0, 0x3e, 0x30, 0x0a, 0x3d, 0xbe, 0x52, 0x03, 0x34, 0xbe,
  0xc9, 0x69, 0x4e, 0x3e, 0x3c, 0x4b, 0x42, 0x3d, 0x40, 0xab, 0x21, 0x3b,
  0x68, 0x4e, 0x87, 0x3c, 0x40, 0x28, 0xa0, 0x3b, 0x80, 0x8a, 0x6a, 0x3b,
  0x0f, 0x68, 0x5c, 0xbe, 0x7b, 0xf6, 0x07, 0xbe, 0xc6, 0x0d, 0xb9, 0x3d,
  0xf1, 0x5b, 0x41, 0x3e, 0x2d, 0x5a, 0x28, 0xbe, 0xae, 0xae, 0x65, 0x3e,
  0xc3, 0x38, 0x8c, 0x3e, 0x6e, 0x0a, 0xa7, 0x3e, 0x78, 0x27, 0x45, 0xbd,
  0xba, 0xaf, 0xa9, 0xbd, 0xa3, 0xc1, 0x09, 0xbe, 0x66, 0x89, 0x16, 0xbe,
  0x53, 0x39, 0x21, 0x3e, 0x26, 0xb1, 0x0a, 0xbe, 0x19, 0xc3, 0xd7, 0xbd,
  0x5c, 0xc9, 0x47, 0x3d, 0xbe, 0xa3, 0xb2, 0xbd, 0x41, 0x71, 0x27, 0xbe,
  0x40, 0xbb, 0x0c, 0xbd, 0x9a, 0x34, 0xba, 0x3d, 0x07, 0x04, 0xae, 0xbe,
  0xa5, 0xa9, 0x9c, 0x3e, 0xe6, 0x2b, 0x82, 0x3d, 0x40, 0x02, 0xb6, 0x3d,
  0x18, 0x35, 0x3c, 0xbe, 0x78, 0x73, 0xea, 0xbc, 0x54, 0x88, 0x95, 0xbd,
  0x08, 0x40, 0xa4, 0x3c, 0x1d, 0xe8, 0x39, 0x3e, 0xa6, 0x70, 0xb8, 0xbd,
  0xcf, 0xc9, 0x1d, 0x3e, 0x3a, 0x37, 0x9a, 0x3d, 0x66, 0x20, 0x31, 0xbe,
  0xf8, 0xf6, 0x92, 0xbc, 0xac, 0x4c, 0x49, 0xbd, 0xba, 0x34, 0x1f, 0xbe,
  0x2c, 0x5a, 0x41, 0x3e, 0x06, 0x0a, 0x99, 0x3d, 0xe9, 0x09, 0x6d, 0xbd,
  0xf0, 0xe2, 0xcb, 0x3d, 0x18, 0x41, 0x80, 0xbc, 0x60, 0x79, 0x75, 0xbc,
  0xa4, 0x2b, 0x30, 0x3d, 0x82, 0x1c, 0x56, 0xbe, 0x80, 0xa4, 0x08, 0xbb,
  0x99, 0x9f, 0x2f, 0x3e, 0x96, 0x27, 0x58, 0xbe, 0xac, 0xd0, 0x25, 0xbd,
  0x5e, 0x2d, 0xac, 0xbd, 0x7c, 0xdb, 0x2a, 0xbd, 0x14, 0xb0, 0x8c, 0xbd,
  0x75, 0x55, 0x00, 0x3e, 0x70, 0x5a, 0x80, 0x3e, 0x41, 0x2f, 0xfc, 0xbd,
  0xe7, 0x47, 0xa1, 0x3e, 0x08, 0x7c, 0x32, 0xbe, 0x31, 0x2a, 0x30, 0x3e,
  0x2a, 0x57, 0xdb, 0xbd, 0xe9, 0x2f, 0x08, 0x3e, 0xce, 0x83, 0x92, 0xbd,
  0x45, 0xee, 0x31, 0x3e, 0xcc, 0xc4, 0x5b, 0xbd, 0xe3, 0x58, 0x11, 0x3e,
  0x5c, 0xed, 0x16, 0x3d, 0x36, 0x73, 0xb6, 0xbd, 0x18, 0x49, 0x4b, 0xbd,
  0x90, 0xd6, 0xae, 0x3c, 0x64, 0xa0, 0x42, 0x3d, 0xeb, 0x42, 0x2e, 0x3e,
  0x12, 0x14, 0xa6, 0xbe, 0x8c, 0x55, 0x5f, 0x3d, 0x93, 0x5e, 0xa0, 0xbe,
  0xb0, 0x02, 0x44, 0xbe, 0xcf, 0x4e, 0x57, 0xbe, 0x8b, 0x56, 0x0b, 0x3e,
  0x27, 0xa6, 0x11, 0x3e, 0x08, 0x51, 0x59, 0xbd, 0x04, 0xb0, 0x2d, 0xbd,
  0x3c, 0x80, 0x8b, 0xbd, 0x46, 0x4d, 0xbc, 0x3d, 0x1a, 0x91, 0x8a, 0xbd,
  0x1c, 0x89, 0x39, 0x3d, 0x78, 0x6b, 0x1b, 0xbe, 0xb0, 0xce, 0x09, 0xbd,
  0xdc, 0x98, 0xc0, 0x3e, 0xa3, 0x6b, 0xb2, 0xbe, 0x6c, 0x6f, 0x96, 0x3d,
  0x31, 0x77, 0x8d, 0xbe, 0xa8, 0x3a, 0x49, 0xbe, 0xba, 0x96, 0x1b, 0xbe,
  0xca, 0xda, 0x9b, 0x3d, 0x2a, 0x96, 0x9a, 0xbd, 0x20, 0x87, 0xd0, 0xbb,
  0xde, 0x56, 0x06, 0xbe, 0x4f, 0xd4, 0x2b, 0x3e, 0x43, 0x86, 0x31, 0x3e,
  0xaa, 0xff, 0xc4, 0x3d, 0xc0, 0x9f, 0xe0, 0xbc, 0xd4, 0xe8, 0x20, 0xbd,
  0xb2, 0x67, 0xc8, 0x3d, 0x99, 0xc9, 0xae, 0x3e, 0xa6, 0xc1, 0x48, 0xbe,
  0x96, 0x7c, 0x78, 0x3e, 0x54, 0xf6, 0x60, 0xbd, 0xab, 0xa7, 0x5c, 0xbe,
  0xa0, 0xbc, 0x0e, 0x3c, 0x44, 0xed, 0x1d, 0xbd, 0x9e, 0xae, 0x27, 0xbe,
  0xcb, 0x3e, 0x4b, 0x3e, 0x7f, 0xdd, 0xf3, 0xbd, 0x59, 0x7f, 0x38, 0x3e,
  0xa0, 0xa9, 0x48, 0x3c, 0xf8, 0xba, 0x5c, 0xbd, 0x4a, 0xc4, 0x45, 0xbe,
  0x83, 0x95, 0xd2, 0xbd, 0xe9, 0x96, 0x1a, 0x3e, 0x2a, 0x47, 0x18, 0x3d,
  0x68, 0xd5, 0x0c, 0xbe, 0xe7, 0x60, 0x22, 0xbc, 0x3e, 0xe8, 0xaf, 0xbe,
  0x12, 0xdc, 0x27, 0xbe, 0xc4, 0xc1, 0x2c, 0x3d, 0x60, 0x79, 0x3c, 0xbe,
  0x0a, 0x8f, 0xaf, 0xbd, 0x47, 0xa4, 0x27, 0x3e, 0x6f, 0x9f, 0x5d, 0xbe,
  0x9c, 0x81, 0x4f, 0x3d, 0xe2, 0xfb, 0xcc, 0x3d, 0x26, 0x90, 0x8b, 0xbd,
  0xbe, 0x37, 0x34, 0xbe, 0x44, 0x3a, 0x0c, 0xbd, 0x83, 0xcd, 0x08, 0xbe,
  0x23, 0xef, 0x6c, 0x3e, 0xc7, 0xc6, 0xcb, 0xbd, 0x1c, 0xc7, 0x68, 0x3e,
  0x24, 0x1e, 0xae, 0xbe, 0xd0, 0x0b, 0x21, 0x3c, 0x38, 0x15, 0xca, 0xbc,
  0x47, 0x63, 0x2d, 0x3e, 0x38, 0xf0, 0xd0, 0x3c, 0x2e, 0x6c, 0x9c, 0x3d,
  0xde, 0xa3, 0xe5, 0x3d, 0x5a, 0x23, 0x10, 0xbe, 0x80, 0xa1, 0xec, 0xbd,
  0x0a, 0x6c, 0x24, 0xbe, 0xbc, 0x1f, 0x3f, 0x3d, 0xa0, 0x45, 0x15, 0xbe,
  0x4b, 0x52, 0x56, 0x3e, 0x65, 0x27, 0xa5, 0x3e, 0x62, 0xb4, 0x34, 0xbe,
  0xf9, 0x4f, 0x24, 0x3e, 0xb0, 0x63, 0x9f, 0xbe, 0x90, 0xde, 0x9b, 0x3c,
  0x29, 0xdd, 0x33, 0x3e, 0x1f, 0x97, 0xf1, 0xbd, 0x36, 0xc5, 0xc3, 0x3d,
  0x78, 0x1a, 0xde, 0x3c, 0x9f, 0xe9, 0x0c, 0x3e, 0x1d, 0xf1, 0x56, 0xbe,
  0x4b, 0x9d, 0x23, 0x3e, 0x8f, 0x4b, 0x49, 0x3e, 0xba, 0x01, 0x53, 0xbe,
  0xa0, 0x22, 0x55, 0xbd, 0x00, 0x05, 0x77, 0x3a, 0x48, 0x2a, 0x23, 0x3e,
  0x99, 0x15, 0x86, 0x3e, 0xc3, 0x31, 0xbd, 0xbe, 0xb4, 0x37, 0xdd, 0x3c,
  0x18, 0x87, 0x18, 0xbe, 0x63, 0x32, 0x3e, 0x3e, 0xf2, 0x0c, 0xac, 0xbd,
  0xe9, 0xdb, 0x3a, 0x3e, 0xa4, 0xc4, 0x27, 0xbd, 0xf8, 0x92, 0xf0, 0xbc,
  0x13, 0xd9, 0x57, 0x3e, 0x0e, 0x3a, 0x08, 0xbe, 0x22, 0xa4, 0xbe, 0x3d,
  0x4d, 0x24, 0x2f, 0x3e, 0x72, 0xce, 0xa8, 0x3d, 0x5f, 0xc2, 0x12, 0x3e,
  0x0a, 0x5d, 0x07, 0x3e, 0x71, 0xc6, 0x3a, 0xbd, 0x5f, 0x97, 0xb8, 0xbe,
  0x70, 0x40, 0x53, 0x3e, 0x30, 0x19, 0x24, 0xbc, 0xf2, 0x8d, 0x35, 0xbe,
  0xf2, 0xbe, 0xe5, 0x3d, 0x87, 0x80, 0x1c, 0x3e, 0xfc, 0xd4, 0x13, 0xbd,
  0x82, 0x68, 0x14, 0xbe, 0xc3, 0xc9, 0x3e, 0xbe, 0xb4, 0xa6, 0x0b, 0xbe,
  0x9f, 0x62, 0x0d, 0x3e, 0xc3, 0x04, 0x23, 0xbe, 0x50, 0x0d, 0x28, 0xbc,
  0xc1, 0x0a, 0x15, 0x3e, 0xd5, 0xee, 0x8a, 0xbd, 0xc1, 0x50, 0x1b, 0x3e,
  0xf0, 0x64, 0xfc, 0xbd, 0x1e, 0xe2, 0x42, 0x3e, 0x63, 0x37, 0x24, 0x3e,
  0xb9, 0x7c, 0x50, 0x3e, 0xc6, 0x37, 0x9c, 0x3d, 0x97, 0x90, 0x31, 0xbe,
  0x8d, 0xfb, 0x28, 0x3e, 0xbd, 0x61, 0x20, 0x3e, 0x96, 0x4f, 0xd4, 0x3d,
  0x48, 0xbf, 0xec, 0xbc, 0xb4, 0xb5, 0x0e, 0x3d, 0x4c, 0x6e, 0x04, 0xbe,
  0xca, 0x9e, 0xa2, 0xbd, 0x16, 0xf1, 0x3c, 0xbe, 0xb2, 0xd8, 0xb9, 0xbd,
  0x21, 0xbb, 0x5e, 0x3e, 0xf3, 0x5a, 0x99, 0xbe, 0x95, 0x85, 0x16, 0xbd,
  0xcf, 0xa5, 0x03, 0x3e, 0x91, 0xa7, 0x0a, 0xbe, 0x66, 0x91, 0xec, 0x3d,
  0x7f, 0x6d, 0xca, 0xbd, 0x2a, 0xe6, 0xa8, 0x3d, 0x5b, 0xbd, 0x17, 0x3e,
  0x04, 0x6c, 0x27, 0xbe, 0xf7, 0x16, 0x42, 0x3e, 0xc2, 0xfb, 0xff, 0xff,
  0x04, 0x00, 0x00, 0x00, 0x00, 0x01, 0x00, 0x00, 0x23, 0xc5, 0x80, 0xbe,
  0x10, 0x05, 0x5d, 0xbe, 0x0e, 0x0e, 0x25, 0x3e, 0xb8, 0xbe, 0x59, 0x3e,
  0xb0, 0xee, 0x8b, 0x3c, 0x03, 0x73, 0xb1, 0xbe, 0x60, 0xd4, 0x08, 0x3d,
  0x30, 0x97, 0xd4, 0x3d, 0xa0, 0xdf, 0x2e, 0xbe, 0x01, 0x0e, 0x14, 0xbe,
  0xda, 0xe1, 0xed, 0xbd, 0xd2, 0x17, 0x82, 0x3e, 0x3c, 0x42, 0xa1, 0x3d,
  0x06, 0xaa, 0x6a, 0xbe, 0xc4, 0x32, 0xf7, 0x3d, 0xfa, 0xa2, 0x61, 0x3e,
  0xb8, 0x0a, 0x0e, 0x3e, 0xb7, 0x79, 0x52, 0x3e, 0x50, 0x85, 0x28, 0x3d,
  0x60, 0x99, 0x35, 0x3e, 0xde, 0x54, 0x87, 0x3e, 0x59, 0xa2, 0xd2, 0x3e,
  0x9c, 0x9e, 0x2b, 0xbd, 0xf4, 0xf9, 0x45, 0x3e, 0x5a, 0x3d, 0x14, 0x3e,
  0x98, 0xe1, 0xd3, 0x3e, 0x6c, 0x41, 0x56, 0x3e, 0x87, 0x40, 0x81, 0xbe,
  0x26, 0x9c, 0x61, 0x3e, 0xbd, 0xee, 0x23, 0x3e, 0x60, 0x78, 0x96, 0xbc,
  0x72, 0x90, 0x1d, 0xbe, 0xfc, 0x83, 0xe0, 0x3d, 0xd3, 0xd0, 0xd4, 0x3e,
  0x50, 0xc8, 0xc7, 0xbd, 0x4c, 0x86, 0x23, 0xbe, 0x60, 0xba, 0x0b, 0x3c,
  0x5b, 0x2b, 0xe1, 0x3e, 0xb0, 0x38, 0xc8, 0x3c, 0x70, 0xe2, 0xc2, 0x3d,
  0x33, 0x1a, 0x48, 0xbe, 0xdb, 0x35, 0xc5, 0x3e, 0x40, 0x7d, 0x8e, 0x3c,
  0x78, 0x8b, 0x36, 0xbe, 0x54, 0xed, 0x4c, 0xbe, 0x76, 0x05, 0xe6, 0xbd,
  0x2a, 0xd4, 0x7d, 0xbe, 0xe0, 0xf0, 0x65, 0xbc, 0x52, 0x3d, 0xe6, 0xbd,
  0x1f, 0xbf, 0xfb, 0x3e, 0x88, 0x99, 0xdf, 0x3d, 0x66, 0xe0, 0x97, 0xbd,
  0xf8, 0xba, 0x09, 0x3d, 0xb2, 0xea, 0xd4, 0x3e, 0xbc, 0x9e, 0xa8, 0xbd,
  0xa8, 0x46, 0x05, 0x3d, 0x4b, 0xfd, 0x4f, 0xbe, 0xab, 0xe9, 0xb5, 0x3e,
  0xa4, 0xea, 0xb7, 0x3d, 0x74, 0xe1, 0xa4, 0xbd, 0x68, 0x29, 0x65, 0x3d,
  0x15, 0xc6, 0x88, 0x3e, 0x4c, 0xce, 0xd0, 0x3d, 0x00, 0x3c, 0x99, 0x3c,
  0xce, 0xfc, 0xff, 0xff, 0x04, 0x00, 0x00, 0x00, 0x10, 0x00, 0x00, 0x00,
  0x99, 0xb1, 0x3e, 0x3d, 0xf6, 0xd1, 0x74, 0x3d, 0xa6, 0x9b, 0x85, 0x3c,
  0x7d, 0x9e, 0x2b, 0xbe, 0xea, 0xfc, 0xff, 0xff, 0x04, 0x00, 0x00, 0x00,
  0x10, 0x00, 0x00, 0x00, 0xfb, 0x0f, 0x84, 0xbd, 0x22, 0x99, 0xa8, 0x3d,
  0x39, 0x7d, 0xf5, 0x3d, 0xdc, 0x93, 0xd6, 0x3d, 0x06, 0xfd, 0xff, 0xff,
  0x04, 0x00, 0x00, 0x00, 0x10, 0x00, 0x00, 0x00, 0x3d, 0x48, 0x1b, 0x3e,
  0x4f, 0xd4, 0xe0, 0x3d, 0xbd, 0x0d, 0x1e, 0xbd, 0x09, 0xdb, 0xfa, 0x3d,
  0x14, 0xf0, 0xff, 0xff, 0x18, 0xf0, 0xff, 0xff, 0x0f, 0x00, 0x00, 0x00,
  0x4d, 0x4c, 0x49, 0x52, 0x20, 0x43, 0x6f, 0x6e, 0x76, 0x65, 0x72, 0x74,
  0x65, 0x64, 0x2e, 0x00, 0x01, 0x00, 0x00, 0x00, 0x14, 0x00, 0x00, 0x00,
  0x00, 0x00, 0x0e, 0x00, 0x18, 0x00, 0x14, 0x00, 0x10, 0x00, 0x0c, 0x00,
  0x08, 0x00, 0x04, 0x00, 0x0e, 0x00, 0x00, 0x00, 0x14, 0x00, 0x00, 0x00,
  0x1c, 0x00, 0x00, 0x00, 0x68, 0x03, 0x00, 0x00, 0x6c, 0x03, 0x00, 0x00,
  0x70, 0x03, 0x00, 0x00, 0x04, 0x00, 0x00, 0x00, 0x6d, 0x61, 0x69, 0x6e,
  0x00, 0x00, 0x00, 0x00, 0x0d, 0x00, 0x00, 0x00, 0x18, 0x03, 0x00, 0x00,
  0xb8, 0x02, 0x00, 0x00, 0x60, 0x02, 0x00, 0x00, 0x38, 0x02, 0x00, 0x00,
  0xdc, 0x01, 0x00, 0x00, 0x8c, 0x01, 0x00, 0x00, 0x48, 0x01, 0x00, 0x00,
  0x08, 0x01, 0x00, 0x00, 0xe0, 0x00, 0x00, 0x00, 0xa8, 0x00, 0x00, 0x00,
  0x70, 0x00, 0x00, 0x00, 0x38, 0x00, 0x00, 0x00, 0x04, 0x00, 0x00, 0x00,
  0x86, 0xfd, 0xff, 0xff, 0x14, 0x00, 0x00, 0x00, 0x00, 0x00, 0x00, 0x09,
  0x14, 0x00, 0x00, 0x00, 0x18, 0x00, 0x00, 0x00, 0x07, 0x00, 0x00, 0x00,
  0xca, 0xfd, 0xff, 0xff, 0x00, 0x00, 0x80, 0x3f, 0x01, 0x00, 0x00, 0x00,
  0x1b, 0x00, 0x00, 0x00, 0x01, 0x00, 0x00, 0x00, 0x1a, 0x00, 0x00, 0x00,
  0xb6, 0xfd, 0xff, 0xff, 0x14, 0x00, 0x00, 0x00, 0x00, 0x00, 0x00, 0x08,
  0x10, 0x00, 0x00, 0x00, 0x14, 0x00, 0x00, 0x00, 0x06, 0x00, 0x00, 0x00,
  0xec, 0xf0, 0xff, 0xff, 0x01, 0x00, 0x00, 0x00, 0x1a, 0x00, 0x00, 0x00,
  0x03, 0x00, 0x00, 0x00, 0x19, 0x00, 0x00, 0x00, 0x0e, 0x00, 0x00, 0x00,
  0x03, 0x00, 0x00, 0x00, 0xea, 0xfd, 0xff, 0xff, 0x14, 0x00, 0x00, 0x00,
  0x00, 0x00, 0x00, 0x08, 0x10, 0x00, 0x00, 0x00, 0x14, 0x00, 0x00, 0x00,
  0x06, 0x00, 0x00, 0x00, 0x20, 0xf1, 0xff, 0xff, 0x01, 0x00, 0x00, 0x00,
  0x19, 0x00, 0x00, 0x00, 0x03, 0x00, 0x00, 0x00, 0x18, 0x00, 0x00, 0x00,
  0x0d, 0x00, 0x00, 0x00, 0xff, 0xff, 0xff, 0xff, 0x1e, 0xfe, 0xff, 0xff,
  0x14, 0x00, 0x00, 0x00, 0x00, 0x00, 0x00, 0x08, 0x10, 0x00, 0x00, 0x00,
  0x14, 0x00, 0x00, 0x00, 0x06, 0x00, 0x00, 0x00, 0x54, 0xf1, 0xff, 0xff,
  0x01, 0x00, 0x00, 0x00, 0x18, 0x00, 0x00, 0x00, 0x03, 0x00, 0x00, 0x00,
  0x17, 0x00, 0x00, 0x00, 0x0c, 0x00, 0x00, 0x00, 0x0b, 0x00, 0x00, 0x00,
  0xc6, 0xfe, 0xff, 0xff, 0x0c, 0x00, 0x00, 0x00, 0x10, 0x00, 0x00, 0x00,
  0x03, 0x00, 0x00, 0x00, 0x01, 0x00, 0x00, 0x00, 0x17, 0x00, 0x00, 0x00,
  0x02, 0x00, 0x00, 0x00, 0x16, 0x00, 0x00, 0x00, 0x0a, 0x00, 0x00, 0x00,
  0x76, 0xfe, 0xff, 0xff, 0x14, 0x00, 0x00, 0x00, 0x00, 0x00, 0x00, 0x05,
  0x20, 0x00, 0x00, 0x00, 0x24, 0x00, 0x00, 0x00, 0x05, 0x00, 0x00, 0x00,
  0x82, 0xff, 0xff, 0xff, 0x04, 0x00, 0x00, 0x00, 0x04, 0x00, 0x00, 0x00,
  0x04, 0x00, 0x00, 0x00, 0x04, 0x00, 0x00, 0x00, 0x01, 0x00, 0x00, 0x00,
  0x16, 0x00, 0x00, 0x00, 0x01, 0x00, 0x00, 0x00, 0x15, 0x00, 0x00, 0x00,
  0xb2, 0xfe, 0xff, 0xff, 0x14, 0x00, 0x00, 0x00, 0x00, 0x00, 0x00, 0x01,
  0x1c, 0x00, 0x00, 0x00, 0x20, 0x00, 0x00, 0x00, 0x04, 0x00, 0x00, 0x00,
  0x74, 0xff, 0xff, 0xff, 0x00, 0x00, 0x00, 0x01, 0x01, 0x00, 0x00, 0x00,
  0x01, 0x00, 0x00, 0x00, 0x01, 0x00, 0x00, 0x00, 0x15, 0x00, 0x00, 0x00,
  0x03, 0x00, 0x00, 0x00, 0x14, 0x00, 0x00, 0x00, 0x05, 0x00, 0x00, 0x00,
  0x02, 0x00, 0x00, 0x00, 0xf2, 0xfe, 0xff, 0xff, 0x24, 0x00, 0x00, 0x00,
  0x00, 0x00, 0x00, 0x05, 0x30, 0x00, 0x00, 0x00, 0x34, 0x00, 0x00, 0x00,
  0x05, 0x00, 0x00, 0x00, 0x00, 0x00, 0x0e, 0x00, 0x14, 0x00, 0x00, 0x00,
  0x10, 0x00, 0x0c, 0x00, 0x08, 0x00, 0x04, 0x00, 0x0e, 0x00, 0x00, 0x00,
  0x04, 0x00, 0x00, 0x00, 0x04, 0x00, 0x00, 0x00, 0x04, 0x00, 0x00, 0x00,
  0x04, 0x00, 0x00, 0x00, 0x01, 0x00, 0x00, 0x00, 0x14, 0x00, 0x00, 0x00,
  0x01, 0x00, 0x00, 0x00, 0x13, 0x00, 0x00, 0x00, 0x3e, 0xff, 0xff, 0xff,
  0x20, 0x00, 0x00, 0x00, 0x00, 0x00, 0x00, 0x01, 0x28, 0x00, 0x00, 0x00,
  0x2c, 0x00, 0x00, 0x00, 0x04, 0x00, 0x00, 0x00, 0x0c, 0x00, 0x10, 0x00,
  0x00, 0x00, 0x0c, 0x00, 0x08, 0x00, 0x07, 0x00, 0x0c, 0x00, 0x00, 0x00,
  0x00, 0x00, 0x00, 0x01, 0x01, 0x00, 0x00, 0x00, 0x01, 0x00, 0x00, 0x00,
  0x01, 0x00, 0x00, 0x00, 0x13, 0x00, 0x00, 0x00, 0x03, 0x00, 0x00, 0x00,
  0x12, 0x00, 0x00, 0x00, 0x04, 0x00, 0x00, 0x00, 0x01, 0x00, 0x00, 0x00,
  0x00, 0x00, 0x0a, 0x00, 0x10, 0x00, 0x0c, 0x00, 0x08, 0x00, 0x04, 0x00,
  0x0a, 0x00, 0x00, 0x00, 0x0c, 0x00, 0x00, 0x00, 0x10, 0x00, 0x00, 0x00,
  0x03, 0x00, 0x00, 0x00, 0x01, 0x00, 0x00, 0x00, 0x12, 0x00, 0x00, 0x00,
  0x02, 0x00, 0x00, 0x00, 0x00, 0x00, 0x00, 0x00, 0x11, 0x00, 0x00, 0x00,
  0xba, 0xff, 0xff, 0xff, 0x1c, 0x00, 0x00, 0x00, 0x00, 0x00, 0x00, 0x3b,
  0x1c, 0x00, 0x00, 0x00, 0x20, 0x00, 0x00, 0x00, 0x02, 0x00, 0x00, 0x00,
  0x00, 0x00, 0x06, 0x00, 0x08, 0x00, 0x04, 0x00, 0x06, 0x00, 0x00, 0x00,
  0x04, 0x00, 0x00, 0x00, 0x01, 0x00, 0x00, 0x00, 0x11, 0x00, 0x00, 0x00,
  0x04, 0x00, 0x00, 0x00, 0x10, 0x00, 0x00, 0x00, 0x06, 0x00, 0x00, 0x00,
  0x07, 0x00, 0x00, 0x00, 0x07, 0x00, 0x00, 0x00, 0x00, 0x00, 0x0e, 0x00,
  0x1a, 0x00, 0x14, 0x00, 0x10, 0x00, 0x0c, 0x00, 0x0b, 0x00, 0x04, 0x00,
  0x0e, 0x00, 0x00, 0x00, 0x24, 0x00, 0x00, 0x00, 0x00, 0x00, 0x00, 0x20,
  0x24, 0x00, 0x00, 0x00, 0x28, 0x00, 0x00, 0x00, 0x01, 0x00, 0x00, 0x00,
  0x00, 0x00, 0x0e, 0x00, 0x08, 0x00, 0x00, 0x00, 0x00, 0x00, 0x00, 0x00,
  0x00, 0x00, 0x04, 0x00, 0x0e, 0x00, 0x00, 0x00, 0x01, 0x00, 0x00, 0x00,
  0x01, 0x00, 0x00, 0x00, 0x10, 0x00, 0x00, 0x00, 0x04, 0x00, 0x00, 0x00,
  0x0f, 0x00, 0x00, 0x00, 0x08, 0x00, 0x00, 0x00, 0x09, 0x00, 0x00, 0x00,
  0x09, 0x00, 0x00, 0x00, 0x00, 0x00, 0x0e, 0x00, 0x16, 0x00, 0x00, 0x00,
  0x10, 0x00, 0x0c, 0x00, 0x0b, 0x00, 0x04, 0x00, 0x0e, 0x00, 0x00, 0x00,
  0x18, 0x00, 0x00, 0x00, 0x00, 0x00, 0x00, 0x37, 0x18, 0x00, 0x00, 0x00,
  0x1c, 0x00, 0x00, 0x00, 0x00, 0x00, 0x06, 0x00, 0x08, 0x00, 0x07, 0x00,
  0x06, 0x00, 0x00, 0x00, 0x00, 0x00, 0x00, 0x02, 0x01, 0x00, 0x00, 0x00,
  0x0f, 0x00, 0x00, 0x00, 0x01, 0x00, 0x00, 0x00, 0x00, 0x00, 0x00, 0x00,
  0x01, 0x00, 0x00, 0x00, 0x1b, 0x00, 0x00, 0x00, 0x01, 0x00, 0x00, 0x00,
  0x00, 0x00, 0x00, 0x00, 0x1c, 0x00, 0x00, 0x00, 0x08, 0x0c, 0x00, 0x00,
  0x90, 0x0b, 0x00, 0x00, 0x18, 0x0b, 0x00, 0x00, 0xa8, 0x0a, 0x00, 0x00,
  0x4c, 0x0a, 0x00, 0x00, 0xf0, 0x09, 0x00, 0x00, 0x98, 0x09, 0x00, 0x00,
  0x28, 0x09, 0x00, 0x00, 0xc8, 0x08, 0x00, 0x00, 0x68, 0x08, 0x00, 0x00,
  0x14, 0x08, 0x00, 0x00, 0xb4, 0x07, 0x00, 0x00, 0x60, 0x07, 0x00, 0x00,
  0x0c, 0x07, 0x00, 0x00, 0xb8, 0x06, 0x00, 0x00, 0x68, 0x06, 0x00, 0x00,
  0x14, 0x06, 0x00, 0x00, 0xbc, 0x05, 0x00, 0x00, 0x48, 0x05, 0x00, 0x00,
  0x38, 0x04, 0x00, 0x00, 0xbc, 0x03, 0x00, 0x00, 0xd0, 0x02, 0x00, 0x00,
  0x54, 0x02, 0x00, 0x00, 0xf0, 0x01, 0x00, 0x00, 0x6c, 0x01, 0x00, 0x00,
  0x08, 0x01, 0x00, 0x00, 0x60, 0x00, 0x00, 0x00, 0x04, 0x00, 0x00, 0x00,
  0x7e, 0xf4, 0xff, 0xff, 0x00, 0x00, 0x00, 0x01, 0x14, 0x00, 0x00, 0x00,
  0x1c, 0x00, 0x00, 0x00, 0x1c, 0x00, 0x00, 0x00, 0x1c, 0x00, 0x00, 0x00,
  0x34, 0x00, 0x00, 0x00, 0x02, 0x00, 0x00, 0x00, 0xff, 0xff, 0xff, 0xff,
  0x04, 0x00, 0x00, 0x00, 0x68, 0xf4, 0xff, 0xff, 0x19, 0x00, 0x00, 0x00,
  0x53, 0x74, 0x61, 0x74, 0x65, 0x66, 0x75, 0x6c, 0x50, 0x61, 0x72, 0x74,
  0x69, 0x74, 0x69, 0x6f, 0x6e, 0x65, 0x64, 0x43, 0x61, 0x6c, 0x6c, 0x3a,
  0x30, 0x00, 0x00, 0x00, 0x02, 0x00, 0x00, 0x00, 0x01, 0x00, 0x00, 0x00,
  0x04, 0x00, 0x00, 0x00, 0xd6, 0xf4, 0xff, 0xff, 0x00, 0x00, 0x00, 0x01,
  0x14, 0x00, 0x00, 0x00, 0x1c, 0x00, 0x00, 0x00, 0x1c, 0x00, 0x00, 0x00,
  0x1b, 0x00, 0x00, 0x00, 0x80, 0x00, 0x00, 0x00, 0x02, 0x00, 0x00, 0x00,
  0xff, 0xff, 0xff, 0xff, 0x04, 0x00, 0x00, 0x00, 0xc0, 0xf4, 0xff, 0xff,
  0x64, 0x00, 0x00, 0x00, 0x63, 0x6f, 0x6e, 0x76, 0x5f, 0x6d, 0x6f, 0x64,
  0x65, 0x6c, 0x5f, 0x70, 0x61, 0x70, 0x65, 0x72, 0x2f, 0x64, 0x65, 0x6e,
  0x73, 0x65, 0x5f, 0x37, 0x33, 0x2f, 0x42, 0x69, 0x61, 0x73, 0x41, 0x64,
  0x64, 0x3b, 0x63, 0x6f, 0x6e, 0x76, 0x5f, 0x6d, 0x6f, 0x64, 0x65, 0x6c,
  0x5f, 0x70, 0x61, 0x70, 0x65, 0x72, 0x2f, 0x64, 0x65, 0x6e, 0x73, 0x65,
  0x5f, 0x37, 0x34, 0x2f, 0x4d, 0x61, 0x74, 0x4d, 0x75, 0x6c, 0x3b, 0x63,
  0x6f, 0x6e, 0x76, 0x5f, 0x6d, 0x6f, 0x64, 0x65, 0x6c, 0x5f, 0x70, 0x61,
  0x70, 0x65, 0x72, 0x2f, 0x64, 0x65, 0x6e, 0x73, 0x65, 0x5f, 0x37, 0x34,
  0x2f, 0x42, 0x69, 0x61, 0x73, 0x41, 0x64, 0x64, 0x00, 0x00, 0x00, 0x00,
  0x02, 0x00, 0x00, 0x00, 0x01, 0x00, 0x00, 0x00, 0x04, 0x00, 0x00, 0x00,
  0x7a, 0xf5, 0xff, 0xff, 0x00, 0x00, 0x00, 0x01, 0x14, 0x00, 0x00, 0x00,
  0x1c, 0x00, 0x00, 0x00, 0x1c, 0x00, 0x00, 0x00, 0x1a, 0x00, 0x00, 0x00,
  0x3c, 0x00, 0x00, 0x00, 0x02, 0x00, 0x00, 0x00, 0xff, 0xff, 0xff, 0xff,
  0x04, 0x00, 0x00, 0x00, 0x64, 0xf5, 0xff, 0xff, 0x21, 0x00, 0x00, 0x00,
  0x63, 0x6f, 0x6e, 0x76, 0x5f, 0x6d, 0x6f, 0x64, 0x65, 0x6c, 0x5f, 0x70,
  0x61, 0x70, 0x65, 0x72, 0x2f, 0x64, 0x65, 0x6e, 0x73, 0x65, 0x5f, 0x37,
  0x33, 0x2f, 0x4d, 0x61, 0x74, 0x4d, 0x75, 0x6c, 0x31, 0x00, 0x00, 0x00,
  0x02, 0x00, 0x00, 0x00, 0x01, 0x00, 0x00, 0x00, 0x04, 0x00, 0x00, 0x00,
  0xda, 0xf5, 0xff, 0xff, 0x00, 0x00, 0x00, 0x01, 0x14, 0x00, 0x00, 0x00,
  0x1c, 0x00, 0x00, 0x00, 0x1c, 0x00, 0x00, 0x00, 0x19, 0x00, 0x00, 0x00,
  0x5c, 0x00, 0x00, 0x00, 0x02, 0x00, 0x00, 0x00, 0xff, 0xff, 0xff, 0xff,
  0x08, 0x00, 0x00, 0x00, 0xc4, 0xf5, 0xff, 0xff, 0x42, 0x00, 0x00, 0x00,
  0x63, 0x6f, 0x6e, 0x76, 0x5f, 0x6d, 0x6f, 0x64, 0x65, 0x6c, 0x5f, 0x70,
  0x61, 0x70, 0x65, 0x72, 0x2f, 0x64, 0x65, 0x6e, 0x73, 0x65, 0x5f, 0x37,
  0x32, 0x2f, 0x4d, 0x61, 0x74, 0x4d, 0x75, 0x6c, 0x3b, 0x63, 0x6f, 0x6e,
  0x76, 0x5f, 0x6d, 0x6f, 0x64, 0x65, 0x6c, 0x5f, 0x70, 0x61, 0x70, 0x65,
  0x72, 0x2f, 0x64, 0x65, 0x6e, 0x73, 0x65, 0x5f, 0x37, 0x32, 0x2f, 0x42,
  0x69, 0x61, 0x73, 0x41, 0x64, 0x64, 0x00, 0x00, 0x02, 0x00, 0x00, 0x00,
  0x01, 0x00, 0x00, 0x00, 0x08, 0x00, 0x00, 0x00, 0x5a, 0xf6, 0xff, 0xff,
  0x00, 0x00, 0x00, 0x01, 0x14, 0x00, 0x00, 0x00, 0x1c, 0x00, 0x00, 0x00,
  0x1c, 0x00, 0x00, 0x00, 0x18, 0x00, 0x00, 0x00, 0x3c, 0x00, 0x00, 0x00,
  0x02, 0x00, 0x00, 0x00, 0xff, 0xff, 0xff, 0xff, 0xe4, 0x00, 0x00, 0x00,
  0x44, 0xf6, 0xff, 0xff, 0x23, 0x00, 0x00, 0x00, 0x63, 0x6f, 0x6e, 0x76,
  0x5f, 0x6d, 0x6f, 0x64, 0x65, 0x6c, 0x5f, 0x70, 0x61, 0x70, 0x65, 0x72,
  0x2f, 0x66, 0x6c, 0x61, 0x74, 0x74, 0x65, 0x6e, 0x5f, 0x31, 0x38, 0x2f,
  0x52, 0x65, 0x73, 0x68, 0x61, 0x70, 0x65, 0x00, 0x02, 0x00, 0x00, 0x00,
  0x01, 0x00, 0x00, 0x00, 0xe4, 0x00, 0x00, 0x00, 0xba, 0xf6, 0xff, 0xff,
  0x00, 0x00, 0x00, 0x01, 0x14, 0x00, 0x00, 0x00, 0x24, 0x00, 0x00, 0x00,
  0x24, 0x00, 0x00, 0x00, 0x17, 0x00, 0x00, 0x00, 0x4c, 0x00, 0x00, 0x00,
  0x04, 0x00, 0x00, 0x00, 0xff, 0xff, 0xff, 0xff, 0x39, 0x00, 0x00, 0x00,
  0x01, 0x00, 0x00, 0x00, 0x04, 0x00, 0x00, 0x00, 0xac, 0xf6, 0xff, 0xff,
  0x29, 0x00, 0x00, 0x00, 0x63, 0x6f, 0x6e, 0x76, 0x5f, 0x6d, 0x6f, 0x64,
  0x65, 0x6c, 0x5f, 0x70, 0x61, 0x70, 0x65, 0x72, 0x2f, 0x6d, 0x61, 0x78,
  0x5f, 0x70, 0x6f, 0x6f, 0x6c, 0x69, 0x6e, 0x67, 0x32, 0x64, 0x5f, 0x33,
  0x33, 0x2f, 0x4d, 0x61, 0x78, 0x50, 0x6f, 0x6f, 0x6c, 0x00, 0x00, 0x00,
  0x04, 0x00, 0x00, 0x00, 0x01, 0x00, 0x00, 0x00, 0x39, 0x00, 0x00, 0x00,
  0x01, 0x00, 0x00, 0x00, 0x04, 0x00, 0x00, 0x00, 0x32, 0xf7, 0xff, 0xff,
  0x00, 0x00, 0x00, 0x01, 0x14, 0x00, 0x00, 0x00, 0x24, 0x00, 0x00, 0x00,
  0x24, 0x00, 0x00, 0x00, 0x16, 0x00, 0x00, 0x00, 0xbc, 0x00, 0x00, 0x00,
  0x04, 0x00, 0x00, 0x00, 0xff, 0xff, 0xff, 0xff, 0xe1, 0x00, 0x00, 0x00,
  0x01, 0x00, 0x00, 0x00, 0x04, 0x00, 0x00, 0x00, 0x24, 0xf7, 0xff, 0xff,
  0x9a, 0x00, 0x00, 0x00, 0x63, 0x6f, 0x6e, 0x76, 0x5f, 0x6d, 0x6f, 0x64,
  0x65, 0x6c, 0x5f, 0x70, 0x61, 0x70, 0x65, 0x72, 0x2f, 0x61, 0x63, 0x74,
  0x69, 0x76, 0x61, 0x74, 0x69, 0x6f, 0x6e, 0x5f, 0x33, 0x37, 0x2f, 0x52,
  0x65, 0x6c, 0x75, 0x3b, 0x63, 0x6f, 0x6e, 0x76, 0x5f, 0x6d, 0x6f, 0x64,
  0x65, 0x6c, 0x5f, 0x70, 0x61, 0x70, 0x65, 0x72, 0x2f, 0x63, 0x6f, 0x6e,
  0x76, 0x32, 0x64, 0x5f, 0x33, 0x35, 0x2f, 0x42, 0x69, 0x61, 0x73, 0x41,
  0x64, 0x64, 0x3b, 0x63, 0x6f, 0x6e, 0x76, 0x5f, 0x6d, 0x6f, 0x64, 0x65,
  0x6c, 0x5f, 0x70, 0x61, 0x70, 0x65, 0x72, 0x2f, 0x63, 0x6f, 0x6e, 0x76,
  0x32, 0x64, 0x5f, 0x33, 0x35, 0x2f, 0x43, 0x6f, 0x6e, 0x76, 0x32, 0x44,
  0x3b, 0x63, 0x6f, 0x6e, 0x76, 0x5f, 0x6d, 0x6f, 0x64, 0x65, 0x6c, 0x5f,
  0x70, 0x61, 0x70, 0x65, 0x72, 0x2f, 0x63, 0x6f, 0x6e, 0x76, 0x32, 0x64,
  0x5f, 0x33, 0x35, 0x2f, 0x42, 0x69, 0x61, 0x73, 0x41, 0x64, 0x64, 0x2f,
  0x52, 0x65, 0x61, 0x64, 0x56, 0x61, 0x72, 0x69, 0x61, 0x62, 0x6c, 0x65,
  0x4f, 0x70, 0x00, 0x00, 0x04, 0x00, 0x00, 0x00, 0x01, 0x00, 0x00, 0x00,
  0xe1, 0x00, 0x00, 0x00, 0x01, 0x00, 0x00, 0x00, 0x04, 0x00, 0x00, 0x00,
  0x1a, 0xf8, 0xff, 0xff, 0x00, 0x00, 0x00, 0x01, 0x14, 0x00, 0x00, 0x00,
  0x24, 0x00, 0x00, 0x00, 0x24, 0x00, 0x00, 0x00, 0x15, 0x00, 0x00, 0x00,
  0x4c, 0x00, 0x00, 0x00, 0x04, 0x00, 0x00, 0x00, 0xff, 0xff, 0xff, 0xff,
  0xe1, 0x00, 0x00, 0x00, 0x01, 0x00, 0x00, 0x00, 0x04, 0x00, 0x00, 0x00,
  0x0c, 0xf8, 0xff, 0xff, 0x29, 0x00, 0x00, 0x00, 0x63, 0x6f, 0x6e, 0x76,
  0x5f, 0x6d, 0x6f, 0x64, 0x65, 0x6c, 0x5f, 0x70, 0x61, 0x70, 0x65, 0x72,
  0x2f, 0x6d, 0x61, 0x78, 0x5f, 0x70, 0x6f, 0x6f, 0x6c, 0x69, 0x6e, 0x67,
  0x32, 0x64, 0x5f, 0x33, 0x32, 0x2f, 0x4d, 0x61, 0x78, 0x50, 0x6f, 0x6f,
  0x6c, 0x00, 0x00, 0x00, 0x04, 0x00, 0x00, 0x00, 0x01, 0x00, 0x00, 0x00,
  0xe1, 0x00, 0x00, 0x00, 0x01, 0x00, 0x00, 0x00, 0x04, 0x00, 0x00, 0x00,
  0x92, 0xf8, 0xff, 0xff, 0x00, 0x00, 0x00, 0x01, 0x14, 0x00, 0x00, 0x00,
  0x24, 0x00, 0x00, 0x00, 0x24, 0x00, 0x00, 0x00, 0x14, 0x00, 0x00, 0x00,
  0xe0, 0x00, 0x00, 0x00, 0x04, 0x00, 0x00, 0x00, 0xff, 0xff, 0xff, 0xff,
  0x84, 0x03, 0x00, 0x00, 0x01, 0x00, 0x00, 0x00, 0x04, 0x00, 0x00, 0x00,
  0x84, 0xf8, 0xff, 0xff, 0xbc, 0x00, 0x00, 0x00, 0x63, 0x6f, 0x6e, 0x76,
  0x5f, 0x6d, 0x6f, 0x64, 0x65, 0x6c, 0x5f, 0x70, 0x61, 0x70, 0x65, 0x72,
  0x2f, 0x61, 0x63, 0x74, 0x69, 0x76, 0x61, 0x74, 0x69, 0x6f, 0x6e, 0x5f,
  0x33, 0x36, 0x2f, 0x52, 0x65, 0x6c, 0x75, 0x3b, 0x63, 0x6f, 0x6e, 0x76,
  0x5f, 0x6d, 0x6f, 0x64, 0x65, 0x6c, 0x5f, 0x70, 0x61, 0x70, 0x65, 0x72,
  0x2f, 0x63, 0x6f, 0x6e, 0x76, 0x32, 0x64, 0x5f, 0x33, 0x34, 0x2f, 0x42,
  0x69, 0x61, 0x73, 0x41, 0x64, 0x64, 0x3b, 0x63, 0x6f, 0x6e, 0x76, 0x5f,
  0x6d, 0x6f, 0x64, 0x65, 0x6c, 0x5f, 0x70, 0x61, 0x70, 0x65, 0x72, 0x2f,
  0x63, 0x6f, 0x6e, 0x76, 0x32, 0x64, 0x5f, 0x33, 0x35, 0x2f, 0x43, 0x6f,
  0x6e, 0x76, 0x32, 0x44, 0x3b, 0x63, 0x6f, 0x6e, 0x76, 0x5f, 0x6d, 0x6f,
  0x64, 0x65, 0x6c, 0x5f, 0x70, 0x61, 0x70, 0x65, 0x72, 0x2f, 0x63, 0x6f,
  0x6e, 0x76, 0x32, 0x64, 0x5f, 0x33, 0x34, 0x2f, 0x43, 0x6f, 0x6e, 0x76,
  0x32, 0x44, 0x3b, 0x63, 0x6f, 0x6e, 0x76, 0x5f, 0x6d, 0x6f, 0x64, 0x65,
  0x6c, 0x5f, 0x70, 0x61, 0x70, 0x65, 0x72, 0x2f, 0x63, 0x6f, 0x6e, 0x76,
  0x32, 0x64, 0x5f, 0x33, 0x34, 0x2f, 0x42, 0x69, 0x61, 0x73, 0x41, 0x64,
  0x64, 0x2f, 0x52, 0x65, 0x61, 0x64, 0x56, 0x61, 0x72, 0x69, 0x61, 0x62,
  0x6c, 0x65, 0x4f, 0x70, 0x00, 0x00, 0x00, 0x00, 0x04, 0x00, 0x00, 0x00,
  0x01, 0x00, 0x00, 0x00, 0x84, 0x03, 0x00, 0x00, 0x01, 0x00, 0x00, 0x00,
  0x04, 0x00, 0x00, 0x00, 0x9e, 0xf9, 0xff, 0xff, 0x00, 0x00, 0x00, 0x01,
  0x14, 0x00, 0x00, 0x00, 0x24, 0x00, 0x00, 0x00, 0x24, 0x00, 0x00, 0x00,
  0x13, 0x00, 0x00, 0x00, 0x44, 0x00, 0x00, 0x00, 0x04, 0x00, 0x00, 0x00,
  0xff, 0xff, 0xff, 0xff, 0x84, 0x03, 0x00, 0x00, 0x01, 0x00, 0x00, 0x00,
  0x01, 0x00, 0x00, 0x00, 0x90, 0xf9, 0xff, 0xff, 0x20, 0x00, 0x00, 0x00,
  0x63, 0x6f, 0x6e, 0x76, 0x5f, 0x6d, 0x6f, 0x64, 0x65, 0x6c, 0x5f, 0x70,
  0x61, 0x70, 0x65, 0x72, 0x2f, 0x52, 0x65, 0x73, 0x68, 0x61, 0x70, 0x65,
  0x2f, 0x52, 0x65, 0x73, 0x68, 0x61, 0x70, 0x65, 0x00, 0x00, 0x00, 0x00,
  0x04, 0x00, 0x00, 0x00, 0x01, 0x00, 0x00, 0x00, 0x84, 0x03, 0x00, 0x00,
  0x01, 0x00, 0x00, 0x00, 0x01, 0x00, 0x00, 0x00, 0x66, 0xfc, 0xff, 0xff,
  0x00, 0x00, 0x00, 0x01, 0x14, 0x00, 0x00, 0x00, 0x14, 0x00, 0x00, 0x00,
  0x12, 0x00, 0x00, 0x00, 0x00, 0x00, 0x00, 0x02, 0x34, 0x00, 0x00, 0x00,
  0xec, 0xf9, 0xff, 0xff, 0x26, 0x00, 0x00, 0x00, 0x63, 0x6f, 0x6e, 0x76,
  0x5f, 0x6d, 0x6f, 0x64, 0x65, 0x6c, 0x5f, 0x70, 0x61, 0x70, 0x65, 0x72,
  0x2f, 0x52, 0x65, 0x73, 0x68, 0x61, 0x70, 0x65, 0x2f, 0x52, 0x65, 0x73,
  0x68, 0x61, 0x70, 0x65, 0x2f, 0x73, 0x68, 0x61, 0x70, 0x65, 0x00, 0x00,
  0x01, 0x00, 0x00, 0x00, 0x04, 0x00, 0x00, 0x00, 0xba, 0xfc, 0xff, 0xff,
  0x00, 0x00, 0x00, 0x01, 0x14, 0x00, 0x00, 0x00, 0x14, 0x00, 0x00, 0x00,
  0x11, 0x00, 0x00, 0x00, 0x00, 0x00, 0x00, 0x02, 0x34, 0x00, 0x00, 0x00,
  0x40, 0xfa, 0xff, 0xff, 0x26, 0x00, 0x00, 0x00, 0x63, 0x6f, 0x6e, 0x76,
  0x5f, 0x6d, 0x6f, 0x64, 0x65, 0x6c, 0x5f, 0x70, 0x61, 0x70, 0x65, 0x72,
  0x2f, 0x52, 0x65, 0x73, 0x68, 0x61, 0x70, 0x65, 0x2f, 0x73, 0x74, 0x72,
  0x69, 0x64, 0x65, 0x64, 0x5f, 0x73, 0x6c, 0x69, 0x63, 0x65, 0x00, 0x00,
  0x00, 0x00, 0x00, 0x00, 0x0a, 0xfd, 0xff, 0xff, 0x00, 0x00, 0x00, 0x01,
  0x14, 0x00, 0x00, 0x00, 0x14, 0x00, 0x00, 0x00, 0x10, 0x00, 0x00, 0x00,
  0x00, 0x00, 0x00, 0x02, 0x2c, 0x00, 0x00, 0x00, 0x90, 0xfa, 0xff, 0xff,
  0x1e, 0x00, 0x00, 0x00, 0x63, 0x6f, 0x6e, 0x76, 0x5f, 0x6d, 0x6f, 0x64,
  0x65, 0x6c, 0x5f, 0x70, 0x61, 0x70, 0x65, 0x72, 0x2f, 0x52, 0x65, 0x73,
  0x68, 0x61, 0x70, 0x65, 0x2f, 0x53, 0x68, 0x61, 0x70, 0x65, 0x00, 0x00,
  0x01, 0x00, 0x00, 0x00, 0x02, 0x00, 0x00, 0x00, 0x72, 0xfb, 0xff, 0xff,
  0x00, 0x00, 0x00, 0x01, 0x10, 0x00, 0x00, 0x00, 0x10, 0x00, 0x00, 0x00,
  0x0f, 0x00, 0x00, 0x00, 0x30, 0x00, 0x00, 0x00, 0xd8, 0xfa, 0xff, 0xff,
  0x20, 0x00, 0x00, 0x00, 0x63, 0x6f, 0x6e, 0x76, 0x5f, 0x6d, 0x6f, 0x64,
  0x65, 0x6c, 0x5f, 0x70, 0x61, 0x70, 0x65, 0x72, 0x2f, 0x64, 0x65, 0x6e,
  0x73, 0x65, 0x5f, 0x37, 0x34, 0x2f, 0x4d, 0x61, 0x74, 0x4d, 0x75, 0x6c,
  0x00, 0x00, 0x00, 0x00, 0x02, 0x00, 0x00, 0x00, 0x04, 0x00, 0x00, 0x00,
  0x04, 0x00, 0x00, 0x00, 0xc2, 0xfb, 0xff, 0xff, 0x00, 0x00, 0x00, 0x01,
  0x10, 0x00, 0x00, 0x00, 0x10, 0x00, 0x00, 0x00, 0x0e, 0x00, 0x00, 0x00,
  0x30, 0x00, 0x00, 0x00, 0x28, 0xfb, 0xff, 0xff, 0x20, 0x00, 0x00, 0x00,
  0x63, 0x6f, 0x6e, 0x76, 0x5f, 0x6d, 0x6f, 0x64, 0x65, 0x6c, 0x5f, 0x70,
  0x61, 0x70, 0x65, 0x72, 0x2f, 0x64, 0x65, 0x6e, 0x73, 0x65, 0x5f, 0x37,
  0x33, 0x2f, 0x4d, 0x61, 0x74, 0x4d, 0x75, 0x6c, 0x00, 0x00, 0x00, 0x00,
  0x02, 0x00, 0x00, 0x00, 0x04, 0x00, 0x00, 0x00, 0x08, 0x00, 0x00, 0x00,
  0x12, 0xfc, 0xff, 0xff, 0x00, 0x00, 0x00, 0x01, 0x10, 0x00, 0x00, 0x00,
  0x10, 0x00, 0x00, 0x00, 0x0d, 0x00, 0x00, 0x00, 0x30, 0x00, 0x00, 0x00,
  0x78, 0xfb, 0xff, 0xff, 0x21, 0x00, 0x00, 0x00, 0x63, 0x6f, 0x6e, 0x76,
  0x5f, 0x6d, 0x6f, 0x64, 0x65, 0x6c, 0x5f, 0x70, 0x61, 0x70, 0x65, 0x72,
  0x2f, 0x64, 0x65, 0x6e, 0x73, 0x65, 0x5f, 0x37, 0x32, 0x2f, 0x4d, 0x61,
  0x74, 0x4d, 0x75, 0x6c, 0x31, 0x00, 0x00, 0x00, 0x02, 0x00, 0x00, 0x00,
  0x08, 0x00, 0x00, 0x00, 0xe4, 0x00, 0x00, 0x00, 0x62, 0xfc, 0xff, 0xff,
  0x00, 0x00, 0x00, 0x01, 0x10, 0x00, 0x00, 0x00, 0x10, 0x00, 0x00, 0x00,
  0x0c, 0x00, 0x00, 0x00, 0x40, 0x00, 0x00, 0x00, 0xc8, 0xfb, 0xff, 0xff,
  0x30, 0x00, 0x00, 0x00, 0x63, 0x6f, 0x6e, 0x76, 0x5f, 0x6d, 0x6f, 0x64,
  0x65, 0x6c, 0x5f, 0x70, 0x61, 0x70, 0x65, 0x72, 0x2f, 0x64, 0x65, 0x6e,
  0x73, 0x65, 0x5f, 0x37, 0x32, 0x2f, 0x42, 0x69, 0x61, 0x73, 0x41, 0x64,
  0x64, 0x2f, 0x52, 0x65, 0x61, 0x64, 0x56, 0x61, 0x72, 0x69, 0x61, 0x62,
  0x6c, 0x65, 0x4f, 0x70, 0x00, 0x00, 0x00, 0x00, 0x01, 0x00, 0x00, 0x00,
  0x08, 0x00, 0x00, 0x00, 0xa2, 0xfe, 0xff, 0xff, 0x00, 0x00, 0x00, 0x01,
  0x14, 0x00, 0x00, 0x00, 0x14, 0x00, 0x00, 0x00, 0x0b, 0x00, 0x00, 0x00,
  0x00, 0x00, 0x00, 0x02, 0x30, 0x00, 0x00, 0x00, 0x28, 0xfc, 0xff, 0xff,
  0x21, 0x00, 0x00, 0x00, 0x63, 0x6f, 0x6e, 0x76, 0x5f, 0x6d, 0x6f, 0x64,
  0x65, 0x6c, 0x5f, 0x70, 0x61, 0x70, 0x65, 0x72, 0x2f, 0x66, 0x6c, 0x61,
  0x74, 0x74, 0x65, 0x6e, 0x5f, 0x31, 0x38, 0x2f, 0x43, 0x6f, 0x6e, 0x73,
  0x74, 0x00, 0x00, 0x00, 0x01, 0x00, 0x00, 0x00, 0x02, 0x00, 0x00, 0x00,
  0xf2, 0xfe, 0xff, 0xff, 0x00, 0x00, 0x00, 0x01, 0x14, 0x00, 0x00, 0x00,
  0x14, 0x00, 0x00, 0x00, 0x08, 0x00, 0x00, 0x00, 0x00, 0x00, 0x00, 0x02,
  0x3c, 0x00, 0x00, 0x00, 0x78, 0xfc, 0xff, 0xff, 0x2e, 0x00, 0x00, 0x00,
  0x63, 0x6f, 0x6e, 0x76, 0x5f, 0x6d, 0x6f, 0x64, 0x65, 0x6c, 0x5f, 0x70,
  0x61, 0x70, 0x65, 0x72, 0x2f, 0x52, 0x65, 0x73, 0x68, 0x61, 0x70, 0x65,
  0x2f, 0x73, 0x74, 0x72, 0x69, 0x64, 0x65, 0x64, 0x5f, 0x73, 0x6c, 0x69,
  0x63, 0x65, 0x2f, 0x73, 0x74, 0x61, 0x63, 0x6b, 0x5f, 0x31, 0x00, 0x00,
  0x01, 0x00, 0x00, 0x00, 0x01, 0x00, 0x00, 0x00, 0x4e, 0xff, 0xff, 0xff,
  0x00, 0x00, 0x00, 0x01, 0x14, 0x00, 0x00, 0x00, 0x14, 0x00, 0x00, 0x00,
  0x09, 0x00, 0x00, 0x00, 0x00, 0x00, 0x00, 0x02, 0x3c, 0x00, 0x00, 0x00,
  0xd4, 0xfc, 0xff, 0xff, 0x2c, 0x00, 0x00, 0x00, 0x63, 0x6f, 0x6e, 0x76,
  0x5f, 0x6d, 0x6f, 0x64, 0x65, 0x6c, 0x5f, 0x70, 0x61, 0x70, 0x65, 0x72,
  0x2f, 0x52, 0x65, 0x73, 0x68, 0x61, 0x70, 0x65, 0x2f, 0x73, 0x74, 0x72,
  0x69, 0x64, 0x65, 0x64, 0x5f, 0x73, 0x6c, 0x69, 0x63, 0x65, 0x2f, 0x73,
  0x74, 0x61, 0x63, 0x6b, 0x00, 0x00, 0x00, 0x00, 0x01, 0x00, 0x00, 0x00,
  0x01, 0x00, 0x00, 0x00, 0xaa, 0xff, 0xff, 0xff, 0x00, 0x00, 0x00, 0x01,
  0x14, 0x00, 0x00, 0x00, 0x14, 0x00, 0x00, 0x00, 0x08, 0x00, 0x00, 0x00,
  0x00, 0x00, 0x00, 0x02, 0x38, 0x00, 0x00, 0x00, 0x30, 0xfd, 0xff, 0xff,
  0x28, 0x00, 0x00, 0x00, 0x63, 0x6f, 0x6e, 0x76, 0x5f, 0x6d, 0x6f, 0x64,
  0x65, 0x6c, 0x5f, 0x70, 0x61, 0x70, 0x65, 0x72, 0x2f, 0x52, 0x65, 0x73,
  0x68, 0x61, 0x70, 0x65, 0x2f, 0x52, 0x65, 0x73, 0x68, 0x61, 0x70, 0x65,
  0x2f, 0x73, 0x68, 0x61, 0x70, 0x65, 0x2f, 0x32, 0x00, 0x00, 0x00, 0x00,
  0x00, 0x00, 0x00, 0x00, 0x00, 0x00, 0x16, 0x00, 0x1c, 0x00, 0x18, 0x00,
  0x17, 0x00, 0x10, 0x00, 0x0c, 0x00, 0x08, 0x00, 0x00, 0x00, 0x00, 0x00,
  0x00, 0x00, 0x07, 0x00, 0x16, 0x00, 0x00, 0x00, 0x00, 0x00, 0x00, 0x01,
  0x14, 0x00, 0x00, 0x00, 0x14, 0x00, 0x00, 0x00, 0x07, 0x00, 0x00, 0x00,
  0x00, 0x00, 0x00, 0x02, 0x38, 0x00, 0x00, 0x00, 0x9c, 0xfd, 0xff, 0xff,
  0x28, 0x00, 0x00, 0x00, 0x63, 0x6f, 0x6e, 0x76, 0x5f, 0x6d, 0x6f, 0x64,
  0x65, 0x6c, 0x5f, 0x70, 0x61, 0x70, 0x65, 0x72, 0x2f, 0x52, 0x65, 0x73,
  0x68, 0x61, 0x70, 0x65, 0x2f, 0x52, 0x65, 0x73, 0x68, 0x61, 0x70, 0x65,
  0x2f, 0x73, 0x68, 0x61, 0x70, 0x65, 0x2f, 0x31, 0x00, 0x00, 0x00, 0x00,
  0x00, 0x00, 0x00, 0x00, 0x86, 0xfe, 0xff, 0xff, 0x00, 0x00, 0x00, 0x01,
  0x10, 0x00, 0x00, 0x00, 0x10, 0x00, 0x00, 0x00, 0x06, 0x00, 0x00, 0x00,
  0x30, 0x00, 0x00, 0x00, 0xec, 0xfd, 0xff, 0xff, 0x21, 0x00, 0x00, 0x00,
  0x63, 0x6f, 0x6e, 0x76, 0x5f, 0x6d, 0x6f, 0x64, 0x65, 0x6c, 0x5f, 0x70,
  0x61, 0x70, 0x65, 0x72, 0x2f, 0x63, 0x6f, 0x6e, 0x76, 0x32, 0x64, 0x5f,
  0x33, 0x35, 0x2f, 0x43, 0x6f, 0x6e, 0x76, 0x32, 0x44, 0x00, 0x00, 0x00,
  0x04, 0x00, 0x00, 0x00, 0x04, 0x00, 0x00, 0x00, 0x04, 0x00, 0x00, 0x00,
  0x04, 0x00, 0x00, 0x00, 0x04, 0x00, 0x00, 0x00, 0xde, 0xfe, 0xff, 0xff,
  0x00, 0x00, 0x00, 0x01, 0x10, 0x00, 0x00, 0x00, 0x10, 0x00, 0x00, 0x00,
  0x05, 0x00, 0x00, 0x00, 0x30, 0x00, 0x00, 0x00, 0x44, 0xfe, 0xff, 0xff,
  0x21, 0x00, 0x00, 0x00, 0x63, 0x6f, 0x6e, 0x76, 0x5f, 0x6d, 0x6f, 0x64,
  0x65, 0x6c, 0x5f, 0x70, 0x61, 0x70, 0x65, 0x72, 0x2f, 0x63, 0x6f, 0x6e,
  0x76, 0x32, 0x64, 0x5f, 0x33, 0x34, 0x2f, 0x43, 0x6f, 0x6e, 0x76, 0x32,
  0x44, 0x00, 0x00, 0x00, 0x04, 0x00, 0x00, 0x00, 0x04, 0x00, 0x00, 0x00,
  0x04, 0x00, 0x00, 0x00, 0x04, 0x00, 0x00, 0x00, 0x01, 0x00, 0x00, 0x00,
  0x36, 0xff, 0xff, 0xff, 0x00, 0x00, 0x00, 0x01, 0x10, 0x00, 0x00, 0x00,
  0x10, 0x00, 0x00, 0x00, 0x04, 0x00, 0x00, 0x00, 0x50, 0x00, 0x00, 0x00,
  0x9c, 0xfe, 0xff, 0xff, 0x42, 0x00, 0x00, 0x00, 0x63, 0x6f, 0x6e, 0x76,
  0x5f, 0x6d, 0x6f, 0x64, 0x65, 0x6c, 0x5f, 0x70, 0x61, 0x70, 0x65, 0x72,
  0x2f, 0x64, 0x65, 0x6e, 0x73, 0x65, 0x5f, 0x37, 0x34, 0x2f, 0x4d, 0x61,
  0x74, 0x4d, 0x75, 0x6c, 0x3b, 0x63, 0x6f, 0x6e, 0x76, 0x5f, 0x6d, 0x6f,
  0x64, 0x65, 0x6c, 0x5f, 0x70, 0x61, 0x70, 0x65, 0x72, 0x2f, 0x64, 0x65,
  0x6e, 0x73, 0x65, 0x5f, 0x37, 0x34, 0x2f, 0x42, 0x69, 0x61, 0x73, 0x41,
  0x64, 0x64, 0x00, 0x00, 0x01, 0x00, 0x00, 0x00, 0x04, 0x00, 0x00, 0x00,
  0xa2, 0xff, 0xff, 0xff, 0x00, 0x00, 0x00, 0x01, 0x10, 0x00, 0x00, 0x00,
  0x10, 0x00, 0x00, 0x00, 0x03, 0x00, 0x00, 0x00, 0x40, 0x00, 0x00, 0x00,
  0x08, 0xff, 0xff, 0xff, 0x31, 0x00, 0x00, 0x00, 0x63, 0x6f, 0x6e, 0x76,
  0x5f, 0x6d, 0x6f, 0x64, 0x65, 0x6c, 0x5f, 0x70, 0x61, 0x70, 0x65, 0x72,
  0x2f, 0x63, 0x6f, 0x6e, 0x76, 0x32, 0x64, 0x5f, 0x33, 0x35, 0x2f, 0x42,
  0x69, 0x61, 0x73, 0x41, 0x64, 0x64, 0x2f, 0x52, 0x65, 0x61, 0x64, 0x56,
  0x61, 0x72, 0x69, 0x61, 0x62, 0x6c, 0x65, 0x4f, 0x70, 0x00, 0x00, 0x00,
  0x01, 0x00, 0x00, 0x00, 0x04, 0x00, 0x00, 0x00, 0x00, 0x00, 0x16, 0x00,
  0x18, 0x00, 0x14, 0x00, 0x00, 0x00, 0x10, 0x00, 0x0c, 0x00, 0x08, 0x00,
  0x00, 0x00, 0x00, 0x00, 0x00, 0x00, 0x07, 0x00, 0x16, 0x00, 0x00, 0x00,
  0x00, 0x00, 0x00, 0x01, 0x10, 0x00, 0x00, 0x00, 0x10, 0x00, 0x00, 0x00,
  0x02, 0x00, 0x00, 0x00, 0x40, 0x00, 0x00, 0x00, 0x7c, 0xff, 0xff, 0xff,
  0x31, 0x00, 0x00, 0x00, 0x63, 0x6f, 0x6e, 0x76, 0x5f, 0x6d, 0x6f, 0x64,
  0x65, 0x6c, 0x5f, 0x70, 0x61, 0x70, 0x65, 0x72, 0x2f, 0x63, 0x6f, 0x6e,
  0x76, 0x32, 0x64, 0x5f, 0x33, 0x34, 0x2f, 0x42, 0x69, 0x61, 0x73, 0x41,
  0x64, 0x64, 0x2f, 0x52, 0x65, 0x61, 0x64, 0x56, 0x61, 0x72, 0x69, 0x61,
  0x62, 0x6c, 0x65, 0x4f, 0x70, 0x00, 0x00, 0x00, 0x01, 0x00, 0x00, 0x00,
  0x04, 0x00, 0x00, 0x00, 0x00, 0x00, 0x16, 0x00, 0x1c, 0x00, 0x18, 0x00,
  0x00, 0x00, 0x14, 0x00, 0x10, 0x00, 0x0c, 0x00, 0x00, 0x00, 0x00, 0x00,
  0x08, 0x00, 0x07, 0x00, 0x16, 0x00, 0x00, 0x00, 0x00, 0x00, 0x00, 0x01,
  0x14, 0x00, 0x00, 0x00, 0x20, 0x00, 0x00, 0x00, 0x20, 0x00, 0x00, 0x00,
  0x01, 0x00, 0x00, 0x00, 0x3c, 0x00, 0x00, 0x00, 0x02, 0x00, 0x00, 0x00,
  0xff, 0xff, 0xff, 0xff, 0x84, 0x03, 0x00, 0x00, 0x04, 0x00, 0x04, 0x00,
  0x04, 0x00, 0x00, 0x00, 0x1f, 0x00, 0x00, 0x00, 0x73, 0x65, 0x72, 0x76,
  0x69, 0x6e, 0x67, 0x5f, 0x64, 0x65, 0x66, 0x61, 0x75, 0x6c, 0x74, 0x5f,
  0x52, 0x65, 0x73, 0x68, 0x61, 0x70, 0x65, 0x5f, 0x69, 0x6e, 0x70, 0x75,
  0x74, 0x3a, 0x30, 0x00, 0x02, 0x00, 0x00, 0x00, 0x01, 0x00, 0x00, 0x00,
  0x84, 0x03, 0x00, 0x00, 0x08, 0x00, 0x00, 0x00, 0x80, 0x00, 0x00, 0x00,
  0x64, 0x00, 0x00, 0x00, 0x54, 0x00, 0x00, 0x00, 0x44, 0x00, 0x00, 0x00,
  0x34, 0x00, 0x00, 0x00, 0x24, 0x00, 0x00, 0x00, 0x14, 0x00, 0x00, 0x00,
  0x04, 0x00, 0x00, 0x00, 0xac, 0xff, 0xff, 0xff, 0x19, 0x00, 0x00, 0x00,
  0x00, 0x00, 0x00, 0x19, 0xb8, 0xff, 0xff, 0xff, 0x09, 0x00, 0x00, 0x00,
  0x00, 0x00, 0x00, 0x09, 0xc4, 0xff, 0xff, 0xff, 0x11, 0x00, 0x00, 0x00,
  0x00, 0x00, 0x00, 0x11, 0xd0, 0xff, 0xff, 0xff, 0x03, 0x00, 0x00, 0x00,
  0x00, 0x00, 0x00, 0x03, 0xdc, 0xff, 0xff, 0xff, 0x16, 0x00, 0x00, 0x00,
  0x00, 0x00, 0x00, 0x16, 0xe8, 0xff, 0xff, 0xff, 0x53, 0x00, 0x00, 0x00,
  0x00, 0x00, 0x00, 0x53, 0xf4, 0xff, 0xff, 0xff, 0x2d, 0x00, 0x00, 0x00,
  0x00, 0x00, 0x00, 0x2d, 0x0c, 0x00, 0x0c, 0x00, 0x0b, 0x00, 0x00, 0x00,
  0x00, 0x00, 0x04, 0x00, 0x0c, 0x00, 0x00, 0x00, 0x4d, 0x00, 0x00, 0x00,
  0x00, 0x00, 0x00, 0x4d
};
