unsigned char dense_model_tflite[] = {
  0x1c, 0x00, 0x00, 0x00, 0x54, 0x46, 0x4c, 0x33, 0x14, 0x00, 0x20, 0x00,
  0x1c, 0x00, 0x18, 0x00, 0x14, 0x00, 0x10, 0x00, 0x0c, 0x00, 0x00, 0x00,
  0x08, 0x00, 0x04, 0x00, 0x14, 0x00, 0x00, 0x00, 0x1c, 0x00, 0x00, 0x00,
  0x94, 0x00, 0x00, 0x00, 0xec, 0x00, 0x00, 0x00, 0xd0, 0x28, 0x00, 0x00,
  0xe0, 0x28, 0x00, 0x00, 0xb8, 0x2e, 0x00, 0x00, 0x03, 0x00, 0x00, 0x00,
  0x01, 0x00, 0x00, 0x00, 0x10, 0x00, 0x00, 0x00, 0x00, 0x00, 0x0a, 0x00,
  0x10, 0x00, 0x0c, 0x00, 0x08, 0x00, 0x04, 0x00, 0x0a, 0x00, 0x00, 0x00,
  0x0c, 0x00, 0x00, 0x00, 0x1c, 0x00, 0x00, 0x00, 0x38, 0x00, 0x00, 0x00,
  0x0f, 0x00, 0x00, 0x00, 0x73, 0x65, 0x72, 0x76, 0x69, 0x6e, 0x67, 0x5f,
  0x64, 0x65, 0x66, 0x61, 0x75, 0x6c, 0x74, 0x00, 0x01, 0x00, 0x00, 0x00,
  0x04, 0x00, 0x00, 0x00, 0x94, 0xff, 0xff, 0xff, 0x0a, 0x00, 0x00, 0x00,
  0x04, 0x00, 0x00, 0x00, 0x07, 0x00, 0x00, 0x00, 0x64, 0x65, 0x6e, 0x73,
  0x65, 0x5f, 0x38, 0x00, 0x01, 0x00, 0x00, 0x00, 0x04, 0x00, 0x00, 0x00,
  0x12, 0xd7, 0xff, 0xff, 0x04, 0x00, 0x00, 0x00, 0x0d, 0x00, 0x00, 0x00,
  0x64, 0x65, 0x6e, 0x73, 0x65, 0x5f, 0x36, 0x5f, 0x69, 0x6e, 0x70, 0x75,
  0x74, 0x00, 0x00, 0x00, 0x02, 0x00, 0x00, 0x00, 0x34, 0x00, 0x00, 0x00,
  0x04, 0x00, 0x00, 0x00, 0xdc, 0xff, 0xff, 0xff, 0x0d, 0x00, 0x00, 0x00,
  0x04, 0x00, 0x00, 0x00, 0x13, 0x00, 0x00, 0x00, 0x43, 0x4f, 0x4e, 0x56,
  0x45, 0x52, 0x53, 0x49, 0x4f, 0x4e, 0x5f, 0x4d, 0x45, 0x54, 0x41, 0x44,
  0x41, 0x54, 0x41, 0x00, 0x08, 0x00, 0x0c, 0x00, 0x08, 0x00, 0x04, 0x00,
  0x08, 0x00, 0x00, 0x00, 0x0c, 0x00, 0x00, 0x00, 0x04, 0x00, 0x00, 0x00,
  0x13, 0x00, 0x00, 0x00, 0x6d, 0x69, 0x6e, 0x5f, 0x72, 0x75, 0x6e, 0x74,
  0x69, 0x6d, 0x65, 0x5f, 0x76, 0x65, 0x72, 0x73, 0x69, 0x6f, 0x6e, 0x00,
  0x0e, 0x00, 0x00, 0x00, 0xe0, 0x27, 0x00, 0x00, 0xd8, 0x27, 0x00, 0x00,
  0xb8, 0x27, 0x00, 0x00, 0x98, 0x27, 0x00, 0x00, 0x58, 0x27, 0x00, 0x00,
  0xc8, 0x01, 0x00, 0x00, 0xf8, 0x00, 0x00, 0x00, 0xa8, 0x00, 0x00, 0x00,
  0xa0, 0x00, 0x00, 0x00, 0x98, 0x00, 0x00, 0x00, 0x90, 0x00, 0x00, 0x00,
  0x88, 0x00, 0x00, 0x00, 0x68, 0x00, 0x00, 0x00, 0x04, 0x00, 0x00, 0x00,
  0xc6, 0xd7, 0xff, 0xff, 0x04, 0x00, 0x00, 0x00, 0x54, 0x00, 0x00, 0x00,
  0x0c, 0x00, 0x00, 0x00, 0x08, 0x00, 0x0e, 0x00, 0x08, 0x00, 0x04, 0x00,
  0x08, 0x00, 0x00, 0x00, 0x10, 0x00, 0x00, 0x00, 0x24, 0x00, 0x00, 0x00,
  0x00, 0x00, 0x06, 0x00, 0x08, 0x00, 0x04, 0x00, 0x06, 0x00, 0x00, 0x00,
  0x04, 0x00, 0x00, 0x00, 0x00, 0x00, 0x00, 0x00, 0x00, 0x00, 0x0a, 0x00,
  0x10, 0x00, 0x0c, 0x00, 0x08, 0x00, 0x04, 0x00, 0x0a, 0x00, 0x00, 0x00,
  0x02, 0x00, 0x00, 0x00, 0x02, 0x00, 0x00, 0x00, 0x04, 0x00, 0x00, 0x00,
  0x06, 0x00, 0x00, 0x00, 0x32, 0x2e, 0x31, 0x31, 0x2e, 0x30, 0x00, 0x00,
  0x26, 0xd8, 0xff, 0xff, 0x04, 0x00, 0x00, 0x00, 0x10, 0x00, 0x00, 0x00,
  0x31, 0x2e, 0x35, 0x2e, 0x30, 0x00, 0x00, 0x00, 0x00, 0x00, 0x00, 0x00,
  0x00, 0x00, 0x00, 0x00, 0x18, 0xd3, 0xff, 0xff, 0x1c, 0xd3, 0xff, 0xff,
  0x20, 0xd3, 0xff, 0xff, 0x24, 0xd3, 0xff, 0xff, 0x52, 0xd8, 0xff, 0xff,
  0x04, 0x00, 0x00, 0x00, 0x40, 0x00, 0x00, 0x00, 0x8b, 0x67, 0xe4, 0x3e,
  0x55, 0x87, 0xf6, 0x3d, 0xf1, 0x9c, 0xd3, 0x3f, 0xb3, 0x6a, 0x0e, 0xc0,
  0x7f, 0x6b, 0x11, 0x3f, 0x32, 0xdd, 0xbc, 0x3f, 0x80, 0xbb, 0xe4, 0xbf,
  0x06, 0x78, 0x9d, 0xbf, 0x76, 0x2a, 0xc0, 0x3f, 0x5d, 0x26, 0xe0, 0xbf,
  0xbe, 0x14, 0xeb, 0xbe, 0x5b, 0xaa, 0x37, 0x3f, 0x3b, 0xba, 0xd0, 0xbf,
  0xbe, 0x7b, 0xfc, 0x3b, 0x7d, 0xe0, 0x4f, 0xbf, 0x6d, 0x59, 0x8b, 0x3f,
  0x9e, 0xd8, 0xff, 0xff, 0x04, 0x00, 0x00, 0x00, 0xc0, 0x00, 0x00, 0x00,
  0x0c, 0x08, 0x38, 0xbf, 0x5c, 0x4a, 0xd2, 0x3e, 0x6a, 0xed, 0xd5, 0xbe,
  0x0b, 0x4a, 0x2c, 0xbe, 0xcb, 0xf2, 0xa8, 0x3f, 0x2f, 0x69, 0x0c, 0xbf,
  0x68, 0xa4, 0x08, 0xbe, 0x00, 0x0f, 0xab, 0xbe, 0xbb, 0x57, 0x79, 0x3e,
  0xf1, 0xbd, 0xc6, 0x3e, 0x67, 0x94, 0xa7, 0xbc, 0x67, 0x4c, 0x18, 0x3e,
  0x18, 0x33, 0x53, 0x3f, 0x9e, 0x18, 0xab, 0x3e, 0x01, 0xcd, 0x9d, 0x3f,
  0x9d, 0x9d, 0x84, 0xbf, 0xf0, 0x2b, 0x42, 0x3d, 0xd5, 0xfb, 0x2d, 0x3f,
  0x9f, 0x74, 0x74, 0x3f, 0x2c, 0xb8, 0xe9, 0x3e, 0x34, 0xb4, 0x1c, 0xbf,
  0x51, 0x09, 0x9a, 0x3f, 0x6f, 0x16, 0x22, 0x3f, 0x6a, 0x7b, 0x27, 0xbf,
  0x7b, 0x93, 0x0e, 0x3f, 0x61, 0xbe, 0xcc, 0xbf, 0xca, 0xc6, 0x81, 0x3e,
  0x89, 0x38, 0xb7, 0xbe, 0xeb, 0x27, 0x9e, 0x3f, 0xfc, 0xa9, 0xb2, 0xbf,
  0x2e, 0xc0, 0x03, 0xbf, 0x65, 0x7b, 0xbe, 0xbf, 0xee, 0xc7, 0x96, 0xbe,
  0xc6, 0x3e, 0xcf, 0xbf, 0x65, 0x78, 0x30, 0x3f, 0xf7, 0x66, 0x9b, 0xbf,
  0x8a, 0xb7, 0x90, 0x3e, 0x31, 0x71, 0x08, 0x3f, 0x8d, 0xd6, 0x4f, 0xbe,
  0x7a, 0xb8, 0x09, 0x40, 0x84, 0xe7, 0xae, 0xbe, 0x2b, 0x15, 0x47, 0x3f,
  0x19, 0xd7, 0x45, 0x3f, 0x7c, 0x77, 0x88, 0x3f, 0x3c, 0xf3, 0xf0, 0x3f,
  0x66, 0xb3, 0x22, 0x3f, 0x0f, 0x64, 0xbd, 0x3d, 0x96, 0xad, 0xf3, 0x3f,
  0x6a, 0xd9, 0xff, 0xff, 0x04, 0x00, 0x00, 0x00, 0x80, 0x25, 0x00, 0x00,
  0xa3, 0xa7, 0x40, 0xbe, 0x13, 0x22, 0xd1, 0x3d, 0x28, 0x2b, 0x16, 0x3e,
  0x8e, 0x66, 0x0d, 0x3e, 0x73, 0x7b, 0xc1, 0x3c, 0xe1, 0xd2, 0x23, 0xbd,
  0x3b, 0xc1, 0xcd, 0x3d, 0x14, 0x1d, 0x5d, 0x3d, 0x56, 0xa8, 0x1c, 0x3e,
  0x70, 0x80, 0xa3, 0xbd, 0x5a, 0xe0, 0xdd, 0x3b, 0x64, 0x62, 0x15, 0x3d,
  0xa6, 0xff, 0x29, 0x3d, 0x14, 0x17, 0x56, 0x3e, 0x21, 0x5f, 0x90, 0x3e,
  0x96, 0xbb, 0x36, 0x3d, 0xf4, 0x12, 0x9f, 0x3d, 0xf7, 0xbb, 0xb8, 0x3e,
  0x2f, 0xca, 0xd6, 0x3e, 0xd9, 0x2e, 0x5e, 0x3e, 0xd2, 0x0b, 0xdf, 0x3e,
  0x39, 0xf1, 0xd7, 0x3e, 0xc8, 0xcd, 0xc2, 0x3e, 0x71, 0xda, 0x3d, 0x3e,
  0x67, 0xe8, 0x8c, 0x3e, 0x45, 0x4d, 0xc5, 0x3e, 0x76, 0x75, 0xdb, 0x3e,
  0xed, 0xcc, 0xf3, 0x3e, 0xd7, 0x75, 0x0e, 0x3f, 0xdf, 0x36, 0x29, 0x3f,
  0xde, 0x65, 0xfb, 0x3e, 0x8e, 0x64, 0xd7, 0x3e, 0x83, 0x96, 0x0d, 0x3f,
  0x75, 0x26, 0xb7, 0x3e, 0xa9, 0x52, 0x99, 0x3e, 0x9d, 0x86, 0xe3, 0x3e,
  0xaa, 0x35, 0x16, 0x3f, 0xf3, 0xc0, 0x93, 0x3e, 0x38, 0xa5, 0xcf, 0x3e,
  0x87, 0xe4, 0x59, 0x3e, 0x0e, 0x05, 0x5f, 0x3e, 0x8f, 0x2c, 0xe4, 0x3e,
  0x39, 0x5c, 0x92, 0x3e, 0xb0, 0x97, 0x8e, 0x3e, 0xf7, 0xdb, 0x8c, 0x3e,
  0xb7, 0x06, 0x7e, 0x3e, 0xbf, 0xbf, 0xae, 0x3c, 0x52, 0xeb, 0x4e, 0x3e,
  0x29, 0x73, 0x19, 0x3e, 0x9d, 0x07, 0xc8, 0x3d, 0x21, 0x06, 0x94, 0xbc,
  0xda, 0x23, 0x1a, 0xbe, 0x10, 0xba, 0x37, 0xbe, 0x99, 0xd6, 0x4f, 0xbe,
  0xe0, 0xbd, 0x1f, 0xbe, 0x73, 0x7f, 0x56, 0xbc, 0xba, 0xbf, 0xff, 0xbd,
  0x2f, 0x3e, 0x9a, 0x3d, 0xb7, 0x6c, 0x4d, 0xbe, 0x62, 0xd7, 0xc8, 0x3d,
  0x57, 0x59, 0xa0, 0xbd, 0x34, 0xeb, 0x99, 0xbd, 0x9e, 0x41, 0x00, 0xbe,
  0x24, 0xb2, 0x86, 0xbe, 0x9f, 0x6f, 0xec, 0xbe, 0x36, 0xe3, 0xb5, 0xbe,
  0xcd, 0x8f, 0xdb, 0xbe, 0xfe, 0x72, 0x04, 0xbf, 0x55, 0x34, 0x4a, 0xbe,
  0x3a, 0x00, 0xc1, 0xbe, 0x5b, 0x11, 0xd8, 0xbe, 0xca, 0x08, 0xa6, 0xbe,
  0x42, 0x2a, 0xf9, 0xbe, 0xf0, 0x06, 0xd5, 0xbd, 0x13, 0x8f, 0x58, 0xbe,
  0x09, 0x52, 0x30, 0xbe, 0xe7, 0x8f, 0xde, 0xbd, 0xf5, 0x3a, 0x80, 0xbe,
  0xb7, 0x70, 0x62, 0xbe, 0xa4, 0x39, 0x9e, 0xbe, 0xfa, 0x8e, 0x1c, 0xbd,
  0xa4, 0x7e, 0xfc, 0xbd, 0x86, 0x0f, 0x05, 0xbe, 0x05, 0x4c, 0x1d, 0xbe,
  0x25, 0xa1, 0xaa, 0x3d, 0xde, 0xb3, 0x73, 0x3e, 0x01, 0x93, 0x4e, 0x3e,
  0xca, 0xf9, 0xb8, 0x3e, 0x2a, 0x49, 0x18, 0x3f, 0x41, 0x52, 0xd9, 0x3e,
  0x83, 0x77, 0x8a, 0x3e, 0xda, 0xe8, 0x28, 0x3f, 0x09, 0x15, 0x23, 0x3f,
  0x8c, 0x5b, 0xc5, 0x3e, 0xcc, 0x87, 0x27, 0x3f, 0xb5, 0xd5, 0xdc, 0x3e,
  0x59, 0xc5, 0xe8, 0x3e, 0x84, 0xad, 0x85, 0x3e, 0xc0, 0x1d, 0x6e, 0x3e,
  0xcf, 0x8a, 0x11, 0x3f, 0x3f, 0xf9, 0x37, 0x3f, 0x79, 0xa2, 0x24, 0x3d,
  0x41, 0x9f, 0x15, 0x3c, 0xb6, 0x0d, 0x66, 0xbd, 0x64, 0xf6, 0x39, 0x3c,
  0xb0, 0x10, 0x2c, 0x3d, 0xfc, 0x44, 0x85, 0x3e, 0x6b, 0xed, 0x10, 0x3e,
  0x57, 0xe7, 0xab, 0x3a, 0xdb, 0x8a, 0xa3, 0xbd, 0x37, 0xff, 0x77, 0x3d,
  0xc4, 0xd8, 0x81, 0x3d, 0xc7, 0x56, 0x1d, 0x3e, 0x87, 0x36, 0x3d, 0xbd,
  0x8c, 0x4c, 0x1d, 0x3e, 0xdf, 0xcc, 0xc3, 0x3d, 0x5a, 0xa6, 0x73, 0x3d,
  0x24, 0x6e, 0x7a, 0x3c, 0x0e, 0xf0, 0x06, 0xbe, 0x69, 0x37, 0xf5, 0x3d,
  0x8d, 0xbf, 0x37, 0x3d, 0xa5, 0x31, 0x47, 0x3e, 0xe5, 0xf1, 0x4e, 0x3d,
  0x0b, 0xa0, 0x8b, 0x3e, 0x3d, 0xd8, 0x35, 0xbc, 0x52, 0x2f, 0xaa, 0x3d,
  0x3a, 0x80, 0x8e, 0x3d, 0x13, 0xfc, 0x9a, 0x3e, 0x6c, 0xcf, 0x9a, 0xbc,
  0xa5, 0xa3, 0x17, 0x3d, 0x60, 0x56, 0xad, 0x3c, 0xcf, 0xe3, 0x91, 0x3e,
  0xb6, 0xa4, 0xaa, 0xbd, 0xd3, 0xb2, 0x0d, 0x3e, 0x84, 0x20, 0x5f, 0xbd,
  0x2d, 0xdf, 0xd6, 0x3d, 0xf0, 0xd1, 0x1d, 0x3e, 0xb5, 0x3b, 0xa5, 0x3e,
  0xfd, 0xc3, 0x8d, 0x3d, 0x3f, 0xce, 0x85, 0x3e, 0xaf, 0x44, 0x10, 0xbd,
  0xce, 0xc5, 0x60, 0x3d, 0x11, 0xd7, 0x06, 0x3d, 0x3a, 0xbb, 0xa1, 0xbd,
  0x4a, 0xf6, 0xaa, 0x3d, 0x75, 0xba, 0xfc, 0x3b, 0x2b, 0x04, 0x82, 0x3d,
  0x2e, 0xcd, 0xca, 0xbd, 0x3d, 0xc5, 0x12, 0x3e, 0x18, 0xb1, 0x9b, 0xbd,
  0x5b, 0x73, 0x3c, 0xbe, 0x04, 0x5d, 0x85, 0x3d, 0xd9, 0x4f, 0x07, 0x3e,
  0x74, 0xc7, 0x87, 0xbb, 0xfe, 0xb0, 0x10, 0x3e, 0x14, 0x83, 0xc8, 0xbc,
  0x0e, 0x53, 0xfc, 0x3d, 0x1b, 0xeb, 0x9b, 0xbd, 0x3d, 0x53, 0x35, 0x3e,
  0xa9, 0xf3, 0xcb, 0xba, 0x0f, 0x61, 0xd2, 0xbd, 0x54, 0x53, 0xca, 0xbc,
  0x06, 0xca, 0x4e, 0x3d, 0x9c, 0x93, 0xbe, 0x3c, 0x52, 0x4a, 0xca, 0xbd,
  0xa2, 0x28, 0x71, 0xbe, 0x15, 0x6f, 0x7a, 0xbd, 0x72, 0x5b, 0x5f, 0xbe,
  0x8a, 0x6a, 0xa5, 0xbd, 0x27, 0x3c, 0x58, 0xbd, 0x83, 0xd0, 0x4c, 0xbe,
  0x68, 0x9a, 0xb4, 0xbe, 0x88, 0x52, 0xc1, 0xbe, 0x2b, 0xc1, 0x25, 0xbe,
  0xe3, 0xa8, 0x9b, 0xbe, 0x56, 0x11, 0x92, 0xbd, 0xa1, 0x6a, 0x14, 0xbe,
  0xb9, 0x55, 0xa0, 0xbd, 0xe4, 0xca, 0x60, 0xbe, 0xd0, 0xbd, 0x8a, 0x3c,
  0x43, 0x54, 0x94, 0xbd, 0x7a, 0x5a, 0xdd, 0xbd, 0x2d, 0x30, 0xde, 0x3d,
  0xa8, 0x48, 0xa2, 0xbd, 0xe3, 0x35, 0xe4, 0x3d, 0xe9, 0x1c, 0x20, 0x3d,
  0x6f, 0xf0, 0x49, 0xbe, 0xc0, 0xa8, 0xd3, 0x3a, 0xa4, 0xbe, 0xcc, 0x3d,
  0xd8, 0x26, 0x58, 0x3e, 0xa4, 0x5f, 0x2d, 0x3e, 0xe4, 0xcf, 0xd3, 0x3e,
  0xe9, 0x5a, 0x00, 0x3f, 0x06, 0x4d, 0x28, 0x3e, 0x6b, 0xa6, 0x5b, 0x3e,
  0x1b, 0xd3, 0x61, 0x3e, 0x2a, 0xc8, 0x82, 0x3d, 0xf5, 0x6f, 0xd4, 0x3e,
  0x02, 0xfb, 0x26, 0x3d, 0xd2, 0x2a, 0xd5, 0x3d, 0x25, 0xbd, 0x8b, 0xbd,
  0xea, 0x01, 0x90, 0xbd, 0xcd, 0xa6, 0x23, 0x3d, 0x81, 0x91, 0x0c, 0x3e,
  0x19, 0x1f, 0xb2, 0xbd, 0xf0, 0x44, 0x3d, 0x3d, 0xeb, 0x2b, 0x0a, 0x3e,
  0xa9, 0xdc, 0x36, 0xbe, 0x5d, 0x5b, 0x58, 0xbd, 0x31, 0x24, 0x2d, 0xbc,
  0x7f, 0x71, 0x68, 0xbc, 0xc0, 0xe6, 0xb7, 0xbd, 0xc4, 0xb7, 0x69, 0xbc,
  0x4e, 0x06, 0x70, 0xbd, 0xa4, 0x8d, 0xe1, 0x3d, 0x63, 0xdb, 0xb6, 0xbd,
  0xa9, 0xb9, 0x62, 0x3e, 0xbd, 0xd9, 0x01, 0x3e, 0x9a, 0x42, 0x45, 0x3e,
  0xec, 0x51, 0xc2, 0x3b, 0x50, 0x00, 0x69, 0x3e, 0xfe, 0xd3, 0xf1, 0x3d,
  0xc6, 0xaf, 0xc5, 0x3e, 0x1a, 0x08, 0x46, 0x3e, 0x7a, 0x29, 0x0f, 0x3e,
  0x25, 0x82, 0x97, 0x3e, 0x16, 0xd2, 0xca, 0x3e, 0x37, 0xdb, 0xae, 0x3e,
  0xfa, 0x04, 0x2b, 0x3e, 0x9b, 0x40, 0xcc, 0x3e, 0xd8, 0xc4, 0xa1, 0x3e,
  0xe4, 0x80, 0x91, 0x3e, 0x8e, 0x6f, 0xd0, 0x3e, 0x59, 0xdb, 0x54, 0x3e,
  0x8d, 0x68, 0x1d, 0x3e, 0x9c, 0x0e, 0x97, 0x3e, 0xd8, 0xda, 0x8f, 0x3e,
  0x42, 0x6c, 0x98, 0x3e, 0x71, 0xf4, 0x7a, 0x3e, 0xc1, 0x7e, 0xd5, 0x3d,
  0xe6, 0x65, 0x50, 0x3d, 0xcb, 0x92, 0x8c, 0x3e, 0x90, 0x88, 0x7f, 0x3e,
  0xdc, 0xe9, 0x96, 0x3d, 0x93, 0x27, 0x67, 0x3e, 0xc3, 0xc7, 0x1f, 0xbd,
  0x8d, 0x98, 0x0b, 0x3e, 0xfd, 0xdd, 0x7f, 0x3e, 0x81, 0xb7, 0x32, 0x3e,
  0x80, 0x33, 0xa7, 0x3e, 0x50, 0x85, 0x9a, 0x3e, 0x70, 0x71, 0x1e, 0x3d,
  0xea, 0x05, 0x77, 0x3e, 0x2e, 0x93, 0x84, 0x3e, 0x78, 0x58, 0x03, 0x3d,
  0x6f, 0x15, 0x1e, 0x3e, 0x49, 0xe0, 0x56, 0x3e, 0x93, 0x02, 0x37, 0x3d,
  0xc9, 0x22, 0xd0, 0xbc, 0x61, 0xf8, 0xa3, 0xbd, 0xe7, 0xc6, 0x45, 0xbe,
  0xab, 0xfa, 0x86, 0x3d, 0xab, 0x3e, 0x51, 0xbc, 0xf9, 0x69, 0x38, 0x3c,
  0xf0, 0x52, 0x5f, 0x3d, 0x2d, 0xa3, 0x6f, 0x3c, 0x82, 0x9e, 0x41, 0x3e,
  0x6c, 0x6e, 0x4d, 0x3d, 0x63, 0x5d, 0x43, 0xbd, 0xd0, 0xb1, 0x81, 0x3d,
  0xe9, 0x46, 0xdb, 0x3d, 0xcd, 0x09, 0xe8, 0x3d, 0xf1, 0xfb, 0x3d, 0x3e,
  0x3c, 0x58, 0xff, 0xbc, 0x00, 0xcb, 0xda, 0x3d, 0xe3, 0xd2, 0x1e, 0x3c,
  0x76, 0xbc, 0x6d, 0xbd, 0x5d, 0x59, 0x78, 0x3d, 0x1f, 0x7e, 0x9f, 0x3d,
  0xc5, 0x97, 0xe8, 0x3e, 0xbe, 0xa6, 0x63, 0x3e, 0x1a, 0x79, 0xd1, 0x3e,
  0xad, 0xd8, 0x26, 0x3e, 0x11, 0xe4, 0x8f, 0x3e, 0xa1, 0xa2, 0xbc, 0x3e,
  0x45, 0xc1, 0x9f, 0x3e, 0xeb, 0xea, 0x88, 0x3e, 0xd9, 0xde, 0x62, 0x3d,
  0xba, 0x9a, 0x48, 0x3e, 0x88, 0x5b, 0x80, 0x3e, 0xfb, 0x2e, 0x31, 0x3e,
  0xf3, 0xd6, 0xf8, 0x3d, 0x93, 0xe8, 0x8c, 0x3e, 0xf0, 0x13, 0x8e, 0x3e,
  0x64, 0x50, 0x12, 0x3e, 0xd6, 0x6a, 0xda, 0x3d, 0xe0, 0x25, 0x46, 0x3d,
  0x2e, 0xfd, 0xb7, 0xbd, 0x2d, 0x77, 0x1b, 0x3d, 0x06, 0xf6, 0x92, 0xbc,
  0xe6, 0xda, 0x81, 0xbd, 0xde, 0x77, 0xff, 0x3e, 0x54, 0x7a, 0x09, 0x3f,
  0x1a, 0x9f, 0xd3, 0x3e, 0x0c, 0x63, 0x94, 0x3e, 0xe5, 0x47, 0x84, 0xbe,
  0xa8, 0x65, 0xc4, 0xbc, 0x6d, 0xb4, 0x1e, 0x3e, 0x83, 0x5e, 0x66, 0x3e,
  0x0f, 0x7e, 0xc8, 0xbc, 0x0b, 0x2f, 0x92, 0x3d, 0xa4, 0x84, 0x60, 0x3c,
  0xbc, 0x96, 0x54, 0xbd, 0xc9, 0x67, 0xa5, 0xbe, 0x3d, 0xa5, 0x03, 0xbf,
  0xc0, 0x20, 0xd4, 0xbe, 0xcd, 0x58, 0xb3, 0xbe, 0xe4, 0x93, 0x93, 0xbd,
  0x7e, 0x80, 0x65, 0xbe, 0xd2, 0xd2, 0x24, 0xbe, 0x98, 0x77, 0x65, 0xbe,
  0xdb, 0xf5, 0x10, 0xbf, 0xc9, 0xfb, 0x52, 0xbf, 0x00, 0xca, 0x11, 0xbf,
  0xb1, 0xb2, 0x16, 0xbf, 0x24, 0xe5, 0xa0, 0xbe, 0x31, 0xac, 0xbd, 0xbe,
  0x71, 0x00, 0xf0, 0xbe, 0xd8, 0x86, 0x21, 0xbf, 0xab, 0x38, 0x7d, 0xbf,
  0xd4, 0x7e, 0x8e, 0xbf, 0x3c, 0x91, 0x72, 0xbf, 0xa0, 0xdd, 0x51, 0xbf,
  0xbe, 0xeb, 0x3d, 0xbf, 0x15, 0xd9, 0xb2, 0xbe, 0xe1, 0xcb, 0xe4, 0xbe,
  0xa1, 0x54, 0x94, 0xbf, 0x1f, 0xa1, 0x92, 0xbf, 0x98, 0x1e, 0x90, 0xbf,
  0x49, 0xc8, 0x65, 0xbf, 0x39, 0x95, 0x50, 0xbf, 0xc2, 0x29, 0x08, 0xbf,
  0x8c, 0xf5, 0xd9, 0xbe, 0xbb, 0x67, 0xed, 0xbe, 0xa3, 0x0d, 0xf0, 0xbe,
  0x8d, 0x09, 0x23, 0xbf, 0x58, 0xfd, 0x40, 0xbf, 0x2d, 0xfa, 0xdd, 0xbe,
  0xa7, 0x12, 0x3c, 0xbf, 0x6a, 0x8b, 0xde, 0xbe, 0x43, 0xf6, 0x22, 0xbe,
  0x7f, 0xdb, 0x2f, 0xbe, 0xdb, 0x00, 0x1d, 0xbf, 0x3f, 0x97, 0xb7, 0xbe,
  0xdc, 0x4e, 0xc0, 0xbe, 0x96, 0xe5, 0x02, 0xbf, 0xa8, 0xc2, 0xae, 0xbe,
  0x4d, 0x1d, 0x9d, 0xbe, 0x1d, 0xb4, 0x8d, 0xbe, 0xc2, 0xf8, 0x88, 0x3d,
  0x72, 0x42, 0x10, 0xbe, 0x07, 0xb7, 0x90, 0xbe, 0xa6, 0xf4, 0x84, 0xbe,
  0x1b, 0x96, 0x10, 0xbf, 0xb6, 0x08, 0x5b, 0xbe, 0x77, 0x49, 0x44, 0xbe,
  0xb4, 0x43, 0x2c, 0x3e, 0x3c, 0x4b, 0xac, 0x3d, 0xc4, 0x4b, 0x3a, 0x3d,
  0xb4, 0x52, 0xa6, 0x3b, 0xcb, 0xd4, 0x2a, 0xbe, 0x4a, 0xf1, 0xfc, 0xbd,
  0x0a, 0x7e, 0x9b, 0xbe, 0x4f, 0x1a, 0x39, 0xbd, 0xb9, 0x2e, 0xb4, 0x3d,
  0x75, 0x50, 0xac, 0x3d, 0x69, 0xbe, 0x20, 0x3d, 0xd6, 0x7a, 0xe3, 0xbd,
  0x18, 0x7b, 0x21, 0x3d, 0x35, 0x8e, 0x97, 0x3d, 0x13, 0x85, 0x1b, 0x3e,
  0xb2, 0xd5, 0x41, 0x3e, 0x8d, 0x05, 0x97, 0x3e, 0x33, 0xb6, 0xcb, 0xbb,
  0xec, 0xd2, 0x63, 0x3d, 0x30, 0x24, 0xbf, 0x3e, 0x88, 0x75, 0xb1, 0x3e,
  0xc8, 0x7a, 0x02, 0x3f, 0x45, 0x0a, 0x88, 0x3e, 0x6d, 0x37, 0x0b, 0x3f,
  0x18, 0xd1, 0x8f, 0x3e, 0x53, 0x54, 0x81, 0x3e, 0x96, 0xb9, 0xae, 0x3d,
  0x3d, 0x37, 0x5a, 0x3e, 0xa2, 0x7a, 0x0c, 0x3e, 0xc1, 0x3c, 0xbc, 0x3e,
  0xeb, 0xa3, 0xbf, 0x3e, 0x79, 0x93, 0xb4, 0x3e, 0x74, 0x7e, 0xd6, 0x3e,
  0x11, 0x36, 0x06, 0x3f, 0x36, 0x32, 0x4c, 0x3b, 0x01, 0x7b, 0xe3, 0x3d,
  0x12, 0xab, 0x8b, 0x3c, 0x26, 0x4f, 0x03, 0x3e, 0x55, 0x56, 0x37, 0x3e,
  0x0d, 0xc0, 0x06, 0xbd, 0x1a, 0xae, 0x96, 0xbd, 0x68, 0xab, 0x11, 0xbe,
  0x5a, 0xc5, 0xfa, 0x3c, 0x75, 0xcd, 0x2f, 0xbe, 0x37, 0x4b, 0xc0, 0x3d,
  0xcc, 0x97, 0xd9, 0x3d, 0x98, 0xb0, 0x01, 0x3e, 0x38, 0xc2, 0xae, 0xbd,
  0x90, 0x3a, 0x31, 0xbe, 0x22, 0x31, 0x39, 0xbc, 0xd8, 0x0a, 0xac, 0xbd,
  0xa7, 0x2d, 0x9d, 0xbe, 0x71, 0x96, 0x7c, 0xbe, 0x29, 0x3c, 0x4f, 0xbe,
  0x01, 0x3d, 0x3c, 0xbb, 0x5f, 0x8a, 0xb9, 0xbd, 0x75, 0x82, 0xc5, 0xbb,
  0xd3, 0x95, 0xe1, 0xbd, 0xb4, 0xef, 0xdc, 0x3b, 0xe0, 0xf3, 0x92, 0xbe,
  0x3e, 0xb2, 0xc5, 0xbc, 0xde, 0x67, 0x01, 0xbe, 0x89, 0xd4, 0x29, 0xbe,
  0xaf, 0x78, 0xff, 0xbb, 0xb4, 0xae, 0x4f, 0xbe, 0x98, 0x9c, 0xf8, 0xbe,
  0xae, 0x46, 0xdb, 0xbe, 0x73, 0xd6, 0xf9, 0xbe, 0xab, 0xd3, 0xbe, 0xbe,
  0x96, 0x3f, 0xc9, 0xbe, 0x46, 0x61, 0x80, 0xbe, 0x42, 0x82, 0x0a, 0xbf,
  0x70, 0xd6, 0xe1, 0xbe, 0xda, 0xba, 0x0f, 0xbf, 0x51, 0x8c, 0xe0, 0xbe,
  0xa1, 0x8a, 0x06, 0xbf, 0x91, 0xca, 0x75, 0xbe, 0x43, 0x4a, 0xbe, 0xbe,
  0x50, 0x08, 0x02, 0xbf, 0xd0, 0x1b, 0x91, 0xbe, 0x88, 0xa3, 0x94, 0xbe,
  0xac, 0x40, 0x6f, 0xbe, 0xdb, 0x5b, 0x3e, 0xbe, 0x49, 0xc1, 0x66, 0xbd,
  0x54, 0xb0, 0x71, 0xbd, 0x37, 0xa1, 0x49, 0xbe, 0x5a, 0x1e, 0xf0, 0xbb,
  0x9a, 0x51, 0x93, 0x3d, 0x64, 0xae, 0x44, 0xbd, 0x28, 0x8d, 0xe6, 0x3d,
  0xaf, 0xa3, 0xe4, 0xbd, 0xfc, 0xcf, 0x6d, 0xbd, 0x3f, 0xd0, 0x33, 0xbd,
  0x35, 0x34, 0x02, 0x3e, 0xee, 0x8f, 0x66, 0x3e, 0xa3, 0x6a, 0x93, 0x3e,
  0x2a, 0x56, 0x55, 0x3e, 0xdd, 0x85, 0x1f, 0x3e, 0xce, 0x41, 0x09, 0x3e,
  0x43, 0xa7, 0xc8, 0xbd, 0xb0, 0xa2, 0xa4, 0xbd, 0xc9, 0xfb, 0x69, 0x3e,
  0xab, 0x02, 0x9a, 0x3e, 0x3d, 0xa2, 0x60, 0x3b, 0xb7, 0x52, 0x20, 0x3e,
  0x89, 0xe0, 0x46, 0x3d, 0x41, 0xc0, 0x95, 0x3e, 0x87, 0x81, 0xd3, 0x3e,
  0x48, 0xac, 0x86, 0x3e, 0x0e, 0x3b, 0xa2, 0x3e, 0x35, 0x48, 0x61, 0x3d,
  0xa4, 0x63, 0xb2, 0x3e, 0x50, 0x6e, 0x9f, 0x3e, 0x81, 0x7a, 0xa2, 0x3e,
  0xc5, 0xcf, 0x4e, 0x3e, 0x4e, 0x67, 0xc4, 0x3e, 0x32, 0xe4, 0x3b, 0x3e,
  0x4b, 0xba, 0xc7, 0x3c, 0x06, 0xf8, 0x45, 0x3e, 0x6f, 0xd7, 0x53, 0x3e,
  0x11, 0x74, 0xe2, 0x3e, 0xd9, 0x29, 0xe0, 0x3e, 0x63, 0x6c, 0xa3, 0x3e,
  0xb1, 0xd3, 0xb6, 0x3e, 0xd8, 0x25, 0x51, 0x3e, 0x67, 0x62, 0xdf, 0x3e,
  0x40, 0xc3, 0x96, 0x3e, 0x9b, 0x26, 0x11, 0x3f, 0x75, 0x2b, 0x0b, 0x3f,
  0xcc, 0xfc, 0x1c, 0x3f, 0x96, 0x87, 0x12, 0x3f, 0x9e, 0x98, 0x22, 0x3f,
  0x5c, 0x77, 0x5e, 0x3f, 0x8f, 0x25, 0x2f, 0x3f, 0xca, 0x8b, 0x02, 0x3f,
  0xec, 0xbc, 0xdc, 0x3e, 0x8f, 0x87, 0xd6, 0x3d, 0xb2, 0x28, 0x18, 0x3e,
  0x1c, 0x51, 0x9d, 0x3e, 0xe7, 0xce, 0x0d, 0x3e, 0xa2, 0x86, 0x0c, 0x3e,
  0xab, 0x71, 0x82, 0x3e, 0xd1, 0xd2, 0x81, 0x3e, 0x85, 0xf6, 0x5b, 0x3c,
  0xb6, 0x23, 0xe6, 0xbd, 0xb3, 0x45, 0x85, 0x3d, 0x94, 0x00, 0xea, 0xbc,
  0xa2, 0xf7, 0x22, 0x3e, 0x40, 0x5f, 0x02, 0x3e, 0xc3, 0x43, 0x5b, 0x3e,
  0xaa, 0x03, 0x7f, 0x3e, 0x67, 0xb2, 0x90, 0xbd, 0xf0, 0x35, 0xa4, 0xbc,
  0x36, 0x33, 0x24, 0xbe, 0xd1, 0x5f, 0x86, 0xbd, 0x99, 0x2c, 0x07, 0xbe,
  0x75, 0x42, 0xcf, 0x3d, 0x7e, 0xbd, 0x94, 0xbd, 0x9f, 0x2d, 0x33, 0x3e,
  0xed, 0x3d, 0x46, 0x3d, 0x94, 0x61, 0x24, 0x3c, 0xb4, 0xa3, 0xd6, 0xbd,
  0x7a, 0x3d, 0x8d, 0x3d, 0x0f, 0xc5, 0x33, 0xbe, 0x09, 0x1b, 0x15, 0xbd,
  0x54, 0x9d, 0x8b, 0x3d, 0xd6, 0xed, 0x56, 0xb9, 0x4d, 0x03, 0x68, 0xbe,
  0x3a, 0x5b, 0x5f, 0xbe, 0x5e, 0x0c, 0xee, 0x3d, 0xd1, 0xe4, 0x8c, 0x3d,
  0xb9, 0xb3, 0x32, 0xbd, 0xd3, 0x5e, 0x3b, 0xbe, 0xb3, 0x94, 0xe0, 0x3c,
  0x87, 0x1a, 0x50, 0xbe, 0xd5, 0x4b, 0x48, 0xbe, 0x9e, 0xcf, 0xf2, 0xbd,
  0xaf, 0xc1, 0x5b, 0xbe, 0xf7, 0x64, 0xef, 0xbd, 0xf8, 0x29, 0x28, 0xbe,
  0x31, 0xdd, 0xf1, 0xbd, 0x78, 0x46, 0x91, 0xbe, 0x68, 0x43, 0x1c, 0xbd,
  0x40, 0x80, 0x80, 0xbe, 0xbb, 0x8a, 0x77, 0xbe, 0x42, 0xcd, 0x2b, 0xbe,
  0xed, 0x05, 0x84, 0x3e, 0x94, 0xf3, 0xca, 0x3d, 0x3a, 0xa6, 0x7b, 0x3e,
  0x4e, 0xa3, 0x06, 0x3e, 0x68, 0x69, 0xec, 0x3d, 0xf0, 0x3a, 0x29, 0x3e,
  0x6e, 0xd3, 0x0c, 0x3e, 0x48, 0x49, 0x8f, 0xbd, 0xea, 0x49, 0x67, 0x3e,
  0xe6, 0x82, 0x56, 0x3d, 0x6f, 0x29, 0xe4, 0x3d, 0x46, 0x4a, 0xae, 0x3e,
  0x30, 0x15, 0xd1, 0x3d, 0x4b, 0x2a, 0xc6, 0xbd, 0x47, 0x4c, 0xc6, 0x3d,
  0x03, 0x22, 0x60, 0x3e, 0xdf, 0xd7, 0x8f, 0xbd, 0x37, 0x78, 0x59, 0x3e,
  0x2e, 0x8d, 0x54, 0x3e, 0x6a, 0x38, 0xb3, 0x3d, 0x31, 0x2c, 0x1d, 0x3d,
  0x44, 0xcf, 0x80, 0x3e, 0x35, 0x3d, 0x83, 0x3e, 0x08, 0x27, 0x30, 0x3d,
  0x12, 0x76, 0x69, 0x3d, 0x7d, 0x35, 0x03, 0x3e, 0xaa, 0xf8, 0x92, 0x3e,
  0x92, 0x00, 0x02, 0x3f, 0x67, 0xe6, 0x0c, 0x3e, 0xa3, 0xb2, 0xbe, 0x3e,
  0xb7, 0xeb, 0x62, 0x3e, 0x51, 0xc4, 0xad, 0x3e, 0xab, 0x49, 0x9d, 0x3e,
  0x18, 0x0e, 0x1a, 0x3f, 0xd2, 0x36, 0x1a, 0x3e, 0x51, 0xae, 0xa1, 0x3e,
  0xbc, 0x9f, 0x4e, 0x3e, 0xd8, 0x84, 0x82, 0x3e, 0xd7, 0x94, 0xde, 0x3e,
  0x0f, 0x88, 0xed, 0x3e, 0xbb, 0x09, 0xc3, 0x3e, 0xc9, 0x24, 0xc5, 0x3e,
  0xfa, 0xd5, 0xa3, 0x3e, 0x46, 0x92, 0x3d, 0x3e, 0x95, 0x12, 0xc0, 0x3d,
  0xe9, 0x2f, 0xda, 0x3d, 0x45, 0x5e, 0x4c, 0xbe, 0xc7, 0xf9, 0x21, 0x3c,
  0x15, 0xe2, 0xc7, 0x3d, 0x5a, 0x36, 0x6e, 0x3b, 0x52, 0x34, 0x2e, 0xbd,
  0xf3, 0x86, 0x31, 0x3d, 0x77, 0xa1, 0x8c, 0x3d, 0xd1, 0xff, 0x15, 0xbd,
  0x0d, 0xf2, 0xfb, 0xbd, 0xae, 0x3b, 0x00, 0xbe, 0xc8, 0x3c, 0xef, 0x3d,
  0x5d, 0x1c, 0x36, 0xbd, 0x55, 0x55, 0x36, 0x3d, 0x08, 0x11, 0x9d, 0x3d,
  0x34, 0x4c, 0x00, 0xbe, 0xdf, 0x57, 0x53, 0xbe, 0x97, 0x9e, 0x33, 0xbe,
  0x65, 0x34, 0xee, 0xbd, 0xdd, 0xf2, 0xed, 0xbd, 0xe2, 0xf2, 0xf1, 0x3d,
  0x95, 0xa9, 0xce, 0xbc, 0x00, 0x4a, 0xdd, 0x3d, 0x44, 0x9e, 0x0a, 0x3e,
  0x36, 0x78, 0xef, 0xbc, 0xb7, 0x2d, 0xda, 0x3d, 0x45, 0xee, 0xff, 0x3d,
  0x95, 0x5f, 0x80, 0xbd, 0x4b, 0x60, 0xcd, 0x3c, 0x5a, 0x62, 0x8c, 0xbd,
  0xc7, 0x51, 0xc6, 0x3d, 0x43, 0xb2, 0xa4, 0x3c, 0x22, 0xd9, 0x34, 0xbe,
  0xef, 0x17, 0x32, 0xbd, 0xa3, 0x05, 0x83, 0x3e, 0x41, 0xb0, 0xa2, 0x3b,
  0xa8, 0x45, 0x08, 0x3e, 0x08, 0x6d, 0xab, 0x3c, 0x34, 0xd5, 0x79, 0x3a,
  0x21, 0x8c, 0x58, 0xbe, 0xa7, 0xe9, 0xea, 0xbc, 0x71, 0xfd, 0xe7, 0xbd,
  0x9f, 0xdf, 0x56, 0x3e, 0xf0, 0x83, 0x06, 0x3e, 0xb7, 0x09, 0x10, 0x3d,
  0xaf, 0x2a, 0x78, 0x3e, 0xf4, 0xf2, 0x47, 0xbd, 0x08, 0x6a, 0x70, 0xbb,
  0xc1, 0x5f, 0x7b, 0xbe, 0x95, 0xce, 0xf5, 0x3d, 0x4d, 0x54, 0xc0, 0xbd,
  0x73, 0x85, 0x18, 0x3e, 0x6d, 0x8a, 0x94, 0xbd, 0xf8, 0x92, 0x92, 0xbd,
  0xdc, 0xf4, 0x8b, 0xba, 0x1e, 0x16, 0x2d, 0x3e, 0x08, 0x85, 0x1d, 0xbd,
  0xbe, 0xae, 0x68, 0xbc, 0x6b, 0x82, 0xf1, 0x3d, 0x74, 0xe4, 0x98, 0xbd,
  0x5f, 0xdb, 0x2c, 0xbd, 0xf2, 0x2d, 0x0b, 0x3c, 0x9a, 0x99, 0x75, 0xbd,
  0x18, 0x80, 0x35, 0xbe, 0x08, 0x18, 0x1f, 0xbe, 0x8c, 0x9b, 0x87, 0xbe,
  0x6d, 0xb0, 0xcf, 0x3c, 0xd7, 0x1f, 0xa8, 0x3d, 0xd4, 0xea, 0x09, 0x3d,
  0xb8, 0x10, 0xd7, 0x3c, 0xb9, 0x5f, 0x70, 0x3d, 0x6b, 0xce, 0x85, 0x3d,
  0x3a, 0x8e, 0x1d, 0x3e, 0xd8, 0xb3, 0x85, 0xbd, 0x7e, 0xa8, 0x1a, 0x3e,
  0xd2, 0x14, 0x34, 0x3e, 0xf9, 0xdd, 0xac, 0xbc, 0xaf, 0x72, 0x07, 0x3e,
  0x07, 0x2b, 0xc0, 0x3d, 0xb1, 0xdf, 0xaf, 0xbd, 0x6e, 0x7b, 0xcc, 0xbc,
  0xc2, 0xb9, 0xa2, 0x3d, 0x9c, 0x52, 0x4e, 0x3e, 0x2b, 0x42, 0xb6, 0x3d,
  0xbc, 0xfc, 0x98, 0x3d, 0xc9, 0xff, 0xca, 0x3d, 0x6e, 0xb4, 0x31, 0xbd,
  0xb4, 0xe2, 0xa9, 0xbc, 0x78, 0x8f, 0x4d, 0x3d, 0xe8, 0xd3, 0x18, 0xbc,
  0x4c, 0xfe, 0x2b, 0xbe, 0x52, 0xbe, 0x48, 0xbe, 0x99, 0x00, 0x88, 0xbd,
  0xa9, 0x43, 0x51, 0x3d, 0x8a, 0x52, 0x98, 0x3d, 0x88, 0x32, 0x96, 0xbd,
  0x0a, 0xff, 0x1d, 0x3e, 0x28, 0x6c, 0xc5, 0xbd, 0x41, 0x2a, 0xb8, 0xbd,
  0x11, 0xec, 0xae, 0xbd, 0xdf, 0x68, 0xd6, 0xbc, 0x44, 0x19, 0x23, 0xbe,
  0xc6, 0x75, 0x29, 0xbe, 0x54, 0xca, 0x28, 0x3e, 0x82, 0x0d, 0x27, 0x3f,
  0x4c, 0x3e, 0x05, 0x3f, 0x4b, 0xe5, 0x22, 0x3f, 0x8b, 0x81, 0xff, 0x3e,
  0xc4, 0x03, 0x05, 0x3f, 0x88, 0x9e, 0xa3, 0x3e, 0x69, 0x59, 0x15, 0x3f,
  0xf2, 0xa1, 0xdb, 0x3e, 0x1a, 0x4d, 0x23, 0x3f, 0x7e, 0x1f, 0x31, 0x3f,
  0xde, 0x5b, 0x4f, 0x3f, 0x52, 0x04, 0x14, 0x3f, 0x89, 0xdb, 0xbc, 0x3e,
  0xcb, 0xcf, 0x1b, 0x3e, 0x55, 0xdc, 0x2f, 0x3e, 0x19, 0x3a, 0xb6, 0x3e,
  0x4a, 0x24, 0x80, 0x3e, 0xb9, 0xe8, 0x01, 0x3f, 0x93, 0xa2, 0xa2, 0x3e,
  0x94, 0xc2, 0x96, 0x3e, 0xd0, 0x8d, 0x18, 0x3e, 0x0e, 0x38, 0xfb, 0x3d,
  0x42, 0xf0, 0x3d, 0x3e, 0xf6, 0xb3, 0x9c, 0x3c, 0x9a, 0x01, 0x9a, 0x3d,
  0x76, 0x77, 0xa2, 0xbd, 0xea, 0x41, 0x8f, 0xbd, 0xef, 0x24, 0xf2, 0xbd,
  0x51, 0x01, 0xd1, 0xbe, 0xa9, 0xe3, 0xc2, 0xbe, 0x91, 0xbb, 0x07, 0xbf,
  0xc3, 0x6f, 0x96, 0xbe, 0x41, 0x29, 0x5f, 0xbd, 0x8b, 0xcb, 0x6e, 0x3e,
  0xea, 0x53, 0xd0, 0xbd, 0xe9, 0xa1, 0x06, 0xbf, 0xb9, 0x6a, 0x5b, 0xbf,
  0x71, 0xd5, 0x18, 0xbf, 0x23, 0xcf, 0x47, 0xbf, 0xa7, 0xeb, 0x10, 0xbf,
  0xde, 0x78, 0xb8, 0xbe, 0x1d, 0x0f, 0xc4, 0xbe, 0x6c, 0x80, 0x08, 0xbf,
  0xa5, 0x5c, 0x38, 0xbf, 0x4d, 0x66, 0x7b, 0xbf, 0x98, 0x94, 0x96, 0xbf,
  0x39, 0x6a, 0x41, 0xbf, 0x1f, 0x61, 0x43, 0xbf, 0xc9, 0xd1, 0x16, 0xbf,
  0x29, 0xfe, 0xf4, 0xbe, 0x02, 0xc9, 0x50, 0xbf, 0x96, 0x71, 0xa7, 0xbf,
  0x69, 0x8e, 0x68, 0xbf, 0x47, 0x01, 0x8e, 0xbf, 0x3e, 0xfa, 0x8d, 0xbf,
  0x43, 0x1f, 0x4f, 0xbf, 0xdf, 0xc9, 0x4e, 0xbf, 0xc0, 0x5b, 0x26, 0xbf,
  0x31, 0xcc, 0xd9, 0xbe, 0xfe, 0x17, 0x1e, 0xbf, 0x7a, 0x06, 0x2d, 0xbf,
  0x6a, 0xdb, 0x2d, 0xbf, 0xdd, 0x7f, 0x3b, 0xbf, 0x3a, 0x4e, 0xd1, 0xbe,
  0x52, 0xfe, 0x6e, 0xbe, 0x13, 0x3f, 0x57, 0xbe, 0xbe, 0x1f, 0xe4, 0xbd,
  0x2b, 0xb9, 0x97, 0x3a, 0xcd, 0xab, 0xd0, 0xbd, 0xe3, 0x43, 0xcb, 0xbd,
  0x7b, 0x09, 0x03, 0xbe, 0x86, 0x7e, 0x38, 0xbe, 0x03, 0xd3, 0xad, 0x3d,
  0xef, 0x71, 0x41, 0xbc, 0x41, 0x6f, 0xe7, 0x3d, 0x6a, 0xe9, 0x8d, 0xbd,
  0x11, 0x1d, 0x61, 0x3e, 0x3e, 0xf4, 0x0a, 0x3e, 0x2e, 0x3a, 0xeb, 0x3d,
  0x32, 0x0e, 0x93, 0x3d, 0x7a, 0x6e, 0xaf, 0x3d, 0xda, 0xd5, 0xab, 0x3e,
  0x60, 0x9a, 0x40, 0x3d, 0xe0, 0xac, 0x87, 0x3e, 0x61, 0x19, 0x12, 0x3f,
  0x5d, 0xb6, 0x9f, 0x3e, 0x8e, 0x99, 0x52, 0x3f, 0x56, 0x70, 0x13, 0x3f,
  0x31, 0x77, 0x44, 0x3f, 0x3f, 0xca, 0x09, 0x3f, 0x4a, 0x33, 0xd5, 0x3e,
  0x9b, 0x1f, 0xdb, 0x3e, 0xac, 0xcd, 0x0b, 0x3f, 0x6d, 0x78, 0xee, 0x3e,
  0x31, 0xc4, 0x14, 0x3f, 0x76, 0xba, 0x35, 0x3f, 0x7a, 0x14, 0x03, 0x3f,
  0xbe, 0xdf, 0x55, 0x3f, 0xdf, 0x58, 0x4d, 0x3f, 0x90, 0xec, 0xfd, 0x3d,
  0x8a, 0xc0, 0xfb, 0xbd, 0xb6, 0x4f, 0xba, 0xbc, 0x4b, 0xa9, 0x59, 0xbe,
  0x0f, 0x0d, 0x8e, 0x3d, 0x22, 0x35, 0xf7, 0xbd, 0x8c, 0xe4, 0xa8, 0xbd,
  0x1a, 0x55, 0x0e, 0x3e, 0x16, 0xb7, 0x43, 0x3e, 0x63, 0x03, 0x3f, 0x3d,
  0x34, 0xb0, 0x18, 0x3e, 0x14, 0x3b, 0xfa, 0x3d, 0x6b, 0x1a, 0x13, 0xbe,
  0x27, 0x06, 0x52, 0x3e, 0xef, 0xb6, 0xef, 0x3d, 0x58, 0xdf, 0x3c, 0x3e,
  0xf6, 0x98, 0x78, 0x3d, 0x1f, 0x9c, 0x24, 0x3e, 0xce, 0x69, 0x20, 0x3d,
  0x0a, 0x68, 0x33, 0x3e, 0xc5, 0x35, 0xb1, 0x3d, 0x57, 0x54, 0xce, 0x3d,
  0x38, 0xfe, 0xdf, 0x3d, 0x47, 0xeb, 0xeb, 0x3d, 0xc0, 0x20, 0x56, 0x3d,
  0xcf, 0xd5, 0x59, 0xba, 0x76, 0x9f, 0xdb, 0xbd, 0x38, 0x41, 0x94, 0x3c,
  0x7e, 0x93, 0x06, 0xbc, 0xaa, 0x9c, 0x0c, 0x3a, 0x97, 0x56, 0x7a, 0x3e,
  0x49, 0x1e, 0xf3, 0x3d, 0x56, 0x31, 0xf1, 0x3d, 0x60, 0x19, 0x86, 0x3e,
  0xb7, 0xa0, 0xfc, 0x3d, 0xbd, 0xc2, 0xac, 0x3d, 0x97, 0x2f, 0xd7, 0x3c,
  0x52, 0x6a, 0x9b, 0x3d, 0x52, 0x33, 0x3d, 0x3e, 0xda, 0x2a, 0x40, 0xbd,
  0xa2, 0xe2, 0x66, 0x3e, 0x6a, 0x3a, 0x55, 0x3e, 0xd7, 0xe7, 0x69, 0x3e,
  0xdc, 0x40, 0x93, 0x3e, 0x8e, 0x69, 0x2e, 0x3e, 0xf4, 0x13, 0x30, 0x3e,
  0x16, 0x8d, 0x42, 0x3e, 0x57, 0x20, 0xad, 0x3c, 0x9b, 0x02, 0xa5, 0x3d,
  0x7f, 0x25, 0xb3, 0x3c, 0x96, 0x25, 0x6b, 0x3d, 0x48, 0xd0, 0xe3, 0xbd,
  0xad, 0x9b, 0x12, 0x3e, 0xf1, 0xd6, 0xad, 0xbd, 0x45, 0x81, 0xf3, 0x3d,
  0xb6, 0xfe, 0x6e, 0x3d, 0x3c, 0x13, 0xef, 0x3d, 0xdf, 0xfc, 0x44, 0xbe,
  0x77, 0x00, 0xc9, 0x3d, 0xb3, 0x1b, 0x9b, 0x3d, 0x9b, 0x36, 0x5f, 0xbd,
  0xf3, 0xd2, 0x84, 0x3d, 0x8d, 0xf0, 0x99, 0x3d, 0xb1, 0xcd, 0xdb, 0xbd,
  0x18, 0xb8, 0x5a, 0x3d, 0x63, 0xf7, 0x32, 0xbe, 0x0c, 0x9e, 0x17, 0x3e,
  0xb0, 0xc9, 0xc4, 0xbc, 0x10, 0x78, 0x92, 0xbd, 0x97, 0x1d, 0xee, 0x3d,
  0xe7, 0x2c, 0xcc, 0xbd, 0x75, 0xc6, 0x32, 0x3e, 0x02, 0x4e, 0x0a, 0x3e,
  0x79, 0x02, 0xbd, 0x3b, 0x3a, 0x77, 0x56, 0x3e, 0xec, 0x8a, 0xf5, 0xbb,
  0xfb, 0x2f, 0x23, 0x3e, 0x70, 0xe8, 0x52, 0x3e, 0xdb, 0x5a, 0xd0, 0x3d,
  0x5f, 0xe3, 0xce, 0x3d, 0xb3, 0xa3, 0x86, 0xbd, 0xc3, 0xdb, 0x3c, 0x3e,
  0xd2, 0x0d, 0x0b, 0xbd, 0x07, 0xd3, 0xa3, 0x3d, 0x9d, 0xbd, 0x03, 0x3e,
  0x21, 0x2d, 0x04, 0xbc, 0x9a, 0x58, 0x8e, 0xbd, 0x29, 0xa0, 0xd6, 0x3d,
  0xfc, 0x2b, 0x39, 0xbd, 0xb0, 0x10, 0x38, 0x3e, 0x21, 0xf9, 0x53, 0x3d,
  0xcb, 0xad, 0xf6, 0x3d, 0x7c, 0xe0, 0xf0, 0xbd, 0x7e, 0x8b, 0x01, 0xbe,
  0x7e, 0x0a, 0x3a, 0xbe, 0x4e, 0x1d, 0xaa, 0xbd, 0x4f, 0x7f, 0x2b, 0x3e,
  0x5d, 0xe1, 0x17, 0xbe, 0xea, 0x7b, 0x79, 0x3d, 0x1c, 0x0f, 0xf0, 0xbd,
  0x62, 0xcc, 0x93, 0x3e, 0xcd, 0xd1, 0x0c, 0x3f, 0xe6, 0x19, 0x20, 0x3f,
  0x03, 0xef, 0xf9, 0x3e, 0xb4, 0x0d, 0xf9, 0x3e, 0x53, 0x59, 0xd4, 0x3e,
  0xf1, 0xfe, 0xd3, 0x3e, 0x27, 0xea, 0x08, 0x3f, 0x6a, 0x0d, 0xff, 0x3e,
  0x1b, 0xeb, 0x09, 0x3f, 0x93, 0xdc, 0x90, 0x3e, 0x1a, 0x99, 0xc9, 0x3e,
  0xcc, 0x18, 0x99, 0x3e, 0x02, 0x3f, 0xe5, 0x3e, 0x47, 0x87, 0xde, 0x3e,
  0x57, 0x81, 0xa3, 0x3e, 0x2c, 0xa8, 0x9e, 0x3e, 0xf3, 0x70, 0x1f, 0x3e,
  0xe9, 0x33, 0xf0, 0x3d, 0xc6, 0xa7, 0x26, 0x3d, 0x8a, 0xc8, 0x43, 0x3e,
  0x3a, 0x4c, 0xd6, 0xbb, 0x15, 0x6e, 0x1b, 0x3e, 0x33, 0xd4, 0xf1, 0xbc,
  0x01, 0xfa, 0xf3, 0x3d, 0x97, 0x45, 0xa8, 0xbd, 0x8a, 0xe9, 0xa8, 0x3d,
  0xd9, 0x50, 0xde, 0xbd, 0xe3, 0xff, 0x3f, 0x3d, 0x70, 0x90, 0x05, 0x3e,
  0x9a, 0x51, 0x73, 0x3e, 0x8d, 0x5c, 0x83, 0x3e, 0x95, 0x14, 0xc8, 0xbc,
  0x3e, 0x37, 0xd8, 0xbd, 0xf0, 0x18, 0x01, 0x3e, 0xdf, 0xac, 0x9c, 0x3d,
  0xc4, 0xf8, 0x45, 0x3c, 0xbb, 0xc5, 0x2a, 0xbe, 0xa3, 0x91, 0x83, 0xbb,
  0x8d, 0x66, 0x8c, 0x3d, 0x1b, 0x18, 0x40, 0xbd, 0x08, 0x6c, 0xbb, 0xbd,
  0x74, 0x37, 0xca, 0x3d, 0x3a, 0xb6, 0x9e, 0xbd, 0xae, 0x73, 0xff, 0x3c,
  0x29, 0x2a, 0xde, 0xbc, 0xea, 0x29, 0x29, 0x3e, 0xfe, 0xe9, 0x15, 0x3d,
  0x6e, 0x47, 0x96, 0xbd, 0xad, 0x2c, 0xad, 0xbc, 0x7b, 0x10, 0xed, 0x3c,
  0x7c, 0x0d, 0x78, 0xbe, 0x6f, 0x80, 0x27, 0xbe, 0xcb, 0x36, 0x65, 0xbe,
  0x70, 0xb0, 0x09, 0xbe, 0x14, 0xf2, 0x9d, 0x3d, 0xc2, 0xca, 0x3a, 0xbc,
  0xc3, 0x46, 0x2a, 0x3e, 0x67, 0x4d, 0x97, 0xbe, 0xbe, 0xa8, 0x31, 0xbe,
  0x6e, 0xed, 0x89, 0xbe, 0x83, 0xc6, 0x05, 0xbe, 0x93, 0x45, 0xc2, 0xbd,
  0x0a, 0xb4, 0x67, 0xbd, 0x6d, 0x5c, 0xe7, 0x3c, 0x0f, 0x3d, 0x95, 0xbc,
  0x94, 0x38, 0x88, 0xbe, 0x72, 0x30, 0x14, 0xbe, 0x38, 0x51, 0x48, 0xbd,
  0x92, 0x4f, 0x7c, 0xbd, 0x55, 0xa8, 0xd2, 0x3d, 0x69, 0x3f, 0x23, 0x3e,
  0xc3, 0xb4, 0x5e, 0xbd, 0x6a, 0x16, 0x6c, 0x3d, 0x6c, 0x8e, 0xf3, 0xbd,
  0xcb, 0x19, 0x10, 0x3e, 0x18, 0x3f, 0xcc, 0xbd, 0x89, 0x84, 0x1a, 0x3e,
  0x88, 0x2f, 0xa3, 0xbd, 0xe6, 0x62, 0x67, 0xbd, 0xde, 0x3d, 0x79, 0x3e,
  0xc2, 0xc8, 0xb4, 0xbd, 0xd2, 0x51, 0x97, 0xbc, 0xb6, 0xf9, 0x19, 0x3d,
  0x81, 0xe8, 0x1a, 0x3c, 0x1f, 0x38, 0x52, 0x3b, 0xda, 0xa7, 0x37, 0x3e,
  0xd3, 0x56, 0xa4, 0x3e, 0x64, 0xd0, 0x33, 0x3d, 0xa8, 0xe7, 0xa4, 0xbd,
  0xa6, 0xbc, 0x18, 0x3e, 0x82, 0xf1, 0x5a, 0x3e, 0xd8, 0x7a, 0x99, 0xbc,
  0x16, 0xec, 0xcb, 0x3e, 0x03, 0xdb, 0xb4, 0x3e, 0xa0, 0xf2, 0x75, 0x3e,
  0x07, 0x15, 0xb0, 0x3e, 0xc0, 0x49, 0xa3, 0x3e, 0x92, 0x0c, 0xe3, 0x3e,
  0xc1, 0x56, 0xe1, 0x3e, 0x73, 0x4d, 0x21, 0xbe, 0x57, 0x99, 0xa0, 0xbe,
  0xbd, 0x07, 0x92, 0xbd, 0xc3, 0x9a, 0x10, 0xbe, 0x69, 0x98, 0xd8, 0xbe,
  0xb1, 0xc8, 0xc1, 0xbe, 0x05, 0x19, 0xe9, 0xbe, 0x07, 0xed, 0xc0, 0xbe,
  0xe5, 0xd4, 0xf7, 0xbe, 0xa1, 0xf4, 0x15, 0xbf, 0x71, 0xd7, 0x21, 0xbf,
  0xfd, 0xc1, 0xa8, 0xbe, 0xe3, 0x61, 0x0f, 0xbf, 0xfa, 0x20, 0x25, 0xbf,
  0x86, 0x88, 0x43, 0xbf, 0xd5, 0x08, 0x02, 0xbf, 0x71, 0xc8, 0x26, 0xbf,
  0x3f, 0x50, 0xf7, 0xbe, 0x70, 0xd0, 0x07, 0xbf, 0xc2, 0xef, 0x11, 0xbf,
  0x4d, 0xbf, 0xe4, 0xbe, 0x86, 0x47, 0x04, 0xbf, 0xf8, 0xe2, 0xec, 0xbe,
  0x34, 0xb7, 0xbf, 0xbe, 0x3c, 0xf0, 0xe3, 0xbe, 0x1e, 0xbd, 0xdb, 0xbe,
  0x03, 0xaa, 0xe6, 0xbe, 0x8b, 0x59, 0xb9, 0xbe, 0xf8, 0xaa, 0xe4, 0xbe,
  0x49, 0xe0, 0xb3, 0xbe, 0x12, 0x2f, 0xa5, 0xbe, 0x91, 0x73, 0x86, 0xbe,
  0x37, 0x17, 0xe7, 0xbe, 0xc8, 0x2f, 0xac, 0xbe, 0x2f, 0x1a, 0x8b, 0xbe,
  0x6c, 0x59, 0x68, 0xbe, 0x7b, 0x6a, 0x42, 0xbe, 0xfc, 0x7a, 0x64, 0x3d,
  0x0d, 0x92, 0x89, 0x3e, 0xdc, 0x33, 0x51, 0x3e, 0x71, 0xa5, 0x7f, 0x3e,
  0x15, 0xed, 0x05, 0x3e, 0x6e, 0x4e, 0xac, 0x3d, 0xb7, 0x19, 0xa4, 0x3d,
  0xfb, 0x05, 0x12, 0x3e, 0xeb, 0x90, 0xdb, 0x3e, 0x62, 0x4c, 0xe9, 0x3e,
  0x48, 0xea, 0xf2, 0x3e, 0x86, 0x0d, 0x06, 0x3f, 0xd6, 0xf8, 0x0e, 0x3f,
  0x9a, 0xc2, 0x2c, 0x3f, 0xaa, 0x91, 0xf2, 0x3e, 0x48, 0x6c, 0x33, 0x3f,
  0x33, 0x18, 0xbd, 0x3e, 0xdc, 0x82, 0x0e, 0x3f, 0xe1, 0x2d, 0x22, 0x3f,
  0xf0, 0xd4, 0x1c, 0x3f, 0x64, 0xd1, 0x0e, 0x3f, 0xf9, 0xa1, 0xd1, 0x3e,
  0xaa, 0x84, 0x2f, 0x3f, 0xb4, 0x60, 0x08, 0x3f, 0xdd, 0xac, 0x15, 0x3f,
  0xe4, 0xcd, 0xe4, 0x3e, 0x6e, 0x91, 0x18, 0x3f, 0x7f, 0x5b, 0xf8, 0x3e,
  0xd9, 0xd7, 0x91, 0x3e, 0x95, 0xbe, 0xde, 0x3e, 0x0b, 0x41, 0xc4, 0x3e,
  0xce, 0xe7, 0x30, 0x3e, 0x00, 0xc9, 0x48, 0x3e, 0x0f, 0xe5, 0x85, 0x3d,
  0x4d, 0xb5, 0x34, 0x3e, 0xe5, 0xc1, 0x80, 0x3e, 0x72, 0x3a, 0x8b, 0x3d,
  0x36, 0x85, 0xb3, 0x3d, 0x96, 0xf3, 0x56, 0xbc, 0x36, 0x1c, 0x9c, 0x3d,
  0x04, 0x5b, 0x45, 0x3e, 0x92, 0x9b, 0x11, 0xbd, 0xd4, 0xcb, 0x0e, 0xbe,
  0xd6, 0x77, 0x36, 0x3e, 0x94, 0x25, 0xed, 0xbd, 0x5f, 0x96, 0x1d, 0x3e,
  0xa0, 0x01, 0x70, 0x3e, 0x8b, 0x38, 0x5a, 0x3e, 0x11, 0xdd, 0x6e, 0x3e,
  0x23, 0xc3, 0xec, 0x3d, 0xfb, 0xe2, 0x31, 0x3e, 0x75, 0xf9, 0x14, 0x3e,
  0xe2, 0x0f, 0xd1, 0xbd, 0x96, 0x2d, 0x0d, 0x3e, 0x50, 0xef, 0x1d, 0x3c,
  0xcb, 0x7d, 0x4d, 0xbd, 0x60, 0xa0, 0x3d, 0x3d, 0xa9, 0xb3, 0xdf, 0x3c,
  0x70, 0x84, 0x5d, 0x3e, 0xa5, 0xd0, 0xb7, 0x3e, 0x02, 0xda, 0x65, 0x3e,
  0x37, 0xb0, 0xc3, 0x3e, 0x1a, 0x96, 0x1e, 0x3e, 0xc6, 0x46, 0xd6, 0xbd,
  0xee, 0xac, 0xe3, 0x3d, 0xfd, 0x5a, 0x8b, 0x3d, 0x95, 0x49, 0x90, 0xbe,
  0xe1, 0x5d, 0x60, 0xbe, 0x02, 0x90, 0xad, 0xbe, 0xc9, 0xc4, 0x9b, 0xbd,
  0x48, 0x4d, 0x1d, 0xbe, 0x52, 0x9c, 0x0d, 0x3e, 0x05, 0xc9, 0x30, 0x3c,
  0x58, 0xb7, 0x8b, 0x3d, 0x5d, 0x45, 0x92, 0x3d, 0x4d, 0xdb, 0xa5, 0x3d,
  0xaa, 0xb9, 0x28, 0xbe, 0xf6, 0x65, 0x36, 0xbe, 0x19, 0x62, 0x96, 0xbe,
  0x2f, 0x2a, 0x0f, 0xbe, 0x6c, 0xdc, 0x29, 0xbe, 0x3d, 0x64, 0x2a, 0xbe,
  0x43, 0x04, 0x25, 0xbe, 0x72, 0x7e, 0x85, 0xbd, 0xd4, 0x0f, 0x67, 0xbe,
  0x26, 0x91, 0x5f, 0xbe, 0xa8, 0x62, 0x1c, 0xbe, 0xc8, 0x2b, 0x0b, 0xbe,
  0xcc, 0x93, 0x17, 0xbc, 0xea, 0xc2, 0x55, 0xbd, 0x33, 0x4d, 0xb6, 0xbd,
  0x5e, 0x35, 0xbe, 0xbd, 0x5e, 0x1e, 0x5a, 0xbe, 0x6d, 0xcf, 0x2e, 0xbe,
  0xe3, 0x5a, 0x90, 0xbe, 0xad, 0xd2, 0xca, 0xbd, 0x0b, 0x3f, 0xb9, 0xbe,
  0xcb, 0x62, 0x42, 0xbe, 0x1f, 0x50, 0x4a, 0xbd, 0x3c, 0x4c, 0x7a, 0x3a,
  0x70, 0xe7, 0x8a, 0xbe, 0x41, 0x05, 0x9c, 0xbe, 0xeb, 0x8a, 0x31, 0xbe,
  0x31, 0x1b, 0x48, 0xbe, 0xd2, 0xdc, 0x64, 0xbc, 0xe3, 0x6d, 0x05, 0xbd,
  0x19, 0x6e, 0x14, 0xbd, 0xfa, 0x78, 0x2f, 0x3e, 0xb5, 0x2a, 0x1f, 0x3e,
  0x29, 0x9a, 0x37, 0x3e, 0xe5, 0x05, 0x6f, 0x3d, 0x34, 0x05, 0xce, 0x3e,
  0x02, 0xad, 0x4e, 0x3e, 0x6b, 0x8d, 0xf9, 0x3d, 0x96, 0x2b, 0xc1, 0x3d,
  0x61, 0xc4, 0xbf, 0x3d, 0x0e, 0xb2, 0x15, 0xbe, 0x3d, 0xaa, 0x81, 0xbd,
  0xc6, 0xae, 0xa1, 0xbd, 0x4c, 0xf1, 0x52, 0xbe, 0xb5, 0x64, 0x11, 0xbe,
  0xb3, 0x69, 0x17, 0x3d, 0xe9, 0xab, 0xdf, 0x3d, 0xe5, 0x45, 0x09, 0x3d,
  0x95, 0xc6, 0x70, 0x3e, 0x58, 0xcc, 0x97, 0x3e, 0xb1, 0xc6, 0x4b, 0xbc,
  0x6f, 0xe1, 0x36, 0x3d, 0x8a, 0x9e, 0xc0, 0x3e, 0x71, 0x48, 0x78, 0x3e,
  0xd7, 0xe4, 0x8f, 0x3d, 0xf6, 0x88, 0xfc, 0x3d, 0x4b, 0x78, 0x5a, 0x3e,
  0x19, 0xaf, 0xef, 0x3d, 0x1d, 0x53, 0x2a, 0x3e, 0x58, 0x0a, 0xa7, 0xbc,
  0x75, 0x67, 0x8a, 0x3e, 0x69, 0xec, 0x0d, 0x3e, 0x47, 0x1e, 0x06, 0x3e,
  0x3a, 0xd8, 0x0a, 0x3e, 0x3c, 0x24, 0x24, 0xbc, 0xe9, 0x4f, 0x67, 0x3e,
  0x80, 0x75, 0x9f, 0x3d, 0xcf, 0x80, 0x01, 0x3e, 0xda, 0x54, 0xe5, 0x3c,
  0x9a, 0x9e, 0xd7, 0x3d, 0xaf, 0xc7, 0x2a, 0x3a, 0xe7, 0xad, 0x68, 0xba,
  0x71, 0xe6, 0xb6, 0x3e, 0x27, 0x5d, 0x32, 0x3d, 0x5c, 0x9e, 0xcd, 0x3d,
  0x65, 0xfa, 0x8e, 0xbb, 0x60, 0xfa, 0xdb, 0x3c, 0xdc, 0x80, 0x40, 0x3d,
  0x88, 0x78, 0x1d, 0xbd, 0xa8, 0x79, 0xc3, 0xbd, 0x0c, 0xc9, 0x59, 0xbe,
  0xb8, 0x96, 0xa4, 0xbe, 0xf0, 0x19, 0x5c, 0xbd, 0xfb, 0x48, 0x14, 0xbe,
  0xfa, 0xab, 0x26, 0xbd, 0xaf, 0x78, 0x11, 0xbe, 0x2c, 0x75, 0x50, 0xbe,
  0x88, 0x59, 0x5c, 0x3e, 0x48, 0x7a, 0x47, 0x3e, 0x5b, 0x91, 0x84, 0x3e,
  0xd6, 0xc5, 0xa3, 0x3e, 0x74, 0x12, 0xb2, 0x3e, 0x24, 0x80, 0xe0, 0x3e,
  0xb8, 0x3b, 0x61, 0x3e, 0x4f, 0xba, 0x47, 0x3e, 0x48, 0xec, 0xc4, 0x3e,
  0x24, 0xe5, 0x16, 0x3e, 0x38, 0x04, 0xa9, 0x3e, 0x87, 0x1f, 0xeb, 0x3e,
  0x84, 0x38, 0xbe, 0x3e, 0xc8, 0xc6, 0xb7, 0x3e, 0xac, 0x07, 0x87, 0x3e,
  0x14, 0x07, 0x48, 0x3e, 0x5b, 0x59, 0x7a, 0x3e, 0xa9, 0x70, 0xce, 0x3e,
  0x37, 0x1d, 0xcb, 0x3e, 0x79, 0xbc, 0x9e, 0x3e, 0xb5, 0xa4, 0xc2, 0x3e,
  0x13, 0x65, 0xa4, 0x3e, 0xaa, 0x7a, 0xbc, 0x3e, 0xbb, 0xd4, 0xde, 0x3e,
  0x39, 0xf1, 0xa4, 0x3e, 0x23, 0x9f, 0xac, 0x3e, 0x9d, 0xbd, 0x27, 0x3e,
  0x85, 0xf4, 0xc8, 0x3e, 0xd1, 0x2c, 0x72, 0x3e, 0x65, 0x2d, 0x6c, 0x3e,
  0x31, 0xa3, 0x85, 0x3e, 0x51, 0x5e, 0xd0, 0x3e, 0xa3, 0x55, 0x96, 0x3e,
  0xb0, 0x26, 0x8a, 0x3e, 0x8b, 0x9c, 0xe9, 0x3e, 0x50, 0x59, 0x8f, 0x3e,
  0x1a, 0xdc, 0x04, 0x3f, 0x95, 0x42, 0xeb, 0x3e, 0xa8, 0xaf, 0xac, 0x3e,
  0x3d, 0xe4, 0xd0, 0x3e, 0xd7, 0xb0, 0xdc, 0x3e, 0x38, 0xce, 0xbb, 0x3e,
  0x20, 0x47, 0xde, 0x3e, 0x89, 0xd3, 0xc4, 0x3e, 0xb8, 0x26, 0x29, 0x3f,
  0xe1, 0xfa, 0x18, 0x3f, 0xb6, 0x4a, 0x35, 0x3f, 0x99, 0xe9, 0x1b, 0x3f,
  0x16, 0xe5, 0x40, 0x3f, 0xa5, 0x67, 0x39, 0x3f, 0x2d, 0xb1, 0x0f, 0x3f,
  0x03, 0x7f, 0x2a, 0x3f, 0x37, 0x17, 0x39, 0x3f, 0x7b, 0x6b, 0x44, 0x3f,
  0x3b, 0x83, 0x35, 0x3f, 0x89, 0x76, 0x2d, 0x3f, 0x7c, 0x69, 0x30, 0x3f,
  0xa5, 0x28, 0x29, 0x3f, 0x83, 0x8a, 0xfc, 0x3e, 0x08, 0x41, 0xe4, 0x3e,
  0x91, 0x42, 0xed, 0x3e, 0x74, 0x8c, 0xbc, 0x3e, 0x4f, 0x80, 0xe9, 0x3e,
  0x97, 0x78, 0xef, 0x3e, 0xa1, 0x44, 0x58, 0x3e, 0x1b, 0x01, 0xfe, 0x3d,
  0xb4, 0x87, 0x6d, 0x3e, 0x8c, 0x36, 0x85, 0x3c, 0x49, 0x68, 0x03, 0x3e,
  0xdb, 0xbd, 0x82, 0xbd, 0x80, 0xc5, 0xc8, 0xbd, 0x24, 0xb9, 0x8a, 0xbe,
  0xdb, 0xa7, 0xf3, 0xbe, 0x87, 0xf6, 0xe6, 0xbe, 0x55, 0x95, 0xb9, 0xbe,
  0xcc, 0xea, 0xec, 0xbe, 0xd4, 0x11, 0x22, 0xbf, 0x2c, 0xbb, 0x03, 0xbf,
  0xf9, 0x9f, 0xf2, 0xbe, 0x94, 0xd1, 0x20, 0xbf, 0x19, 0x96, 0x37, 0xbf,
  0x1d, 0xe1, 0x26, 0xbf, 0xb6, 0x71, 0x02, 0xbf, 0x54, 0x26, 0x06, 0xbf,
  0xf9, 0x1b, 0xd4, 0xbe, 0x5c, 0x1d, 0x4a, 0xbf, 0x46, 0x26, 0x3a, 0xbf,
  0x66, 0xa7, 0x62, 0xbf, 0x01, 0xf3, 0x81, 0xbf, 0xa7, 0xc9, 0x64, 0xbf,
  0x6b, 0x4d, 0x5c, 0xbf, 0x50, 0x49, 0x61, 0xbf, 0xc0, 0x3c, 0x05, 0xbf,
  0x5b, 0xc0, 0x4b, 0xbf, 0xa5, 0x04, 0x2b, 0xbf, 0xed, 0x46, 0x80, 0xbf,
  0xf8, 0xe9, 0x8c, 0xbf, 0x8c, 0x93, 0x81, 0xbf, 0x88, 0x5c, 0x62, 0xbf,
  0x65, 0xee, 0x7b, 0xbf, 0x03, 0x5a, 0xa3, 0xbd, 0xfa, 0xde, 0xd1, 0x3c,
  0xac, 0xaf, 0xac, 0x3e, 0xd4, 0xba, 0xb0, 0x3d, 0x72, 0x06, 0x14, 0x3e,
  0x47, 0xfe, 0x18, 0xbe, 0xed, 0x17, 0xc5, 0xbc, 0x8c, 0x5b, 0x11, 0x3e,
  0xa3, 0x2a, 0x8f, 0x3d, 0x6a, 0x54, 0xb4, 0x3c, 0x6a, 0xed, 0x5f, 0x3e,
  0x2b, 0x2c, 0x77, 0x3e, 0x9e, 0x96, 0x49, 0x3e, 0x19, 0xe5, 0x0a, 0x3e,
  0xa2, 0xea, 0xb9, 0x3b, 0xd5, 0x3d, 0x70, 0x3d, 0x00, 0x4e, 0x58, 0x3e,
  0xe1, 0x77, 0xe1, 0x3d, 0xc9, 0x7c, 0xbf, 0x3d, 0x9d, 0xe8, 0x90, 0x3e,
  0x08, 0x27, 0x09, 0x3e, 0x6f, 0x17, 0x68, 0x3e, 0x1b, 0x4e, 0xe7, 0x3d,
  0x5f, 0xda, 0x8d, 0x3d, 0x7d, 0xa6, 0xc5, 0x3d, 0xfc, 0x0c, 0xdb, 0x3d,
  0x15, 0xc4, 0xa3, 0x3e, 0x37, 0x92, 0xa6, 0x3e, 0x85, 0x7a, 0x3c, 0xbd,
  0x6f, 0xfe, 0xb1, 0xbd, 0xbd, 0x56, 0x48, 0xbe, 0x37, 0xc4, 0x08, 0xbe,
  0x67, 0xbe, 0x20, 0xbe, 0x6e, 0x39, 0x8a, 0x3d, 0x98, 0x9b, 0x9a, 0xbd,
  0x39, 0xbc, 0xf8, 0x3d, 0x75, 0xdc, 0x20, 0x3d, 0x07, 0x42, 0x28, 0xbe,
  0x33, 0x71, 0x06, 0xbd, 0x4d, 0x88, 0x81, 0xbe, 0x28, 0x04, 0x65, 0xbe,
  0x98, 0x56, 0xcd, 0xbe, 0x77, 0xcf, 0xe5, 0x3d, 0xc4, 0x39, 0x45, 0xbd,
  0xd8, 0x9e, 0x47, 0x3d, 0x2e, 0x9a, 0x26, 0xbd, 0x99, 0xbf, 0x9d, 0xbe,
  0xa3, 0xed, 0x98, 0xbe, 0xba, 0x48, 0x85, 0xbe, 0x9f, 0x66, 0x10, 0xbe,
  0xf0, 0x86, 0x08, 0xbe, 0x15, 0xc8, 0x2a, 0x3e, 0x74, 0xff, 0x8b, 0x3d,
  0xad, 0xd1, 0xd3, 0xbc, 0x44, 0xa7, 0x0e, 0x3e, 0x61, 0xa0, 0xdb, 0x3d,
  0xcf, 0x67, 0x26, 0xbd, 0x38, 0x92, 0xe5, 0xbd, 0xa2, 0x8f, 0xb7, 0x3d,
  0xa7, 0xb9, 0x16, 0xbe, 0xec, 0xc7, 0x4f, 0x3d, 0x97, 0xaf, 0xeb, 0xbc,
  0xd6, 0xdd, 0xcd, 0x3d, 0x4a, 0xa6, 0x24, 0xbe, 0x14, 0x1e, 0xa9, 0xbd,
  0x39, 0xd5, 0x14, 0x3e, 0x70, 0xae, 0x45, 0xbd, 0x07, 0x05, 0xcf, 0x3c,
  0x83, 0x81, 0x69, 0x3c, 0x7e, 0x66, 0xe9, 0xbb, 0x4f, 0xed, 0x72, 0xbe,
  0x5a, 0x35, 0x4e, 0xbe, 0x13, 0x11, 0x01, 0xbd, 0x79, 0x81, 0x85, 0x3c,
  0x0e, 0xa7, 0x13, 0x3d, 0x41, 0x1c, 0x34, 0x3d, 0x57, 0x74, 0x88, 0xbd,
  0x65, 0x0d, 0xeb, 0x3c, 0x09, 0x06, 0x37, 0xbe, 0xd1, 0xf3, 0x77, 0xbd,
  0x84, 0x61, 0x01, 0xbe, 0x58, 0xcb, 0x53, 0xbd, 0x79, 0x18, 0x21, 0xbd,
  0x65, 0xb6, 0x91, 0xbd, 0x2d, 0xc0, 0xd7, 0x3d, 0x9e, 0x0a, 0xa7, 0x3d,
  0x05, 0x87, 0x87, 0xbe, 0x50, 0xd2, 0xa2, 0xbd, 0x57, 0x64, 0xcb, 0xba,
  0x91, 0x65, 0x0c, 0xbe, 0x2e, 0x02, 0x16, 0xbe, 0x6f, 0xd0, 0x27, 0xbd,
  0x68, 0xf8, 0xf9, 0xbd, 0xbb, 0x2c, 0x52, 0xbe, 0x75, 0x0c, 0x96, 0xbe,
  0x25, 0xff, 0x89, 0xbe, 0xd9, 0x71, 0x8d, 0xbe, 0xf5, 0x25, 0x8b, 0xbe,
  0x2e, 0x85, 0x37, 0xbf, 0xd5, 0x61, 0x4f, 0xbf, 0xfa, 0x8e, 0x1b, 0x3f,
  0x8d, 0xed, 0x21, 0x3f, 0x3d, 0xc1, 0xd1, 0x3e, 0xc9, 0x5f, 0xc2, 0x3e,
  0x3e, 0x77, 0x11, 0x3f, 0x02, 0xf3, 0x1c, 0x3f, 0x20, 0x6f, 0x9e, 0x3e,
  0x6c, 0xb8, 0xca, 0x3e, 0x5a, 0xec, 0xdc, 0x3e, 0x10, 0x11, 0x8f, 0x3e,
  0xbe, 0x60, 0xb3, 0x3e, 0x9f, 0x5b, 0xa1, 0x3e, 0x4c, 0xc9, 0x44, 0x3e,
  0x51, 0xa1, 0x34, 0x3e, 0x90, 0x23, 0x8f, 0x3d, 0xd2, 0x85, 0x76, 0x3d,
  0x5b, 0xd4, 0x9d, 0x3e, 0x0b, 0x0e, 0x80, 0x3e, 0x96, 0x12, 0xdf, 0xbc,
  0xaf, 0x43, 0x0c, 0xbe, 0x3d, 0x0c, 0x11, 0xbe, 0xb7, 0xf0, 0x22, 0xbd,
  0x92, 0x11, 0x24, 0xbe, 0xce, 0x23, 0x60, 0xbb, 0xb1, 0xc8, 0x09, 0xbe,
  0xbc, 0x30, 0x40, 0x3d, 0x44, 0x81, 0x86, 0xbe, 0x99, 0x12, 0x85, 0xbe,
  0xc5, 0xb7, 0xcd, 0xbe, 0x0e, 0xfc, 0xcf, 0xbe, 0xa4, 0xc0, 0x9c, 0xbe,
  0xd6, 0x07, 0x79, 0xbe, 0x9a, 0xd6, 0xa4, 0xbe, 0xef, 0x37, 0x39, 0xbe,
  0x3b, 0xb4, 0xa0, 0xbe, 0xdd, 0xe4, 0x70, 0xbe, 0x2a, 0x45, 0x1e, 0xbf,
  0xaa, 0x0b, 0x11, 0xbf, 0x76, 0xbc, 0xf1, 0xbe, 0xc5, 0x17, 0xf9, 0xbe,
  0xe8, 0x31, 0x08, 0xbf, 0x11, 0x1c, 0xf5, 0xbe, 0xdf, 0x20, 0xc7, 0xbe,
  0xa4, 0xe7, 0xc7, 0xbe, 0x1a, 0xec, 0xb4, 0xbe, 0x6d, 0x1c, 0xb0, 0xbe,
  0xc9, 0x25, 0xf6, 0xbe, 0xc3, 0xc6, 0xf5, 0xbe, 0xa5, 0x30, 0x6f, 0xbe,
  0x81, 0x12, 0x46, 0xbe, 0xfe, 0x17, 0x40, 0xbe, 0x77, 0x40, 0x16, 0xbe,
  0xb8, 0xd3, 0xfa, 0xbd, 0x53, 0x35, 0x7e, 0x3d, 0x7e, 0xdb, 0x54, 0xbe,
  0xb8, 0xb6, 0x8a, 0x3d, 0x89, 0xfa, 0x81, 0x3d, 0xe2, 0xe2, 0xaf, 0xbc,
  0xcd, 0x7d, 0x26, 0x3d, 0xef, 0x70, 0x01, 0x3e, 0x15, 0xea, 0x2a, 0x3e,
  0xab, 0xf6, 0x2c, 0x3e, 0x56, 0x92, 0xb0, 0x3d, 0x54, 0x6d, 0xb7, 0x3d,
  0x2e, 0x24, 0xe5, 0x3d, 0x21, 0xfb, 0xc9, 0x3e, 0x66, 0x6a, 0xd7, 0x3e,
  0xd3, 0x24, 0xda, 0x3e, 0x75, 0x4f, 0xa6, 0x3e, 0xfb, 0xc1, 0xe0, 0x3e,
  0xb2, 0x2d, 0xc5, 0x3e, 0xfc, 0xd3, 0x06, 0x3f, 0xb2, 0x31, 0xf7, 0x3e,
  0x63, 0x48, 0x69, 0x3e, 0xca, 0xb2, 0x5a, 0x3e, 0x4a, 0xeb, 0x83, 0x3e,
  0xcb, 0x84, 0x00, 0x3f, 0xee, 0xee, 0xe1, 0x3e, 0xf6, 0x26, 0xe2, 0x3e,
  0xd5, 0xad, 0x0a, 0x3f, 0xca, 0x20, 0x8c, 0x3e, 0x63, 0x35, 0xb8, 0x3e,
  0x9f, 0x47, 0xc2, 0x3e, 0xc4, 0x9c, 0x9d, 0x3e, 0x89, 0xff, 0xf7, 0x3e,
  0x64, 0xaf, 0x79, 0x3e, 0xbc, 0xc9, 0x58, 0x3e, 0xb1, 0x42, 0x4d, 0x3e,
  0xfb, 0x16, 0x77, 0x3e, 0xf0, 0x7a, 0xf4, 0x3d, 0x27, 0x62, 0xb3, 0x3e,
  0xa9, 0x6a, 0xcd, 0x3e, 0x8c, 0xab, 0x0b, 0x3e, 0x58, 0x21, 0x00, 0x3e,
  0x29, 0xc0, 0x8e, 0x3d, 0x9a, 0xbc, 0xcf, 0x3d, 0xfc, 0x72, 0x15, 0xbd,
  0x19, 0xb6, 0x1a, 0x3d, 0x02, 0x1f, 0xf9, 0xbd, 0xfe, 0x3e, 0xa1, 0xbc,
  0x19, 0xdb, 0xc2, 0xbd, 0xeb, 0xe2, 0x0c, 0x3e, 0x7c, 0x9c, 0xcf, 0x3c,
  0x6c, 0x48, 0x8e, 0x3d, 0x0d, 0x5d, 0x48, 0x3d, 0xff, 0xb6, 0x67, 0xbe,
  0x71, 0xa4, 0xa7, 0xbd, 0x56, 0x8e, 0x70, 0x3d, 0x08, 0x3d, 0x1f, 0xbe,
  0x10, 0x5d, 0x70, 0x3c, 0xdd, 0x93, 0x4f, 0x3e, 0x03, 0xd2, 0xfb, 0x3d,
  0x2a, 0x10, 0x82, 0x3e, 0xc0, 0xae, 0xc5, 0xbd, 0x09, 0xc0, 0x01, 0x3e,
  0x2e, 0x4d, 0xe0, 0xbd, 0x98, 0x02, 0x8b, 0x3d, 0xcd, 0x04, 0xd1, 0x3e,
  0x24, 0x01, 0x9c, 0x3e, 0x4b, 0xdf, 0xe5, 0x3e, 0x73, 0xc6, 0xe5, 0x3e,
  0xdf, 0xec, 0xa6, 0x3e, 0x92, 0xdd, 0x64, 0xbd, 0xed, 0x0d, 0xc1, 0x3e,
  0xd0, 0x6e, 0xda, 0x3e, 0x77, 0xe4, 0xcb, 0x3e, 0xcc, 0x3d, 0xe3, 0x3e,
  0x9b, 0xae, 0xae, 0x3e, 0x70, 0xa3, 0x3d, 0x3e, 0x1c, 0xf9, 0x36, 0x3e,
  0x6a, 0xe3, 0x2c, 0xbc, 0x96, 0x60, 0x3b, 0x3e, 0x47, 0x1a, 0x2d, 0x3e,
  0xc8, 0x71, 0x31, 0x3e, 0xab, 0x73, 0xf1, 0x3e, 0x9b, 0x2f, 0x94, 0x3e,
  0x44, 0x71, 0x00, 0xbd, 0xf1, 0x96, 0x54, 0xbe, 0xd6, 0x93, 0x67, 0xbe,
  0xc4, 0x0c, 0x9f, 0xbe, 0x9e, 0x18, 0x34, 0xbd, 0x26, 0xab, 0xca, 0xbb,
  0xc8, 0x30, 0x34, 0x3e, 0xf4, 0xd0, 0x85, 0xbe, 0xf9, 0xcd, 0xa4, 0xbe,
  0x5f, 0xcc, 0xd4, 0xbe, 0xe5, 0xdb, 0x28, 0xbf, 0x28, 0xda, 0xc2, 0xbe,
  0x46, 0x3b, 0xf0, 0xbe, 0x23, 0xdf, 0xa7, 0xbe, 0x71, 0x73, 0x46, 0xbe,
  0x4f, 0x1f, 0xa8, 0xbe, 0x64, 0x9b, 0xaa, 0xbe, 0xe7, 0x78, 0xbb, 0xbe,
  0x48, 0x50, 0x43, 0xbf, 0x7c, 0xd4, 0x04, 0xbf, 0x66, 0xf0, 0x15, 0xbf,
  0xc1, 0x82, 0xf1, 0xbe, 0x46, 0xd0, 0x98, 0xbe, 0x29, 0xc5, 0x58, 0xbe,
  0xb0, 0xa9, 0xcd, 0xbe, 0xd5, 0x29, 0x83, 0xbe, 0x94, 0x9f, 0x36, 0xbe,
  0x0a, 0xc3, 0x18, 0xbe, 0xd6, 0x9e, 0x68, 0x3d, 0xc5, 0x45, 0x5f, 0x3c,
  0xfd, 0x45, 0xd3, 0x3c, 0xb8, 0x27, 0x95, 0x3d, 0x05, 0x6e, 0x20, 0x3e,
  0xa4, 0x8a, 0x6a, 0xbd, 0x46, 0xa4, 0xa0, 0xbe, 0x01, 0xaa, 0x73, 0xbe,
  0x63, 0x41, 0x71, 0xbe, 0xa5, 0xc8, 0x09, 0xbe, 0xf7, 0x94, 0x82, 0xbe,
  0xc7, 0x20, 0xbe, 0xbd, 0xd8, 0x66, 0x8a, 0xbd, 0x76, 0xde, 0xaa, 0xbe,
  0x27, 0xde, 0x81, 0xbe, 0x3e, 0x3d, 0x3b, 0xbe, 0xec, 0x4b, 0x41, 0xbe,
  0x61, 0xf1, 0xd4, 0xbe, 0x3d, 0xd5, 0x69, 0x3b, 0xc8, 0xe2, 0xae, 0xbe,
  0x6c, 0x90, 0x13, 0xbf, 0x28, 0x63, 0x83, 0x3d, 0xf7, 0x00, 0x81, 0x3c,
  0xec, 0x20, 0x1d, 0x3d, 0xb0, 0x10, 0xb3, 0xbd, 0xbc, 0x61, 0x8d, 0xbe,
  0x9f, 0xd4, 0x4b, 0xbe, 0x08, 0x0b, 0x14, 0xbe, 0x2f, 0x43, 0xf0, 0xbd,
  0x23, 0x6a, 0xa4, 0xbe, 0x36, 0xc2, 0xa0, 0xbe, 0x38, 0x0a, 0x9a, 0xbe,
  0x64, 0x1c, 0xa1, 0xbd, 0x87, 0x7e, 0x5f, 0xbe, 0x67, 0x0f, 0x26, 0xbe,
  0x5e, 0x0e, 0x26, 0xbe, 0xde, 0xfc, 0x79, 0x3d, 0xff, 0x00, 0x46, 0x3d,
  0x05, 0x77, 0xf3, 0xbd, 0x27, 0x50, 0xf0, 0x3d, 0x0b, 0x7b, 0x38, 0x3d,
  0xb7, 0x13, 0x0c, 0x3e, 0xc8, 0x04, 0x85, 0x3d, 0x18, 0xfd, 0x7b, 0xbd,
  0xfe, 0x3e, 0xf2, 0x3c, 0x6f, 0xa9, 0x39, 0x3c, 0x22, 0xd6, 0xc5, 0xbd,
  0xd1, 0x3c, 0x04, 0xbe, 0x4c, 0x81, 0xfa, 0xbc, 0xd0, 0xfc, 0xb7, 0x3d,
  0xf9, 0xda, 0x41, 0xbc, 0xeb, 0xb6, 0x6f, 0xbd, 0xc0, 0x15, 0x77, 0x3d,
  0xfb, 0x1f, 0xdf, 0x3d, 0xed, 0x6e, 0xd4, 0xbd, 0xc8, 0xd7, 0x45, 0x3e,
  0xe7, 0x8b, 0x81, 0x3d, 0xa0, 0xea, 0x4d, 0xbd, 0xa8, 0x06, 0xf5, 0x3d,
  0x11, 0x48, 0x86, 0x3d, 0x03, 0x4e, 0xbd, 0x3d, 0x2c, 0x02, 0x57, 0x3e,
  0x99, 0x06, 0xa7, 0xbe, 0x80, 0x18, 0x25, 0xbe, 0x6f, 0x70, 0x90, 0xbd,
  0xb0, 0x71, 0x5c, 0xbe, 0x44, 0x24, 0x9d, 0xbe, 0x18, 0xa7, 0x01, 0xbe,
  0xa5, 0x5f, 0xdd, 0x3d, 0x01, 0x95, 0xf0, 0x3d, 0x40, 0x39, 0x0a, 0xbe,
  0x1a, 0x0e, 0x09, 0x3d, 0x94, 0x6f, 0xe1, 0x3d, 0x6e, 0x17, 0xdb, 0x3d,
  0xd6, 0x54, 0x14, 0x3e, 0x5a, 0xb2, 0xea, 0x3d, 0x2d, 0xc4, 0x20, 0xbe,
  0x7d, 0x26, 0x31, 0xbe, 0xb2, 0x44, 0x8e, 0xbc, 0xac, 0x2f, 0xb7, 0x3d,
  0x4b, 0xa5, 0xd8, 0x3d, 0x29, 0xf7, 0x66, 0xbc, 0x5b, 0x02, 0x4e, 0xbd,
  0xa1, 0x8f, 0x57, 0xbd, 0x20, 0x7a, 0x45, 0x3e, 0xaa, 0x3f, 0x5f, 0x3d,
  0xbf, 0xf1, 0x82, 0x3e, 0xac, 0x86, 0x89, 0x3c, 0x6d, 0x20, 0xd2, 0xbd,
  0x2b, 0x28, 0xe5, 0x3d, 0xed, 0x82, 0x92, 0xbd, 0xd6, 0x04, 0x9d, 0x3c,
  0x02, 0x68, 0x41, 0x3e, 0xed, 0xba, 0xb4, 0x3d, 0x7b, 0x87, 0xae, 0x3b,
  0x91, 0x22, 0x0e, 0x3d, 0x23, 0x7f, 0xb0, 0xbc, 0x2a, 0xe8, 0x3c, 0x3e,
  0xd1, 0xa9, 0xa3, 0xbd, 0x71, 0x6a, 0x51, 0x3e, 0xa8, 0x9c, 0x07, 0xbe,
  0xdc, 0x8b, 0x2a, 0xbd, 0x7a, 0xe0, 0xb7, 0xbd, 0x01, 0x26, 0x19, 0x3d,
  0x4e, 0x10, 0x62, 0xbe, 0xa6, 0x17, 0xf6, 0x3c, 0xc0, 0x53, 0x36, 0x3d,
  0xc5, 0x29, 0xb5, 0x3c, 0x43, 0x5c, 0xb2, 0xbc, 0x3d, 0x32, 0xe3, 0x3c,
  0x40, 0xae, 0x9f, 0xbd, 0x12, 0x90, 0xd2, 0xbd, 0xde, 0xae, 0x75, 0x3d,
  0xdb, 0x46, 0x92, 0xbe, 0x1c, 0x1b, 0x41, 0xbe, 0xf1, 0x60, 0x8c, 0xbd,
  0x59, 0x5e, 0x89, 0xbe, 0xed, 0xdf, 0x31, 0xbe, 0xa3, 0x94, 0xc3, 0xbe,
  0xb9, 0x54, 0x8b, 0xbe, 0xdc, 0x28, 0xbc, 0xbd, 0xec, 0x3a, 0x87, 0xbe,
  0xfe, 0x36, 0xa4, 0x3d, 0xbd, 0xca, 0x47, 0xbe, 0x86, 0x90, 0x9a, 0x3d,
  0xd8, 0x92, 0x9b, 0x3d, 0x34, 0xab, 0xb2, 0xbd, 0x81, 0x31, 0x8d, 0xbd,
  0x46, 0xd1, 0xad, 0xbd, 0x12, 0x9f, 0x8f, 0xbd, 0x51, 0x1d, 0x67, 0x3e,
  0x5a, 0xde, 0x2c, 0x3e, 0x2c, 0x99, 0xad, 0x3c, 0x35, 0x93, 0x6c, 0x3e,
  0x4f, 0x09, 0xc0, 0x3e, 0xf7, 0x8c, 0x0e, 0x3e, 0x64, 0xd4, 0x58, 0xbf,
  0x62, 0xac, 0x27, 0xbf, 0xff, 0x01, 0x16, 0xbf, 0xdb, 0xd1, 0x00, 0xbf,
  0xca, 0x0d, 0x22, 0xbf, 0x31, 0xc5, 0xe4, 0xbe, 0x85, 0xcc, 0xfe, 0xbe,
  0x6e, 0x76, 0xf9, 0xbe, 0x36, 0xc6, 0x87, 0xbe, 0xcd, 0x3e, 0xc3, 0xbe,
  0xc6, 0x5e, 0xba, 0xbe, 0xbb, 0x56, 0xe3, 0xbe, 0x23, 0xb3, 0x2a, 0xbf,
  0x33, 0x28, 0xdb, 0xbe, 0x93, 0xe8, 0xe1, 0xbe, 0x06, 0x70, 0xb0, 0xbe,
  0xc2, 0x13, 0xa8, 0xbe, 0xc5, 0x6f, 0xc3, 0xbe, 0xfb, 0x8c, 0xe4, 0xbe,
  0x83, 0x42, 0x6e, 0xbe, 0x5c, 0x88, 0xbe, 0xbe, 0x8b, 0xb5, 0x93, 0xbe,
  0x0f, 0x33, 0xd0, 0xbe, 0x69, 0x6b, 0x0f, 0xbf, 0xd1, 0x55, 0xb5, 0xbe,
  0x58, 0x02, 0x84, 0xbe, 0x9b, 0xd0, 0xa7, 0xbe, 0xb0, 0x57, 0xf3, 0xbe,
  0xa4, 0x09, 0x1e, 0xbf, 0x2f, 0x5c, 0x70, 0xbe, 0x61, 0xf8, 0xd4, 0xbe,
  0xe4, 0xff, 0xe9, 0xbe, 0x61, 0x13, 0x8b, 0xbe, 0xac, 0xa6, 0xa8, 0xbe,
  0x75, 0xe2, 0x5a, 0xbe, 0xd9, 0xf2, 0x83, 0xbe, 0x09, 0x51, 0xa5, 0xbe,
  0x4b, 0xb9, 0x75, 0xbe, 0x66, 0x34, 0xc2, 0xbd, 0xae, 0x68, 0x55, 0xbe,
  0x93, 0x57, 0x70, 0x3d, 0x02, 0x5f, 0x08, 0xbe, 0x0c, 0xf4, 0x67, 0x3c,
  0x88, 0xaa, 0xd0, 0xbd, 0xa6, 0xb8, 0x5b, 0x3e, 0x11, 0x11, 0x98, 0x3d,
  0xcb, 0xf0, 0x16, 0x3e, 0x3f, 0x06, 0xa5, 0x3c, 0x37, 0xa8, 0x2c, 0x3e,
  0xd3, 0xeb, 0x0f, 0x3e, 0xae, 0x9b, 0x92, 0x3e, 0xcd, 0x6d, 0x85, 0x3e,
  0x62, 0x1d, 0xc8, 0x3e, 0xb5, 0x96, 0xf4, 0x3e, 0xaa, 0x46, 0x99, 0x3e,
  0x16, 0x17, 0xb7, 0x3e, 0xd7, 0x32, 0x51, 0x3e, 0xce, 0x5c, 0x1d, 0x3f,
  0x58, 0xbb, 0xb7, 0x3e, 0x57, 0x77, 0x17, 0x3f, 0x91, 0xd4, 0x2b, 0x3f,
  0x70, 0x99, 0x09, 0x3f, 0x97, 0xb9, 0x4a, 0x3f, 0x8e, 0xb2, 0x73, 0x3f,
  0xa6, 0xe7, 0x1e, 0x3f, 0x4d, 0x25, 0x1e, 0x3f, 0x23, 0xd5, 0x5f, 0x3f,
  0xdd, 0x91, 0x72, 0x3f, 0xb8, 0x38, 0x62, 0x3f, 0x0c, 0xa3, 0x71, 0x3f,
  0x43, 0xbc, 0x81, 0x3f, 0x19, 0x8c, 0x76, 0x3f, 0xaf, 0x61, 0x84, 0x3f,
  0x05, 0x07, 0x6c, 0x3f, 0x8b, 0x73, 0x36, 0x3f, 0x3a, 0xf8, 0x6c, 0x3f,
  0x42, 0x72, 0x34, 0x3f, 0xa0, 0xd2, 0x46, 0x3f, 0xbb, 0xcd, 0x4e, 0x3f,
  0x63, 0x55, 0x23, 0x3f, 0x74, 0x23, 0x28, 0x3f, 0x3c, 0xf4, 0x14, 0x3f,
  0xfd, 0xbd, 0x33, 0x3f, 0x2f, 0x43, 0x11, 0x3f, 0x76, 0x56, 0x07, 0x3f,
  0xed, 0x52, 0xe4, 0x3e, 0xc8, 0xd7, 0x24, 0x3f, 0x69, 0xb4, 0x03, 0x3f,
  0x13, 0x92, 0x0e, 0x3f, 0x36, 0x1b, 0xec, 0x3e, 0x5b, 0x49, 0x89, 0x3e,
  0xfa, 0xfc, 0xc2, 0x3d, 0x9d, 0x5b, 0x31, 0x3c, 0x14, 0x80, 0xbb, 0x3e,
  0x94, 0x93, 0xf6, 0x3b, 0xfb, 0xf9, 0xad, 0x3e, 0x76, 0xc1, 0xb6, 0x3e,
  0x28, 0x53, 0x50, 0x3e, 0xe6, 0x43, 0x1b, 0x3e, 0x6c, 0x2f, 0xbc, 0x3d,
  0x50, 0x95, 0x5a, 0x3f, 0xbf, 0xa5, 0x77, 0x3f, 0x0f, 0x78, 0x25, 0x3f,
  0x1d, 0xd4, 0x37, 0x3f, 0x5c, 0x34, 0x55, 0x3f, 0x0d, 0x5a, 0x2f, 0x3f,
  0xdf, 0xa6, 0x16, 0x3f, 0xe7, 0xc8, 0x31, 0x3f, 0x2b, 0x68, 0x0d, 0x3f,
  0x28, 0xf9, 0xd3, 0x3e, 0x0d, 0x4f, 0xfb, 0x3e, 0xc6, 0x13, 0xec, 0x3e,
  0xf7, 0x69, 0xe3, 0x3e, 0x10, 0xb1, 0xd6, 0x3e, 0x03, 0x08, 0xde, 0x3e,
  0x3e, 0x38, 0x4b, 0x3e, 0x13, 0xda, 0x8d, 0x3e, 0x8c, 0x44, 0xb8, 0x3d,
  0x18, 0xd9, 0x68, 0x3e, 0x4f, 0xaa, 0x95, 0x3e, 0xea, 0x54, 0x63, 0x3e,
  0x2b, 0xb4, 0x83, 0x3d, 0x12, 0x7d, 0x43, 0xbd, 0xe7, 0x34, 0x55, 0x3d,
  0x0b, 0xa9, 0x30, 0x3c, 0xf5, 0x5b, 0x26, 0x3e, 0xd1, 0xa2, 0xb7, 0x3c,
  0x1f, 0xb6, 0x6f, 0xbe, 0x70, 0xca, 0xc7, 0xbd, 0xeb, 0xba, 0xd6, 0x3c,
  0x05, 0x90, 0xb1, 0xbe, 0x00, 0x2a, 0x9c, 0xbe, 0xd7, 0x5d, 0x20, 0xbe,
  0x16, 0x7f, 0x23, 0xbe, 0x50, 0x79, 0x9c, 0xbe, 0x6b, 0xf0, 0x8b, 0xbe,
  0xfc, 0x9a, 0xc8, 0xbc, 0xbf, 0x0f, 0x5e, 0xbe, 0x47, 0xd3, 0x83, 0xbc,
  0x1d, 0x58, 0x60, 0xbe, 0xa0, 0x4b, 0x89, 0xbd, 0x76, 0xab, 0x5d, 0xbe,
  0x2d, 0x6c, 0x56, 0xbe, 0xfd, 0x65, 0x99, 0xbe, 0xb2, 0xcd, 0x1c, 0xbe,
  0x05, 0x74, 0x0a, 0xbf, 0x7d, 0x53, 0xc2, 0xbe, 0xb1, 0xaa, 0xb7, 0xbe,
  0x7c, 0xfa, 0x9d, 0xbe, 0x31, 0xb3, 0x07, 0xbf, 0xdb, 0x6f, 0x04, 0xbf,
  0x94, 0xed, 0x06, 0xbf, 0x56, 0x0f, 0xed, 0xbe, 0xd6, 0x42, 0x20, 0xbf,
  0x8c, 0x2e, 0x1f, 0xbf, 0x89, 0x5a, 0x18, 0xbf, 0x79, 0x4a, 0x11, 0xbf,
  0x00, 0xba, 0xca, 0xbe, 0xd1, 0xd3, 0x1a, 0xbf, 0x9d, 0x25, 0xbc, 0xbe,
  0x10, 0x67, 0x24, 0xbf, 0xcb, 0x54, 0xea, 0xbe, 0x40, 0x39, 0xf3, 0xbe,
  0xa0, 0x80, 0x00, 0xbf, 0xe7, 0x16, 0x23, 0xbf, 0x5f, 0x80, 0xbc, 0xbe,
  0x05, 0xbb, 0xf6, 0xbe, 0x69, 0x17, 0xe8, 0xbe, 0x56, 0xe6, 0x8b, 0xbe,
  0x76, 0xd8, 0x34, 0xbe, 0x0a, 0xe9, 0x8a, 0xbe, 0x4e, 0x4a, 0xc9, 0xbe,
  0x7d, 0xce, 0x0f, 0xbf, 0xf4, 0x11, 0xdc, 0xbe, 0xbb, 0xfa, 0x4b, 0xbf,
  0x4a, 0xfc, 0x09, 0xbf, 0xc8, 0xc8, 0x46, 0xbf, 0x45, 0xce, 0x44, 0xbf,
  0x19, 0x15, 0x3d, 0xbf, 0xf4, 0x50, 0x18, 0xbf, 0x30, 0x2b, 0x0b, 0xbf,
  0x3b, 0x7a, 0xe2, 0xbe, 0xa2, 0x32, 0x0e, 0xbf, 0x68, 0x33, 0xa3, 0xbe,
  0xf4, 0x48, 0xea, 0xbe, 0x69, 0xe4, 0x8d, 0xbe, 0xf2, 0x4e, 0xd6, 0xbe,
  0x13, 0x77, 0x65, 0xbe, 0xd9, 0x54, 0x66, 0xbe, 0x7c, 0x77, 0x33, 0xbe,
  0x05, 0x88, 0x82, 0xbe, 0x26, 0x30, 0x28, 0x3c, 0x7f, 0xee, 0xba, 0x3d,
  0x1c, 0x3a, 0x93, 0x3e, 0x50, 0x49, 0xea, 0x3c, 0x3a, 0x66, 0xb9, 0xbb,
  0x96, 0x1b, 0x42, 0x3e, 0x44, 0x4d, 0x8f, 0x3d, 0xf9, 0xb7, 0x80, 0x3e,
  0xd9, 0x60, 0x5d, 0x3d, 0xf0, 0x44, 0x07, 0xbf, 0xc9, 0xe0, 0xa1, 0xbe,
  0xca, 0x39, 0x4e, 0xbe, 0x0c, 0xd4, 0xa3, 0xbe, 0x50, 0xef, 0xb3, 0xbe,
  0xf8, 0x72, 0x41, 0xbe, 0x9f, 0xb8, 0xb4, 0xbe, 0x56, 0xf1, 0xa3, 0xbd,
  0xd5, 0x29, 0x25, 0xbe, 0xed, 0xec, 0x85, 0xbe, 0x98, 0xcd, 0x3c, 0xbe,
  0x9d, 0x29, 0xe7, 0xbc, 0x87, 0x9b, 0xb0, 0xbd, 0xc2, 0x01, 0x5d, 0x3d,
  0xc6, 0x9a, 0xa4, 0x3d, 0xee, 0xfc, 0x90, 0xbd, 0xeb, 0x50, 0xa2, 0xbe,
  0x1a, 0xa7, 0x30, 0xbe, 0xd1, 0xc3, 0x22, 0xbe, 0x52, 0xe6, 0xfa, 0x3c,
  0xb4, 0x34, 0x17, 0xbe, 0xb8, 0x4c, 0x0c, 0xbd, 0xb8, 0x4a, 0x32, 0x3e,
  0x15, 0xb4, 0x6f, 0x3d, 0xf9, 0x12, 0x20, 0xbd, 0x34, 0x3e, 0xaf, 0x3d,
  0xcb, 0x6b, 0xf2, 0x3c, 0x5f, 0x96, 0x32, 0x3e, 0x02, 0x22, 0x66, 0x3e,
  0x75, 0x88, 0x98, 0xbd, 0xe8, 0x22, 0xba, 0x3d, 0x4c, 0xba, 0x55, 0xbd,
  0x4c, 0x59, 0x5a, 0x3d, 0xb5, 0xb9, 0x1b, 0xbe, 0xbd, 0x18, 0x64, 0x3d,
  0x65, 0xe9, 0x16, 0x3d, 0x16, 0x52, 0x73, 0x3e, 0xfe, 0x9d, 0xa5, 0x3e,
  0xf2, 0xdd, 0xad, 0x3e, 0x47, 0x8b, 0x88, 0x3e, 0x24, 0x70, 0x91, 0x3e,
  0x53, 0xbc, 0x28, 0x3e, 0xae, 0xfc, 0x5f, 0x3e, 0xa3, 0x1f, 0x5c, 0x3e,
  0xaf, 0x0c, 0x39, 0x3e, 0x63, 0x43, 0xf0, 0x3e, 0x66, 0x35, 0xdf, 0x3d,
  0x74, 0xcc, 0xc7, 0x3e, 0x84, 0x5b, 0xcc, 0x3d, 0x7f, 0xc1, 0xcd, 0x3d,
  0xa7, 0x5b, 0x74, 0x3e, 0x74, 0x08, 0x2b, 0x3e, 0x1d, 0xa6, 0x54, 0x3e,
  0x8e, 0x2b, 0xe4, 0x3e, 0x4c, 0xe1, 0x83, 0x3e, 0x81, 0x65, 0xbf, 0x3e,
  0x59, 0x03, 0xed, 0x3e, 0x15, 0x08, 0x2c, 0x3d, 0xc0, 0x40, 0xb2, 0x3e,
  0xfe, 0xa2, 0x62, 0x3e, 0x04, 0x7c, 0xc7, 0x3e, 0x86, 0x06, 0x9b, 0x3e,
  0x1e, 0x8c, 0x46, 0x3e, 0x41, 0xb0, 0x06, 0x3e, 0xb1, 0xca, 0x69, 0x3e,
  0xd7, 0xa6, 0x8e, 0x3e, 0x3d, 0x99, 0x94, 0x3d, 0x4b, 0x6e, 0x80, 0x3e,
  0x1b, 0xa5, 0x13, 0xbd, 0xf7, 0xbf, 0x07, 0xbe, 0x5f, 0x59, 0xb5, 0xbd,
  0xf4, 0xfc, 0x37, 0x3d, 0x68, 0x96, 0xe8, 0xbd, 0x60, 0x12, 0x01, 0xbe,
  0xbd, 0xbb, 0x8b, 0xbd, 0x53, 0xf2, 0xfc, 0xbc, 0x9c, 0x06, 0xa2, 0xbd,
  0xfd, 0x11, 0xf5, 0xbd, 0xe4, 0x48, 0xd5, 0xbe, 0x91, 0x48, 0x9f, 0xbd,
  0x63, 0xb7, 0x35, 0xbb, 0xca, 0x89, 0x77, 0xbe, 0x84, 0x0d, 0x04, 0xbe,
  0x72, 0x67, 0x76, 0xbe, 0x6c, 0x8d, 0x99, 0xbd, 0x9c, 0xdd, 0x88, 0xbe,
  0x84, 0x15, 0x6e, 0xbe, 0xf9, 0xf8, 0xd6, 0xbd, 0x22, 0xd6, 0x4b, 0xbe,
  0x5a, 0x90, 0x04, 0x3e, 0xbe, 0x13, 0x50, 0x3b, 0x4e, 0xb9, 0xff, 0xbd,
  0xd8, 0xe3, 0x5a, 0x3d, 0xa2, 0x49, 0x4c, 0xbe, 0x24, 0xe9, 0xcf, 0xbd,
  0xa4, 0x5d, 0x53, 0xbe, 0x5a, 0x59, 0x84, 0xbe, 0x85, 0xce, 0xd0, 0xbd,
  0x8d, 0xe1, 0xe0, 0xbd, 0x51, 0x0a, 0x83, 0xbe, 0x25, 0x11, 0xea, 0xbc,
  0x7e, 0xac, 0x36, 0x3e, 0xad, 0xb6, 0x89, 0x3e, 0xc1, 0x80, 0x3d, 0x3e,
  0xee, 0x65, 0x4b, 0x3e, 0xe9, 0xdc, 0xcc, 0xbd, 0x04, 0x45, 0x17, 0xbe,
  0x04, 0xd3, 0xa2, 0x3d, 0x02, 0x18, 0x60, 0x3e, 0xd4, 0xbe, 0x8e, 0x3d,
  0x7c, 0x79, 0x34, 0x3e, 0x12, 0x6e, 0x11, 0x3e, 0xa7, 0x1e, 0x18, 0x3e,
  0x12, 0x77, 0xd7, 0xbc, 0x34, 0xb0, 0x92, 0x3e, 0x1c, 0x18, 0x22, 0x3e,
  0x94, 0x22, 0x20, 0x3d, 0x4b, 0xb6, 0x24, 0x3e, 0x90, 0x72, 0x6a, 0x3d,
  0x18, 0x59, 0xb3, 0x3d, 0x40, 0x2a, 0x42, 0x3e, 0x5f, 0x39, 0xa2, 0x3d,
  0xda, 0x7b, 0xa1, 0xbd, 0x48, 0xcc, 0x12, 0x3e, 0xd8, 0x92, 0x85, 0xbd,
  0xfb, 0x12, 0x04, 0xbe, 0xb9, 0x68, 0x1f, 0x3e, 0xbd, 0x69, 0x88, 0x3e,
  0x41, 0x87, 0x96, 0x3e, 0x56, 0xb3, 0x68, 0x3e, 0xf4, 0xfa, 0x62, 0x3e,
  0x53, 0x1c, 0xee, 0x3c, 0x2c, 0xf4, 0x84, 0xbd, 0x77, 0x60, 0x08, 0xbe,
  0x7c, 0xf1, 0x03, 0xbe, 0x90, 0xfa, 0xde, 0xbd, 0xe5, 0x14, 0x31, 0xbd,
  0x95, 0x03, 0x3f, 0x3e, 0x33, 0xf6, 0x44, 0xbc, 0xaa, 0x23, 0xa9, 0x3d,
  0x38, 0x08, 0x35, 0x3d, 0x8f, 0xfa, 0x6a, 0x3c, 0xaf, 0x9f, 0x2d, 0xbe,
  0x3f, 0x20, 0xff, 0xbc, 0x04, 0x90, 0xb4, 0xbd, 0xec, 0xf1, 0xaf, 0x3c,
  0x28, 0x35, 0x5b, 0xbd, 0xda, 0x9a, 0x51, 0x3d, 0x39, 0x92, 0x2a, 0x3d,
  0x03, 0x8b, 0x69, 0x3d, 0x3f, 0x7f, 0xe8, 0x3d, 0xbd, 0x10, 0x1b, 0x3d,
  0x47, 0x2b, 0x16, 0x3e, 0x47, 0x38, 0x8e, 0x3e, 0x39, 0x69, 0x74, 0x3e,
  0x62, 0x37, 0x54, 0x3e, 0xcf, 0xb4, 0x2b, 0x3e, 0x9d, 0x8f, 0xcd, 0x3d,
  0x71, 0x8e, 0x8a, 0x3e, 0x7b, 0x13, 0xcb, 0x3e, 0x6a, 0x98, 0xc1, 0x3e,
  0xde, 0xf9, 0x8a, 0x3e, 0xb1, 0x86, 0x68, 0x3e, 0xc0, 0x4b, 0xa0, 0x3d,
  0xf2, 0xe1, 0xef, 0x3d, 0xf8, 0xb4, 0x6b, 0x3e, 0x54, 0xa8, 0x3a, 0x3d,
  0xd8, 0xd3, 0x91, 0x3e, 0x6d, 0xce, 0x15, 0x3e, 0x55, 0xd4, 0x84, 0x3e,
  0x81, 0x84, 0xd3, 0x3e, 0x33, 0xed, 0xbf, 0x3e, 0xf6, 0xd4, 0x34, 0x3e,
  0x92, 0x1d, 0xf8, 0x3e, 0x75, 0xf0, 0xee, 0x3e, 0xf7, 0xc1, 0xe6, 0x3e,
  0x84, 0x4d, 0xa0, 0x3e, 0x81, 0xef, 0xd1, 0x3e, 0x1e, 0x42, 0x08, 0x3f,
  0x8e, 0x8e, 0xa6, 0x3e, 0xc7, 0x8e, 0xdd, 0x3e, 0x22, 0x94, 0xab, 0x3e,
  0xbd, 0xf3, 0x88, 0x3e, 0x0f, 0x41, 0x5b, 0x3e, 0x50, 0x73, 0x4c, 0x3e,
  0x92, 0xe0, 0x15, 0x3e, 0xe3, 0x56, 0x26, 0x3e, 0x5d, 0x60, 0xa8, 0x3e,
  0xc5, 0xe1, 0xe4, 0x3e, 0x32, 0x36, 0xb7, 0x3e, 0xab, 0xe8, 0x97, 0x3e,
  0x83, 0x13, 0x8d, 0x3e, 0x80, 0x5b, 0xaa, 0x3e, 0xca, 0x54, 0x21, 0x3e,
  0x13, 0x80, 0xd6, 0x3e, 0xfb, 0xf2, 0xd5, 0x3d, 0xb6, 0x42, 0x69, 0x3e,
  0x05, 0x53, 0x45, 0x3e, 0xe5, 0xd0, 0x72, 0x3d, 0xf1, 0xc6, 0x3b, 0x3e,
  0x06, 0xba, 0x17, 0x3f, 0x19, 0xa6, 0x25, 0x3d, 0xbc, 0xd2, 0x86, 0x3e,
  0x21, 0x61, 0x6e, 0x3e, 0xbc, 0x3f, 0xa6, 0x3d, 0x79, 0x7b, 0x99, 0x3e,
  0x36, 0xe3, 0xa5, 0x3e, 0x26, 0xeb, 0x76, 0x3d, 0x9c, 0xe2, 0x63, 0x3e,
  0xca, 0xe9, 0x45, 0xbd, 0xee, 0x61, 0xdb, 0x3d, 0x72, 0xe0, 0x1e, 0xbe,
  0x3d, 0xa7, 0xd3, 0x3d, 0x1d, 0x2a, 0x0e, 0x3e, 0x28, 0x63, 0x6c, 0x3e,
  0xe2, 0x55, 0xa6, 0x3e, 0xb0, 0x26, 0xd5, 0xbb, 0x9a, 0xe7, 0x93, 0x3d,
  0x21, 0x3b, 0xe4, 0x3c, 0x37, 0x3c, 0x1a, 0xbe, 0x89, 0xf7, 0x2b, 0x3d,
  0x5a, 0x37, 0xbf, 0x3d, 0x90, 0x8b, 0x9f, 0x3e, 0xe2, 0x9b, 0xa0, 0x3e,
  0x45, 0xdd, 0xd7, 0x3d, 0x9e, 0xeb, 0x16, 0x3e, 0xde, 0x22, 0x88, 0x3e,
  0x23, 0x23, 0x71, 0xbb, 0x2f, 0x74, 0x44, 0x3e, 0xc4, 0x37, 0xad, 0x3e,
  0xa2, 0x75, 0xba, 0x3e, 0x3c, 0xc1, 0x5e, 0x3e, 0x30, 0xb8, 0xea, 0x3c,
  0xcb, 0xe2, 0x1d, 0x3e, 0x3a, 0x38, 0x1c, 0xbe, 0xfb, 0x96, 0x07, 0x3b,
  0x9b, 0xee, 0x34, 0x3e, 0x73, 0x8f, 0x85, 0x3e, 0xb5, 0xd5, 0x40, 0x3e,
  0xc5, 0x7b, 0x14, 0x3e, 0x9a, 0x4c, 0xae, 0xbd, 0xd7, 0x87, 0x66, 0xbd,
  0x46, 0x1f, 0xaa, 0xbd, 0xa7, 0xbd, 0x70, 0xbe, 0xaa, 0x88, 0xca, 0xbd,
  0x82, 0x3c, 0x5b, 0x3d, 0xdf, 0x2b, 0x29, 0x3e, 0xca, 0x31, 0x04, 0xbe,
  0x97, 0x96, 0x94, 0xbd, 0xa7, 0x17, 0xfe, 0xbe, 0x8f, 0xdd, 0xd3, 0xbe,
  0xd8, 0x5c, 0x8a, 0xbd, 0xb9, 0x2a, 0xde, 0x3d, 0x7f, 0x53, 0xc1, 0x3d,
  0xd3, 0x5c, 0x7c, 0x3d, 0x84, 0x19, 0x07, 0x3e, 0x7d, 0xb1, 0x02, 0x3e,
  0x76, 0x59, 0x8f, 0x3c, 0xd9, 0xbf, 0xc2, 0xbd, 0x44, 0xdd, 0x99, 0xbd,
  0x7b, 0xcc, 0xce, 0x3c, 0x6d, 0x6d, 0x76, 0x3e, 0xe4, 0xe9, 0x2b, 0xbd,
  0x91, 0xa5, 0x75, 0x3c, 0xbf, 0x81, 0x8c, 0x3c, 0x47, 0x4b, 0x30, 0xbd,
  0xfd, 0x30, 0x72, 0xbe, 0x00, 0x57, 0x29, 0xbe, 0xcb, 0x8e, 0x7c, 0x3d,
  0x0b, 0x29, 0xf7, 0x3d, 0x32, 0x6a, 0xec, 0x3c, 0x4e, 0x4f, 0xfd, 0x3c,
  0x78, 0xd2, 0xde, 0xbc, 0x94, 0xaa, 0xd2, 0xbd, 0x87, 0x45, 0x10, 0x3e,
  0x52, 0xf7, 0xce, 0x3d, 0xe1, 0x07, 0x79, 0x3e, 0x49, 0xd8, 0xcd, 0x3b,
  0x87, 0xd4, 0x9f, 0x3d, 0xcb, 0x5d, 0x25, 0x3e, 0x00, 0x2b, 0xad, 0x3e,
  0xe3, 0x70, 0x44, 0x3d, 0x3d, 0x10, 0x50, 0x3e, 0xf9, 0x7c, 0x8b, 0x3e,
  0x1b, 0x0f, 0xa1, 0x3e, 0x9e, 0x80, 0x6f, 0x3e, 0x1d, 0xf2, 0xaa, 0x3e,
  0x77, 0x8f, 0xa4, 0x3d, 0x51, 0x77, 0x89, 0x3e, 0xa3, 0x70, 0x0d, 0x3e,
  0xba, 0x48, 0x89, 0x3e, 0xa3, 0xaa, 0xe7, 0x3e, 0xc3, 0xf3, 0x19, 0x3f,
  0xbc, 0xbb, 0xe5, 0x3e, 0x9d, 0x44, 0xcd, 0x3e, 0x55, 0x02, 0xbf, 0x3e,
  0x88, 0xd1, 0xcf, 0x3e, 0xf5, 0xb8, 0xca, 0x3e, 0x02, 0x37, 0x73, 0x3e,
  0xa0, 0xb8, 0x9b, 0x3d, 0xa5, 0x9a, 0x49, 0x3c, 0x39, 0xbb, 0xc9, 0x3d,
  0xad, 0x53, 0x64, 0xbc, 0xb2, 0x5e, 0x37, 0xbe, 0x25, 0xd6, 0xeb, 0x3d,
  0xf0, 0xc8, 0xf5, 0x3c, 0x40, 0xa2, 0xf6, 0xbc, 0xee, 0xfe, 0xc8, 0xbd,
  0x34, 0xa5, 0x87, 0x3c, 0x3d, 0xe9, 0x7e, 0x3d, 0x34, 0x48, 0x1b, 0xbe,
  0x32, 0x6e, 0x46, 0x3e, 0x57, 0xcc, 0xb1, 0x3d, 0x5a, 0xe3, 0x71, 0x3e,
  0x7e, 0xd0, 0xb5, 0xbc, 0x91, 0xce, 0x07, 0x3e, 0xde, 0xa5, 0x95, 0xbd,
  0x34, 0x61, 0x61, 0x3e, 0xe9, 0xd6, 0x27, 0x3e, 0xb5, 0x37, 0x86, 0x3e,
  0xc5, 0x07, 0x1b, 0x3e, 0x8e, 0x64, 0x56, 0x3e, 0x2a, 0x2d, 0x6e, 0x3d,
  0x32, 0x69, 0x25, 0x3e, 0x63, 0x8a, 0xa2, 0x3d, 0x12, 0x45, 0x42, 0x3e,
  0x25, 0xb5, 0x07, 0x3e, 0x63, 0xc2, 0x39, 0xbb, 0xa1, 0x3b, 0x4b, 0x3e,
  0xca, 0xa5, 0x10, 0x3e, 0x37, 0x46, 0x1b, 0x3e, 0xa4, 0x0b, 0x05, 0x3d,
  0xcd, 0xb2, 0x87, 0x3e, 0x8c, 0xa9, 0xfe, 0x3d, 0x2d, 0x3d, 0x0e, 0x3e,
  0x32, 0xaf, 0x59, 0x3e, 0xea, 0xc5, 0x1a, 0xbe, 0x47, 0x58, 0x6d, 0xbd,
  0x0a, 0xde, 0x32, 0x3e, 0x96, 0x54, 0x07, 0x3d, 0xe5, 0x9b, 0xe6, 0xbd,
  0x83, 0x26, 0x0c, 0xbe, 0x4c, 0x6d, 0x1d, 0x3c, 0x90, 0x80, 0x91, 0xbe,
  0x2a, 0x0a, 0xa9, 0xbd, 0x63, 0x59, 0x46, 0xbe, 0xdd, 0x52, 0x9c, 0xbc,
  0xcd, 0x9f, 0x33, 0xbe, 0xa6, 0x69, 0x8f, 0x3d, 0x2c, 0x68, 0x23, 0xbe,
  0xdb, 0x02, 0x13, 0xbb, 0x14, 0x6d, 0x38, 0xbc, 0xe8, 0x1b, 0x34, 0xbe,
  0x1b, 0xdd, 0xdd, 0xbd, 0x38, 0x86, 0x8f, 0xbe, 0xe1, 0x8a, 0x46, 0xbe,
  0xd4, 0x82, 0x36, 0x3d, 0x32, 0xb3, 0x3c, 0xbd, 0x0f, 0xfe, 0x93, 0xbe,
  0x4e, 0xab, 0x4a, 0xbe, 0xa5, 0xec, 0x50, 0xbe, 0x11, 0x6a, 0x7d, 0xbe,
  0x65, 0x52, 0xe2, 0xbd, 0x79, 0xf8, 0x0b, 0xbe, 0x8f, 0xb5, 0x2c, 0xbe,
  0x3a, 0xc5, 0x9e, 0xbd, 0x07, 0x9b, 0xa4, 0x3d, 0xaf, 0x61, 0x1b, 0xbe,
  0xce, 0x77, 0x07, 0xbe, 0x15, 0x7a, 0x9c, 0x3d, 0xa8, 0xcf, 0x94, 0x3d,
  0xb4, 0x91, 0x44, 0x3d, 0xd0, 0xcc, 0x09, 0x3d, 0x80, 0x90, 0x5e, 0xbe,
  0x1e, 0x20, 0xb7, 0xbd, 0x40, 0xfb, 0x0f, 0xbe, 0xdb, 0x02, 0x10, 0xbd,
  0xaa, 0xc7, 0x9e, 0x3d, 0xce, 0x9e, 0x19, 0x3d, 0x08, 0x09, 0x31, 0x3e,
  0xbf, 0x81, 0x95, 0x3e, 0xc9, 0xd1, 0xae, 0x3e, 0x6f, 0xb9, 0x94, 0x3e,
  0xce, 0xbc, 0x29, 0x3e, 0x4c, 0x43, 0xfe, 0x3d, 0x47, 0x28, 0x8e, 0x3d,
  0x93, 0xdb, 0x8c, 0x3e, 0x11, 0xa9, 0x57, 0x3e, 0x51, 0xaa, 0x76, 0x3d,
  0xa9, 0xf5, 0xf4, 0x3d, 0x14, 0x36, 0xc5, 0x3e, 0xb6, 0x68, 0xeb, 0x3d,
  0x21, 0xcf, 0x88, 0x3e, 0x70, 0x54, 0xd0, 0x3e, 0xe0, 0x13, 0xd7, 0x3c,
  0xfe, 0xb7, 0x1b, 0x3e, 0x2b, 0x74, 0x11, 0x3e, 0x17, 0xa8, 0x6e, 0x3e,
  0xd2, 0xd1, 0xb3, 0x3e, 0x12, 0x98, 0x9d, 0x3d, 0x3d, 0xac, 0x82, 0xbf,
  0xa0, 0x2b, 0x07, 0xbf, 0x08, 0xcd, 0xeb, 0xbe, 0x45, 0x17, 0x16, 0xbf,
  0x34, 0x9e, 0xaa, 0xbe, 0xd9, 0x0a, 0x05, 0xbf, 0xde, 0x2d, 0x0b, 0xbf,
  0x0a, 0x24, 0x1a, 0xbf, 0x8a, 0x53, 0x32, 0xbf, 0x38, 0x18, 0xa2, 0xbe,
  0x13, 0x0f, 0x24, 0xbe, 0x95, 0x41, 0x9e, 0xbe, 0x89, 0xd1, 0x43, 0xbe,
  0x98, 0x26, 0x1d, 0xbe, 0xbc, 0xf8, 0xa0, 0xbe, 0x10, 0xba, 0x63, 0xbe,
  0x0a, 0xb7, 0x6c, 0xbe, 0x86, 0x3f, 0x0c, 0x3d, 0x39, 0x83, 0xb0, 0x3e,
  0x72, 0x99, 0x28, 0x3e, 0x15, 0x27, 0x56, 0x3e, 0x57, 0x8f, 0x46, 0x3e,
  0x78, 0x84, 0x45, 0x3e, 0x59, 0x37, 0x56, 0x3e, 0x3a, 0xe0, 0xd5, 0x3e,
  0x87, 0x90, 0xfc, 0x3e, 0xa4, 0x3a, 0x0d, 0x3f, 0x1e, 0x27, 0xfe, 0x3e,
  0x95, 0xb1, 0x19, 0x3f, 0x66, 0xe2, 0xe2, 0x3e, 0x76, 0x07, 0x0c, 0x3f,
  0x45, 0x29, 0x08, 0x3f, 0x3c, 0xb6, 0x12, 0x3f, 0xa2, 0x82, 0x65, 0x3f,
  0xc2, 0xf2, 0x44, 0x3f, 0x6f, 0xa8, 0x54, 0x3f, 0x2e, 0x8c, 0x35, 0x3f,
  0xb7, 0x6d, 0x0f, 0x3f, 0x8c, 0x35, 0x35, 0x3f, 0xcd, 0xca, 0x3e, 0x3f,
  0xdf, 0x60, 0x40, 0x3f, 0xea, 0x2f, 0x51, 0x3f, 0x33, 0x2c, 0x68, 0x3f,
  0xe5, 0x89, 0x3b, 0x3f, 0x71, 0xcc, 0x62, 0x3f, 0x25, 0xed, 0x61, 0x3f,
  0x8b, 0x66, 0x2b, 0x3f, 0xc6, 0x60, 0x56, 0x3f, 0x32, 0x83, 0x2c, 0x3f,
  0x95, 0x0d, 0x79, 0x3f, 0x15, 0x74, 0x6e, 0x3f, 0x20, 0x1d, 0x54, 0x3f,
  0x90, 0x88, 0x08, 0x3f, 0x15, 0x49, 0xea, 0x3e, 0x87, 0xc1, 0x0a, 0x3f,
  0x6c, 0x97, 0xee, 0x3e, 0xd7, 0x3a, 0xfd, 0x3e, 0xab, 0xe2, 0xe0, 0x3e,
  0x5e, 0x63, 0x49, 0x3f, 0xa7, 0xe8, 0x25, 0x3f, 0xf8, 0xcd, 0xd5, 0x3e,
  0xe6, 0x5c, 0x31, 0x3e, 0x65, 0xe3, 0x9c, 0x3d, 0x5f, 0x6c, 0x4b, 0xbd,
  0x36, 0xb8, 0xa4, 0xbc, 0x8f, 0xfc, 0x56, 0x3e, 0x1c, 0x53, 0x82, 0x3e,
  0x35, 0x66, 0xee, 0x3d, 0x0b, 0x98, 0x27, 0x3c, 0x5a, 0x14, 0xad, 0xbe,
  0x28, 0x02, 0x1e, 0xbf, 0x4a, 0x10, 0x2e, 0xbf, 0x9d, 0x47, 0xf4, 0xbe,
  0x37, 0x2a, 0xcb, 0xbe, 0xb6, 0x89, 0x07, 0xbf, 0x11, 0xfd, 0x42, 0xbf,
  0xd5, 0xf9, 0x21, 0xbf, 0x40, 0xad, 0x29, 0xbf, 0xd6, 0xd6, 0x3f, 0xbf,
  0x57, 0x34, 0x3f, 0xbf, 0x03, 0xc2, 0x17, 0xbf, 0xad, 0x9d, 0x32, 0xbf,
  0xcb, 0xc5, 0xda, 0xbe, 0x29, 0xac, 0x3a, 0xbf, 0x6c, 0xe8, 0x6d, 0xbf,
  0x5e, 0xfe, 0x4c, 0xbf, 0x40, 0xa2, 0x1b, 0xbf, 0xaf, 0x10, 0x00, 0xbf,
  0xbd, 0x5d, 0x23, 0xbf, 0x5a, 0x01, 0x4e, 0xbf, 0x1f, 0x05, 0x58, 0xbf,
  0xec, 0x6f, 0x74, 0xbf, 0xa7, 0x29, 0x73, 0xbf, 0x15, 0x36, 0x6e, 0xbf,
  0xaf, 0xa8, 0x55, 0xbf, 0xc7, 0xc6, 0x15, 0xbf, 0xc5, 0xd0, 0x00, 0xbf,
  0xa3, 0xaf, 0x30, 0xbf, 0xb3, 0xee, 0x26, 0xbf, 0x9b, 0x06, 0xd7, 0xbe,
  0xf6, 0xfe, 0xff, 0xff, 0x04, 0x00, 0x00, 0x00, 0x30, 0x00, 0x00, 0x00,
  0xb3, 0xee, 0xca, 0x3d, 0xc4, 0x4e, 0xb6, 0xbe, 0xfc, 0xe3, 0x1d, 0x3e,
  0xf5, 0x80, 0xb4, 0x3d, 0x18, 0xaf, 0x69, 0x3f, 0xfd, 0x66, 0x96, 0xbe,
  0x88, 0x94, 0x68, 0xbe, 0x0f, 0x83, 0xaa, 0xbe, 0x6d, 0xc9, 0x35, 0xbe,
  0x1b, 0x87, 0xb2, 0x3e, 0xd4, 0xb6, 0xd4, 0x3e, 0x16, 0xef, 0x23, 0xbe,
  0x32, 0xff, 0xff, 0xff, 0x04, 0x00, 0x00, 0x00, 0x10, 0x00, 0x00, 0x00,
  0xfb, 0xc5, 0x88, 0x3f, 0x96, 0x7f, 0x03, 0x3e, 0x1b, 0xc0, 0x0c, 0x3f,
  0xe4, 0xeb, 0xa6, 0xbd, 0x4e, 0xff, 0xff, 0xff, 0x04, 0x00, 0x00, 0x00,
  0x10, 0x00, 0x00, 0x00, 0x4a, 0x91, 0x7b, 0x3e, 0x89, 0xb7, 0xd0, 0xbd,
  0xd4, 0x11, 0x5e, 0x3f, 0x0a, 0x63, 0x6f, 0xbf, 0x40, 0xfa, 0xff, 0xff,
  0x44, 0xfa, 0xff, 0xff, 0x0f, 0x00, 0x00, 0x00, 0x4d, 0x4c, 0x49, 0x52,
  0x20, 0x43, 0x6f, 0x6e, 0x76, 0x65, 0x72, 0x74, 0x65, 0x64, 0x2e, 0x00,
  0x01, 0x00, 0x00, 0x00, 0x14, 0x00, 0x00, 0x00, 0x00, 0x00, 0x0e, 0x00,
  0x18, 0x00, 0x14, 0x00, 0x10, 0x00, 0x0c, 0x00, 0x08, 0x00, 0x04, 0x00,
  0x0e, 0x00, 0x00, 0x00, 0x14, 0x00, 0x00, 0x00, 0x1c, 0x00, 0x00, 0x00,
  0x24, 0x01, 0x00, 0x00, 0x28, 0x01, 0x00, 0x00, 0x2c, 0x01, 0x00, 0x00,
  0x04, 0x00, 0x00, 0x00, 0x6d, 0x61, 0x69, 0x6e, 0x00, 0x00, 0x00, 0x00,
  0x04, 0x00, 0x00, 0x00, 0xcc, 0x00, 0x00, 0x00, 0x84, 0x00, 0x00, 0x00,
  0x50, 0x00, 0x00, 0x00, 0x14, 0x00, 0x00, 0x00, 0x00, 0x00, 0x0e, 0x00,
  0x1a, 0x00, 0x14, 0x00, 0x10, 0x00, 0x0c, 0x00, 0x0b, 0x00, 0x04, 0x00,
  0x0e, 0x00, 0x00, 0x00, 0x1c, 0x00, 0x00, 0x00, 0x00, 0x00, 0x00, 0x09,
  0x1c, 0x00, 0x00, 0x00, 0x20, 0x00, 0x00, 0x00, 0x01, 0x00, 0x00, 0x00,
  0x00, 0x00, 0x06, 0x00, 0x08, 0x00, 0x04, 0x00, 0x06, 0x00, 0x00, 0x00,
  0x00, 0x00, 0x80, 0x3f, 0x01, 0x00, 0x00, 0x00, 0x0a, 0x00, 0x00, 0x00,
  0x01, 0x00, 0x00, 0x00, 0x09, 0x00, 0x00, 0x00, 0x9a, 0xff, 0xff, 0xff,
  0x10, 0x00, 0x00, 0x00, 0x00, 0x00, 0x00, 0x08, 0x0c, 0x00, 0x00, 0x00,
  0x10, 0x00, 0x00, 0x00, 0x08, 0xfb, 0xff, 0xff, 0x01, 0x00, 0x00, 0x00,
  0x09, 0x00, 0x00, 0x00, 0x03, 0x00, 0x00, 0x00, 0x08, 0x00, 0x00, 0x00,
  0x06, 0x00, 0x00, 0x00, 0x01, 0x00, 0x00, 0x00, 0xca, 0xff, 0xff, 0xff,
  0x10, 0x00, 0x00, 0x00, 0x00, 0x00, 0x00, 0x08, 0x10, 0x00, 0x00, 0x00,
  0x14, 0x00, 0x00, 0x00, 0xba, 0xff, 0xff, 0xff, 0x00, 0x00, 0x00, 0x01,
  0x01, 0x00, 0x00, 0x00, 0x08, 0x00, 0x00, 0x00, 0x03, 0x00, 0x00, 0x00,
  0x07, 0x00, 0x00, 0x00, 0x05, 0x00, 0x00, 0x00, 0x02, 0x00, 0x00, 0x00,
  0x00, 0x00, 0x0e, 0x00, 0x16, 0x00, 0x00, 0x00, 0x10, 0x00, 0x0c, 0x00,
  0x0b, 0x00, 0x04, 0x00, 0x0e, 0x00, 0x00, 0x00, 0x18, 0x00, 0x00, 0x00,
  0x00, 0x00, 0x00, 0x08, 0x18, 0x00, 0x00, 0x00, 0x1c, 0x00, 0x00, 0x00,
  0x00, 0x00, 0x06, 0x00, 0x08, 0x00, 0x07, 0x00, 0x06, 0x00, 0x00, 0x00,
  0x00, 0x00, 0x00, 0x01, 0x01, 0x00, 0x00, 0x00, 0x07, 0x00, 0x00, 0x00,
  0x03, 0x00, 0x00, 0x00, 0x00, 0x00, 0x00, 0x00, 0x04, 0x00, 0x00, 0x00,
  0x03, 0x00, 0x00, 0x00, 0x01, 0x00, 0x00, 0x00, 0x0a, 0x00, 0x00, 0x00,
  0x01, 0x00, 0x00, 0x00, 0x00, 0x00, 0x00, 0x00, 0x0b, 0x00, 0x00, 0x00,
  0x20, 0x04, 0x00, 0x00, 0xb0, 0x03, 0x00, 0x00, 0x40, 0x03, 0x00, 0x00,
  0xe8, 0x02, 0x00, 0x00, 0x9c, 0x02, 0x00, 0x00, 0x50, 0x02, 0x00, 0x00,
  0x04, 0x02, 0x00, 0x00, 0x70, 0x01, 0x00, 0x00, 0xdc, 0x00, 0x00, 0x00,
  0x60, 0x00, 0x00, 0x00, 0x04, 0x00, 0x00, 0x00, 0x22, 0xfc, 0xff, 0xff,
  0x00, 0x00, 0x00, 0x01, 0x14, 0x00, 0x00, 0x00, 0x1c, 0x00, 0x00, 0x00,
  0x1c, 0x00, 0x00, 0x00, 0x0b, 0x00, 0x00, 0x00, 0x34, 0x00, 0x00, 0x00,
  0x02, 0x00, 0x00, 0x00, 0xff, 0xff, 0xff, 0xff, 0x04, 0x00, 0x00, 0x00,
  0x0c, 0xfc, 0xff, 0xff, 0x19, 0x00, 0x00, 0x00, 0x53, 0x74, 0x61, 0x74,
  0x65, 0x66, 0x75, 0x6c, 0x50, 0x61, 0x72, 0x74, 0x69, 0x74, 0x69, 0x6f,
  0x6e, 0x65, 0x64, 0x43, 0x61, 0x6c, 0x6c, 0x3a, 0x30, 0x00, 0x00, 0x00,
  0x02, 0x00, 0x00, 0x00, 0x01, 0x00, 0x00, 0x00, 0x04, 0x00, 0x00, 0x00,
  0x7a, 0xfc, 0xff, 0xff, 0x00, 0x00, 0x00, 0x01, 0x14, 0x00, 0x00, 0x00,
  0x1c, 0x00, 0x00, 0x00, 0x1c, 0x00, 0x00, 0x00, 0x0a, 0x00, 0x00, 0x00,
  0x54, 0x00, 0x00, 0x00, 0x02, 0x00, 0x00, 0x00, 0xff, 0xff, 0xff, 0xff,
  0x04, 0x00, 0x00, 0x00, 0x64, 0xfc, 0xff, 0xff, 0x38, 0x00, 0x00, 0x00,
  0x73, 0x65, 0x71, 0x75, 0x65, 0x6e, 0x74, 0x69, 0x61, 0x6c, 0x5f, 0x32,
  0x2f, 0x64, 0x65, 0x6e, 0x73, 0x65, 0x5f, 0x38, 0x2f, 0x4d, 0x61, 0x74,
  0x4d, 0x75, 0x6c, 0x3b, 0x73, 0x65, 0x71, 0x75, 0x65, 0x6e, 0x74, 0x69,
  0x61, 0x6c, 0x5f, 0x32, 0x2f, 0x64, 0x65, 0x6e, 0x73, 0x65, 0x5f, 0x38,
  0x2f, 0x42, 0x69, 0x61, 0x73, 0x41, 0x64, 0x64, 0x00, 0x00, 0x00, 0x00,
  0x02, 0x00, 0x00, 0x00, 0x01, 0x00, 0x00, 0x00, 0x04, 0x00, 0x00, 0x00,
  0xf2, 0xfc, 0xff, 0xff, 0x00, 0x00, 0x00, 0x01, 0x14, 0x00, 0x00, 0x00,
  0x1c, 0x00, 0x00, 0x00, 0x1c, 0x00, 0x00, 0x00, 0x09, 0x00, 0x00, 0x00,
  0x6c, 0x00, 0x00, 0x00, 0x02, 0x00, 0x00, 0x00, 0xff, 0xff, 0xff, 0xff,
  0x04, 0x00, 0x00, 0x00, 0xdc, 0xfc, 0xff, 0xff, 0x52, 0x00, 0x00, 0x00,
  0x73, 0x65, 0x71, 0x75, 0x65, 0x6e, 0x74, 0x69, 0x61, 0x6c, 0x5f, 0x32,
  0x2f, 0x64, 0x65, 0x6e, 0x73, 0x65, 0x5f, 0x37, 0x2f, 0x4d, 0x61, 0x74,
  0x4d, 0x75, 0x6c, 0x3b, 0x73, 0x65, 0x71, 0x75, 0x65, 0x6e, 0x74, 0x69,
  0x61, 0x6c, 0x5f, 0x32, 0x2f, 0x64, 0x65, 0x6e, 0x73, 0x65, 0x5f, 0x37,
  0x2f, 0x52, 0x65, 0x6c, 0x75, 0x3b, 0x73, 0x65, 0x71, 0x75, 0x65, 0x6e,
  0x74, 0x69, 0x61, 0x6c, 0x5f, 0x32, 0x2f, 0x64, 0x65, 0x6e, 0x73, 0x65,
  0x5f, 0x37, 0x2f, 0x42, 0x69, 0x61, 0x73, 0x41, 0x64, 0x64, 0x00, 0x00,
  0x02, 0x00, 0x00, 0x00, 0x01, 0x00, 0x00, 0x00, 0x04, 0x00, 0x00, 0x00,
  0x82, 0xfd, 0xff, 0xff, 0x00, 0x00, 0x00, 0x01, 0x14, 0x00, 0x00, 0x00,
  0x1c, 0x00, 0x00, 0x00, 0x1c, 0x00, 0x00, 0x00, 0x08, 0x00, 0x00, 0x00,
  0x6c, 0x00, 0x00, 0x00, 0x02, 0x00, 0x00, 0x00, 0xff, 0xff, 0xff, 0xff,
  0x0c, 0x00, 0x00, 0x00, 0x6c, 0xfd, 0xff, 0xff, 0x52, 0x00, 0x00, 0x00,
  0x73, 0x65, 0x71, 0x75, 0x65, 0x6e, 0x74, 0x69, 0x61, 0x6c, 0x5f, 0x32,
  0x2f, 0x64, 0x65, 0x6e, 0x73, 0x65, 0x5f, 0x36, 0x2f, 0x4d, 0x61, 0x74,
  0x4d, 0x75, 0x6c, 0x3b, 0x73, 0x65, 0x71, 0x75, 0x65, 0x6e, 0x74, 0x69,
  0x61, 0x6c, 0x5f, 0x32, 0x2f, 0x64, 0x65, 0x6e, 0x73, 0x65, 0x5f, 0x36,
  0x2f, 0x52, 0x65, 0x6c, 0x75, 0x3b, 0x73, 0x65, 0x71, 0x75, 0x65, 0x6e,
  0x74, 0x69, 0x61, 0x6c, 0x5f, 0x32, 0x2f, 0x64, 0x65, 0x6e, 0x73, 0x65,
  0x5f, 0x36, 0x2f, 0x42, 0x69, 0x61, 0x73, 0x41, 0x64, 0x64, 0x00, 0x00,
  0x02, 0x00, 0x00, 0x00, 0x01, 0x00, 0x00, 0x00, 0x0c, 0x00, 0x00, 0x00,
  0x7e, 0xfe, 0xff, 0xff, 0x00, 0x00, 0x00, 0x01, 0x10, 0x00, 0x00, 0x00,
  0x10, 0x00, 0x00, 0x00, 0x07, 0x00, 0x00, 0x00, 0x28, 0x00, 0x00, 0x00,
  0xec, 0xfd, 0xff, 0xff, 0x1b, 0x00, 0x00, 0x00, 0x73, 0x65, 0x71, 0x75,
  0x65, 0x6e, 0x74, 0x69, 0x61, 0x6c, 0x5f, 0x32, 0x2f, 0x64, 0x65, 0x6e,
  0x73, 0x65, 0x5f, 0x38, 0x2f, 0x4d, 0x61, 0x74, 0x4d, 0x75, 0x6c, 0x00,
  0x02, 0x00, 0x00, 0x00, 0x04, 0x00, 0x00, 0x00, 0x04, 0x00, 0x00, 0x00,
  0xc6, 0xfe, 0xff, 0xff, 0x00, 0x00, 0x00, 0x01, 0x10, 0x00, 0x00, 0x00,
  0x10, 0x00, 0x00, 0x00, 0x06, 0x00, 0x00, 0x00, 0x28, 0x00, 0x00, 0x00,
  0x34, 0xfe, 0xff, 0xff, 0x1b, 0x00, 0x00, 0x00, 0x73, 0x65, 0x71, 0x75,
  0x65, 0x6e, 0x74, 0x69, 0x61, 0x6c, 0x5f, 0x32, 0x2f, 0x64, 0x65, 0x6e,
  0x73, 0x65, 0x5f, 0x37, 0x2f, 0x4d, 0x61, 0x74, 0x4d, 0x75, 0x6c, 0x00,
  0x02, 0x00, 0x00, 0x00, 0x04, 0x00, 0x00, 0x00, 0x0c, 0x00, 0x00, 0x00,
  0x0e, 0xff, 0xff, 0xff, 0x00, 0x00, 0x00, 0x01, 0x10, 0x00, 0x00, 0x00,
  0x10, 0x00, 0x00, 0x00, 0x05, 0x00, 0x00, 0x00, 0x28, 0x00, 0x00, 0x00,
  0x7c, 0xfe, 0xff, 0xff, 0x1b, 0x00, 0x00, 0x00, 0x73, 0x65, 0x71, 0x75,
  0x65, 0x6e, 0x74, 0x69, 0x61, 0x6c, 0x5f, 0x32, 0x2f, 0x64, 0x65, 0x6e,
  0x73, 0x65, 0x5f, 0x36, 0x2f, 0x4d, 0x61, 0x74, 0x4d, 0x75, 0x6c, 0x00,
  0x02, 0x00, 0x00, 0x00, 0x0c, 0x00, 0x00, 0x00, 0xc8, 0x00, 0x00, 0x00,
  0x56, 0xff, 0xff, 0xff, 0x00, 0x00, 0x00, 0x01, 0x10, 0x00, 0x00, 0x00,
  0x10, 0x00, 0x00, 0x00, 0x04, 0x00, 0x00, 0x00, 0x38, 0x00, 0x00, 0x00,
  0xc4, 0xfe, 0xff, 0xff, 0x2b, 0x00, 0x00, 0x00, 0x73, 0x65, 0x71, 0x75,
  0x65, 0x6e, 0x74, 0x69, 0x61, 0x6c, 0x5f, 0x32, 0x2f, 0x64, 0x65, 0x6e,
  0x73, 0x65, 0x5f, 0x36, 0x2f, 0x42, 0x69, 0x61, 0x73, 0x41, 0x64, 0x64,
  0x2f, 0x52, 0x65, 0x61, 0x64, 0x56, 0x61, 0x72, 0x69, 0x61, 0x62, 0x6c,
  0x65, 0x4f, 0x70, 0x00, 0x01, 0x00, 0x00, 0x00, 0x0c, 0x00, 0x00, 0x00,
  0xaa, 0xff, 0xff, 0xff, 0x00, 0x00, 0x00, 0x01, 0x10, 0x00, 0x00, 0x00,
  0x10, 0x00, 0x00, 0x00, 0x03, 0x00, 0x00, 0x00, 0x38, 0x00, 0x00, 0x00,
  0x18, 0xff, 0xff, 0xff, 0x2b, 0x00, 0x00, 0x00, 0x73, 0x65, 0x71, 0x75,
  0x65, 0x6e, 0x74, 0x69, 0x61, 0x6c, 0x5f, 0x32, 0x2f, 0x64, 0x65, 0x6e,
  0x73, 0x65, 0x5f, 0x37, 0x2f, 0x42, 0x69, 0x61, 0x73, 0x41, 0x64, 0x64,
  0x2f, 0x52, 0x65, 0x61, 0x64, 0x56, 0x61, 0x72, 0x69, 0x61, 0x62, 0x6c,
  0x65, 0x4f, 0x70, 0x00, 0x01, 0x00, 0x00, 0x00, 0x04, 0x00, 0x00, 0x00,
  0x00, 0x00, 0x16, 0x00, 0x18, 0x00, 0x14, 0x00, 0x00, 0x00, 0x10, 0x00,
  0x0c, 0x00, 0x08, 0x00, 0x00, 0x00, 0x00, 0x00, 0x00, 0x00, 0x07, 0x00,
  0x16, 0x00, 0x00, 0x00, 0x00, 0x00, 0x00, 0x01, 0x10, 0x00, 0x00, 0x00,
  0x10, 0x00, 0x00, 0x00, 0x02, 0x00, 0x00, 0x00, 0x38, 0x00, 0x00, 0x00,
  0x84, 0xff, 0xff, 0xff, 0x2b, 0x00, 0x00, 0x00, 0x73, 0x65, 0x71, 0x75,
  0x65, 0x6e, 0x74, 0x69, 0x61, 0x6c, 0x5f, 0x32, 0x2f, 0x64, 0x65, 0x6e,
  0x73, 0x65, 0x5f, 0x38, 0x2f, 0x42, 0x69, 0x61, 0x73, 0x41, 0x64, 0x64,
  0x2f, 0x52, 0x65, 0x61, 0x64, 0x56, 0x61, 0x72, 0x69, 0x61, 0x62, 0x6c,
  0x65, 0x4f, 0x70, 0x00, 0x01, 0x00, 0x00, 0x00, 0x04, 0x00, 0x00, 0x00,
  0x00, 0x00, 0x16, 0x00, 0x1c, 0x00, 0x18, 0x00, 0x00, 0x00, 0x14, 0x00,
  0x10, 0x00, 0x0c, 0x00, 0x00, 0x00, 0x00, 0x00, 0x08, 0x00, 0x07, 0x00,
  0x16, 0x00, 0x00, 0x00, 0x00, 0x00, 0x00, 0x01, 0x14, 0x00, 0x00, 0x00,
  0x20, 0x00, 0x00, 0x00, 0x20, 0x00, 0x00, 0x00, 0x01, 0x00, 0x00, 0x00,
  0x3c, 0x00, 0x00, 0x00, 0x02, 0x00, 0x00, 0x00, 0xff, 0xff, 0xff, 0xff,
  0xc8, 0x00, 0x00, 0x00, 0x04, 0x00, 0x04, 0x00, 0x04, 0x00, 0x00, 0x00,
  0x1f, 0x00, 0x00, 0x00, 0x73, 0x65, 0x72, 0x76, 0x69, 0x6e, 0x67, 0x5f,
  0x64, 0x65, 0x66, 0x61, 0x75, 0x6c, 0x74, 0x5f, 0x64, 0x65, 0x6e, 0x73,
  0x65, 0x5f, 0x36, 0x5f, 0x69, 0x6e, 0x70, 0x75, 0x74, 0x3a, 0x30, 0x00,
  0x02, 0x00, 0x00, 0x00, 0x01, 0x00, 0x00, 0x00, 0xc8, 0x00, 0x00, 0x00,
  0x02, 0x00, 0x00, 0x00, 0x20, 0x00, 0x00, 0x00, 0x04, 0x00, 0x00, 0x00,
  0xf4, 0xff, 0xff, 0xff, 0x19, 0x00, 0x00, 0x00, 0x00, 0x00, 0x00, 0x19,
  0x0c, 0x00, 0x0c, 0x00, 0x0b, 0x00, 0x00, 0x00, 0x00, 0x00, 0x04, 0x00,
  0x0c, 0x00, 0x00, 0x00, 0x09, 0x00, 0x00, 0x00, 0x00, 0x00, 0x00, 0x09
};