unsigned char dense_model_300_tflite[] = {
  0x1c, 0x00, 0x00, 0x00, 0x54, 0x46, 0x4c, 0x33, 0x14, 0x00, 0x20, 0x00,
  0x1c, 0x00, 0x18, 0x00, 0x14, 0x00, 0x10, 0x00, 0x0c, 0x00, 0x00, 0x00,
  0x08, 0x00, 0x04, 0x00, 0x14, 0x00, 0x00, 0x00, 0x1c, 0x00, 0x00, 0x00,
  0x98, 0x00, 0x00, 0x00, 0xf0, 0x00, 0x00, 0x00, 0xd4, 0x73, 0x00, 0x00,
  0xe4, 0x73, 0x00, 0x00, 0xe0, 0x79, 0x00, 0x00, 0x03, 0x00, 0x00, 0x00,
  0x01, 0x00, 0x00, 0x00, 0x10, 0x00, 0x00, 0x00, 0x00, 0x00, 0x0a, 0x00,
  0x10, 0x00, 0x0c, 0x00, 0x08, 0x00, 0x04, 0x00, 0x0a, 0x00, 0x00, 0x00,
  0x0c, 0x00, 0x00, 0x00, 0x1c, 0x00, 0x00, 0x00, 0x3c, 0x00, 0x00, 0x00,
  0x0f, 0x00, 0x00, 0x00, 0x73, 0x65, 0x72, 0x76, 0x69, 0x6e, 0x67, 0x5f,
  0x64, 0x65, 0x66, 0x61, 0x75, 0x6c, 0x74, 0x00, 0x01, 0x00, 0x00, 0x00,
  0x04, 0x00, 0x00, 0x00, 0x90, 0xff, 0xff, 0xff, 0x0a, 0x00, 0x00, 0x00,
  0x04, 0x00, 0x00, 0x00, 0x08, 0x00, 0x00, 0x00, 0x64, 0x65, 0x6e, 0x73,
  0x65, 0x5f, 0x31, 0x34, 0x00, 0x00, 0x00, 0x00, 0x01, 0x00, 0x00, 0x00,
  0x04, 0x00, 0x00, 0x00, 0x12, 0x8c, 0xff, 0xff, 0x04, 0x00, 0x00, 0x00,
  0x0e, 0x00, 0x00, 0x00, 0x64, 0x65, 0x6e, 0x73, 0x65, 0x5f, 0x31, 0x32,
  0x5f, 0x69, 0x6e, 0x70, 0x75, 0x74, 0x00, 0x00, 0x02, 0x00, 0x00, 0x00,
  0x34, 0x00, 0x00, 0x00, 0x04, 0x00, 0x00, 0x00, 0xdc, 0xff, 0xff, 0xff,
  0x0d, 0x00, 0x00, 0x00, 0x04, 0x00, 0x00, 0x00, 0x13, 0x00, 0x00, 0x00,
  0x43, 0x4f, 0x4e, 0x56, 0x45, 0x52, 0x53, 0x49, 0x4f, 0x4e, 0x5f, 0x4d,
  0x45, 0x54, 0x41, 0x44, 0x41, 0x54, 0x41, 0x00, 0x08, 0x00, 0x0c, 0x00,
  0x08, 0x00, 0x04, 0x00, 0x08, 0x00, 0x00, 0x00, 0x0c, 0x00, 0x00, 0x00,
  0x04, 0x00, 0x00, 0x00, 0x13, 0x00, 0x00, 0x00, 0x6d, 0x69, 0x6e, 0x5f,
  0x72, 0x75, 0x6e, 0x74, 0x69, 0x6d, 0x65, 0x5f, 0x76, 0x65, 0x72, 0x73,
  0x69, 0x6f, 0x6e, 0x00, 0x0e, 0x00, 0x00, 0x00, 0xe0, 0x72, 0x00, 0x00,
  0xd8, 0x72, 0x00, 0x00, 0xb8, 0x72, 0x00, 0x00, 0x98, 0x72, 0x00, 0x00,
  0x58, 0x72, 0x00, 0x00, 0xc8, 0x01, 0x00, 0x00, 0xf8, 0x00, 0x00, 0x00,
  0xa8, 0x00, 0x00, 0x00, 0xa0, 0x00, 0x00, 0x00, 0x98, 0x00, 0x00, 0x00,
  0x90, 0x00, 0x00, 0x00, 0x88, 0x00, 0x00, 0x00, 0x68, 0x00, 0x00, 0x00,
  0x04, 0x00, 0x00, 0x00, 0xc6, 0x8c, 0xff, 0xff, 0x04, 0x00, 0x00, 0x00,
  0x54, 0x00, 0x00, 0x00, 0x0c, 0x00, 0x00, 0x00, 0x08, 0x00, 0x0e, 0x00,
  0x08, 0x00, 0x04, 0x00, 0x08, 0x00, 0x00, 0x00, 0x10, 0x00, 0x00, 0x00,
  0x24, 0x00, 0x00, 0x00, 0x00, 0x00, 0x06, 0x00, 0x08, 0x00, 0x04, 0x00,
  0x06, 0x00, 0x00, 0x00, 0x04, 0x00, 0x00, 0x00, 0x00, 0x00, 0x00, 0x00,
  0x00, 0x00, 0x0a, 0x00, 0x10, 0x00, 0x0c, 0x00, 0x08, 0x00, 0x04, 0x00,
  0x0a, 0x00, 0x00, 0x00, 0x02, 0x00, 0x00, 0x00, 0x02, 0x00, 0x00, 0x00,
  0x04, 0x00, 0x00, 0x00, 0x06, 0x00, 0x00, 0x00, 0x32, 0x2e, 0x31, 0x31,
  0x2e, 0x30, 0x00, 0x00, 0x26, 0x8d, 0xff, 0xff, 0x04, 0x00, 0x00, 0x00,
  0x10, 0x00, 0x00, 0x00, 0x31, 0x2e, 0x35, 0x2e, 0x30, 0x00, 0x00, 0x00,
  0x00, 0x00, 0x00, 0x00, 0x00, 0x00, 0x00, 0x00, 0xf8, 0x87, 0xff, 0xff,
  0xfc, 0x87, 0xff, 0xff, 0x00, 0x88, 0xff, 0xff, 0x04, 0x88, 0xff, 0xff,
  0x52, 0x8d, 0xff, 0xff, 0x04, 0x00, 0x00, 0x00, 0x40, 0x00, 0x00, 0x00,
  0xf1, 0x98, 0x8c, 0x3e, 0xbb, 0xa7, 0x33, 0x3e, 0xa8, 0xc2, 0xa1, 0x3f,
  0xb6, 0x29, 0xc8, 0xbf, 0x29, 0x48, 0xf6, 0x3e, 0x6d, 0x43, 0xa5, 0x3f,
  0x40, 0x04, 0x79, 0xbf, 0x92, 0x59, 0x65, 0xbf, 0x2c, 0xdc, 0xc0, 0x3f,
  0xb0, 0x2d, 0x84, 0xbf, 0xe3, 0x32, 0x65, 0xbf, 0xc1, 0xa1, 0xe6, 0x3e,
  0x1a, 0xdb, 0x82, 0xbf, 0xd0, 0x06, 0x5e, 0xbe, 0x82, 0x1a, 0x10, 0xbf,
  0x3f, 0x75, 0x75, 0x3f, 0x9e, 0x8d, 0xff, 0xff, 0x04, 0x00, 0x00, 0x00,
  0xc0, 0x00, 0x00, 0x00, 0x80, 0x3e, 0x3e, 0xbf, 0x3f, 0x75, 0x27, 0x3f,
  0x31, 0xd7, 0x82, 0xbe, 0x2c, 0x42, 0x6e, 0x3e, 0x60, 0x78, 0x73, 0x3f,
  0x7b, 0x4c, 0x14, 0xbf, 0xc9, 0x02, 0x48, 0xbd, 0x5e, 0x42, 0x42, 0xbe,
  0xad, 0x20, 0x74, 0xbe, 0x02, 0xc7, 0x41, 0x3e, 0x05, 0x7e, 0x3b, 0xbe,
  0x64, 0x08, 0x60, 0x3e, 0xb7, 0x20, 0x45, 0x3f, 0x4c, 0xd0, 0xf1, 0xba,
  0x2f, 0x05, 0x62, 0x3f, 0xeb, 0x49, 0x67, 0xbf, 0xe9, 0x65, 0xe8, 0x3d,
  0x18, 0x6a, 0xf6, 0x3e, 0xa7, 0xe9, 0xc4, 0x3e, 0xeb, 0xe8, 0xbd, 0x3e,
  0x2a, 0x0e, 0xc1, 0xbe, 0x0c, 0x2e, 0x6d, 0x3f, 0xe3, 0x3f, 0xf7, 0x3e,
  0xf2, 0x39, 0x16, 0xbf, 0x52, 0xd2, 0xb2, 0x3e, 0xfc, 0x96, 0x97, 0xbf,
  0x17, 0xca, 0x92, 0x3e, 0x33, 0xcc, 0xcb, 0xbd, 0x58, 0xe7, 0x75, 0x3f,
  0x53, 0xbc, 0x88, 0xbf, 0xad, 0x01, 0x71, 0xbd, 0x6a, 0x2b, 0x8e, 0xbf,
  0x50, 0xe1, 0xed, 0x3c, 0xd1, 0x05, 0xa4, 0xbf, 0x85, 0x94, 0x3d, 0x3f,
  0xc0, 0xc4, 0xd8, 0xbe, 0x33, 0x50, 0x0b, 0xbd, 0xc1, 0x71, 0x85, 0x3e,
  0x85, 0x3e, 0x29, 0xbe, 0xad, 0x43, 0x93, 0x3f, 0xad, 0x54, 0x01, 0xbf,
  0x54, 0x48, 0x28, 0x3f, 0x40, 0xbc, 0x4d, 0x3f, 0xe3, 0x78, 0x58, 0x3f,
  0x78, 0xb5, 0x8f, 0x3f, 0x2b, 0x6d, 0xd3, 0x3e, 0x23, 0xb1, 0xa7, 0x3c,
  0x06, 0x4b, 0x9a, 0x3f, 0x6a, 0x8e, 0xff, 0xff, 0x04, 0x00, 0x00, 0x00,
  0x80, 0x70, 0x00, 0x00, 0x2d, 0x5a, 0x73, 0x3d, 0x0e, 0x45, 0x86, 0x3e,
  0x4b, 0xf1, 0x7f, 0x3e, 0x1a, 0x4f, 0x95, 0x3e, 0x69, 0xb2, 0x4a, 0x3e,
  0x22, 0xb6, 0x31, 0x3e, 0x28, 0xe8, 0x79, 0x3e, 0x81, 0x5a, 0x46, 0x3e,
  0x9f, 0x09, 0x52, 0x3e, 0x2c, 0xee, 0x37, 0x3d, 0xe1, 0x72, 0xbb, 0x3d,
  0x75, 0xb9, 0xa9, 0x3d, 0x86, 0xe1, 0xe3, 0x3d, 0x11, 0xf2, 0x84, 0x3e,
  0xca, 0x7d, 0x77, 0x3e, 0x2e, 0xe9, 0x00, 0x3e, 0xa3, 0x4f, 0x12, 0x3e,
  0xbf, 0xa4, 0x8e, 0x3e, 0xcb, 0x9c, 0xa6, 0x3e, 0xf1, 0xb6, 0xe7, 0x3d,
  0x5a, 0x26, 0x8e, 0x3e, 0x46, 0x4d, 0x8f, 0x3e, 0x94, 0x68, 0x8a, 0x3e,
  0x4e, 0xb2, 0x38, 0x3e, 0x0b, 0xe8, 0x6e, 0x3e, 0xf0, 0xe9, 0x7a, 0x3e,
  0x7a, 0xa6, 0x58, 0x3e, 0xe3, 0x0d, 0x67, 0x3e, 0xf3, 0x82, 0x82, 0x3e,
  0xa4, 0x81, 0xa4, 0x3e, 0xc6, 0xd0, 0x71, 0x3e, 0xe4, 0x27, 0x82, 0x3e,
  0xfc, 0x7c, 0xa2, 0x3e, 0x70, 0x79, 0x6d, 0x3e, 0x93, 0x90, 0x14, 0x3e,
  0x49, 0xb6, 0x67, 0x3e, 0x2b, 0x4d, 0x9e, 0x3e, 0x04, 0xed, 0x13, 0x3e,
  0x47, 0x54, 0x53, 0x3e, 0x7e, 0xe3, 0x1a, 0x3e, 0x9a, 0x25, 0x07, 0x3e,
  0xb8, 0x08, 0x88, 0x3e, 0xe3, 0xca, 0x13, 0x3e, 0x64, 0x8c, 0x7f, 0x3e,
  0xe0, 0x28, 0x8c, 0x3e, 0x9a, 0x5f, 0x90, 0x3e, 0xb1, 0xe6, 0xd0, 0x3d,
  0x79, 0x12, 0x5e, 0x3e, 0xd7, 0xd1, 0x5d, 0x3e, 0x96, 0x07, 0x49, 0x3e,
  0x36, 0x35, 0xc2, 0x3d, 0x54, 0xc5, 0xb2, 0xbd, 0x63, 0x35, 0x89, 0xbd,
  0x7d, 0xa4, 0x82, 0xbd, 0xb7, 0xcc, 0xed, 0xbc, 0x56, 0x84, 0x62, 0x3d,
  0x59, 0xbf, 0xaf, 0xbb, 0x3f, 0x82, 0xf2, 0x3c, 0x8e, 0x3a, 0xe7, 0xbd,
  0x69, 0xc4, 0x28, 0x3d, 0xb3, 0x32, 0x16, 0xbd, 0x03, 0xe3, 0xd1, 0xbc,
  0xb1, 0xea, 0x16, 0xbd, 0xec, 0xe5, 0x6b, 0xbd, 0x9e, 0x2d, 0x4e, 0xbe,
  0x33, 0x13, 0x2c, 0xbe, 0x33, 0x11, 0x39, 0xbe, 0x77, 0x58, 0x7a, 0xbe,
  0xee, 0xb6, 0x84, 0xbd, 0x49, 0xad, 0x3f, 0xbe, 0x20, 0xcf, 0x84, 0xbe,
  0x55, 0x7b, 0x14, 0xbe, 0x5d, 0x12, 0x81, 0xbe, 0x97, 0xcf, 0xeb, 0xbd,
  0x50, 0x16, 0x60, 0xbe, 0x25, 0xf0, 0x63, 0xbe, 0xdf, 0x7b, 0x46, 0xbe,
  0x21, 0x07, 0xa4, 0xbe, 0x45, 0x28, 0x9a, 0xbe, 0xa9, 0x94, 0xca, 0xbe,
  0x25, 0x2b, 0x80, 0xbe, 0xac, 0x22, 0xa9, 0xbe, 0x9a, 0x66, 0x86, 0xbe,
  0x79, 0x90, 0x5b, 0xbe, 0x41, 0x52, 0xe5, 0xbd, 0xc8, 0xed, 0xc1, 0xbd,
  0xfc, 0xe2, 0x7a, 0xbe, 0xed, 0x73, 0x45, 0xbe, 0x7d, 0xaf, 0x5c, 0xbd,
  0x0d, 0xe9, 0x69, 0xbe, 0x4a, 0xf3, 0x96, 0xbe, 0x33, 0x9f, 0x0c, 0xbe,
  0xdc, 0xf0, 0x0b, 0xbe, 0x1d, 0x2a, 0x70, 0xbe, 0x32, 0x3f, 0xc6, 0xbd,
  0x69, 0x7e, 0xda, 0xbd, 0xbc, 0xb9, 0x98, 0xbd, 0x69, 0xb6, 0x4c, 0xbe,
  0xb7, 0xb5, 0x81, 0xbe, 0x69, 0xfd, 0xca, 0xbc, 0x5a, 0x77, 0x29, 0xbd,
  0x6d, 0xb0, 0x53, 0xbe, 0xe8, 0x21, 0x0f, 0xbe, 0xfc, 0x28, 0x2f, 0xbe,
  0x1e, 0x4f, 0xfb, 0xbd, 0x67, 0x9a, 0xd1, 0xbd, 0xe9, 0x25, 0x3c, 0xbd,
  0xd7, 0x6b, 0x7c, 0xbd, 0xcf, 0x98, 0x6e, 0xbd, 0xd5, 0x3c, 0x04, 0xbe,
  0xfa, 0xef, 0x87, 0xbc, 0xab, 0xc2, 0x7b, 0xbc, 0x3e, 0x16, 0x12, 0x3d,
  0x93, 0xe8, 0xf0, 0xbd, 0xdc, 0xea, 0x84, 0x3c, 0xd3, 0x22, 0x64, 0xbd,
  0xb4, 0xfd, 0xb6, 0x3c, 0xb6, 0x6c, 0xbc, 0x3b, 0x71, 0xcc, 0x66, 0xbd,
  0xd3, 0x10, 0x74, 0x3d, 0x20, 0xb9, 0x22, 0xbd, 0xed, 0x04, 0xbf, 0x3b,
  0x7d, 0x17, 0x6c, 0xbd, 0x87, 0x80, 0xa2, 0x3d, 0x28, 0x60, 0x60, 0xbd,
  0x81, 0xf4, 0x91, 0xbc, 0x7e, 0xc7, 0x7d, 0xbc, 0x1e, 0xd7, 0x34, 0x3e,
  0x9d, 0x60, 0x57, 0xbd, 0x64, 0xfb, 0x2c, 0xbd, 0x6d, 0xfa, 0x51, 0xbd,
  0xef, 0xf4, 0xa0, 0x3d, 0xe9, 0xea, 0x97, 0xbd, 0x54, 0x0e, 0xa6, 0xbb,
  0xdf, 0xb7, 0x92, 0xbc, 0x50, 0xa1, 0xc7, 0x3c, 0x3e, 0x49, 0xb4, 0xbd,
  0x51, 0x1e, 0x08, 0x3d, 0x21, 0x25, 0x68, 0xbd, 0x67, 0x68, 0x88, 0x3c,
  0xfd, 0x02, 0x12, 0xbe, 0xa5, 0x87, 0x0c, 0xbd, 0x28, 0x1f, 0xa4, 0x3b,
  0xa0, 0xfb, 0xbd, 0xbb, 0xda, 0x19, 0x11, 0x3c, 0xda, 0x5b, 0x57, 0x3c,
  0xf1, 0x56, 0x10, 0xbc, 0x58, 0xe5, 0x22, 0x3d, 0xb1, 0x25, 0x38, 0x3c,
  0xa2, 0xda, 0xae, 0x3d, 0xf2, 0xa9, 0x76, 0x3d, 0x68, 0x43, 0xcd, 0x3d,
  0xb4, 0x4d, 0xc6, 0x3d, 0x71, 0x8f, 0x22, 0x3d, 0x0b, 0xd9, 0x78, 0x3d,
  0xe0, 0x9f, 0x8b, 0x3c, 0x0b, 0xcf, 0x09, 0x3e, 0xf5, 0x21, 0xbd, 0x3d,
  0xc0, 0xb6, 0x28, 0x3e, 0xc9, 0xbb, 0x31, 0x3e, 0xad, 0x4c, 0x75, 0x3c,
  0xa4, 0x1c, 0x8f, 0x3d, 0x0e, 0x13, 0xf9, 0x3d, 0xfe, 0x87, 0xc3, 0x3d,
  0x1d, 0xcb, 0x5e, 0x3d, 0x4f, 0xd2, 0x21, 0x3c, 0x0e, 0x08, 0x1b, 0x3e,
  0x38, 0x92, 0xb4, 0x3d, 0xb4, 0x3d, 0x13, 0x3e, 0x49, 0x0d, 0x0f, 0x3e,
  0xa7, 0x7d, 0x00, 0x3e, 0x3c, 0x9a, 0x3f, 0x3c, 0xd8, 0x3d, 0x54, 0x3c,
  0x13, 0x7b, 0x2e, 0x3e, 0x2f, 0x8b, 0xaf, 0x3d, 0xeb, 0xd3, 0x85, 0x3e,
  0x4e, 0x68, 0x7f, 0x3e, 0xba, 0x1d, 0x92, 0x3e, 0x61, 0x65, 0x6f, 0x3e,
  0xad, 0xc2, 0xad, 0x3e, 0xe5, 0xe3, 0x88, 0x3e, 0xec, 0x2c, 0x43, 0x3e,
  0xf3, 0x14, 0x9f, 0x3e, 0x08, 0x6c, 0x55, 0x3e, 0x75, 0xb9, 0xaf, 0x3e,
  0xb0, 0x17, 0x42, 0x3e, 0xc1, 0x4a, 0x6c, 0x3e, 0x0d, 0x5d, 0x9f, 0x3e,
  0x64, 0x64, 0xa5, 0x3e, 0x4d, 0xde, 0xb1, 0x3e, 0x67, 0xc3, 0x8e, 0x3e,
  0x3b, 0x2c, 0xc3, 0x3e, 0x44, 0xd5, 0xc5, 0x3e, 0xc5, 0xab, 0x79, 0x3e,
  0x5e, 0x0f, 0x9d, 0x3e, 0xb0, 0xa2, 0x90, 0x3e, 0x73, 0x3d, 0x7d, 0x3e,
  0x0b, 0x22, 0xd0, 0x3e, 0x59, 0x41, 0x43, 0x3e, 0x81, 0x30, 0x7c, 0x3e,
  0x37, 0x34, 0x5c, 0x3e, 0xb0, 0x4c, 0x1c, 0x3e, 0xc3, 0xc1, 0x02, 0x3e,
  0x4b, 0x50, 0x3e, 0x3e, 0x32, 0xdf, 0x18, 0x3e, 0x31, 0x92, 0xe8, 0x3d,
  0x8b, 0xa0, 0x68, 0x3d, 0xe5, 0x57, 0x2d, 0x3e, 0xec, 0xf0, 0x38, 0x3e,
  0xe0, 0xd5, 0x2e, 0x3e, 0x19, 0xd7, 0x19, 0x3e, 0x3c, 0x9c, 0x43, 0x3e,
  0xcc, 0x63, 0xe0, 0x3d, 0x79, 0x9c, 0xa7, 0x3d, 0x0e, 0x5f, 0x87, 0x3d,
  0xb0, 0x9d, 0xec, 0x3d, 0x49, 0xc5, 0x97, 0x3d, 0x44, 0x3b, 0x00, 0xbd,
  0xd5, 0x8e, 0xa9, 0x3d, 0x98, 0x4a, 0x28, 0xbd, 0x2f, 0x17, 0xee, 0x3d,
  0xd2, 0x83, 0xca, 0x3d, 0xcb, 0x32, 0x37, 0x3d, 0xef, 0x60, 0x78, 0xbd,
  0x5c, 0x5c, 0xc3, 0x39, 0x27, 0xdf, 0x8b, 0xbc, 0xcc, 0x73, 0x0c, 0x3e,
  0x84, 0x39, 0xc9, 0x3c, 0xc5, 0x1f, 0xd6, 0x3c, 0x29, 0x51, 0x45, 0xbd,
  0xb9, 0xb3, 0x02, 0xbe, 0x2c, 0x9c, 0xde, 0x3c, 0x5c, 0x64, 0xd5, 0xbd,
  0x58, 0x5e, 0x4c, 0xbd, 0xf5, 0xbc, 0x56, 0xbd, 0xf7, 0x35, 0xb4, 0xbd,
  0x17, 0xc7, 0x84, 0x3d, 0xd5, 0x01, 0x58, 0xbd, 0xbd, 0xaa, 0xca, 0xbc,
  0x9a, 0xdb, 0x9b, 0xbd, 0x65, 0x5b, 0x1e, 0xbe, 0x6a, 0x51, 0x3d, 0xbd,
  0x64, 0x8d, 0x48, 0xbc, 0x5c, 0xa8, 0xef, 0xbd, 0x28, 0x8e, 0xb1, 0xbd,
  0xa0, 0xba, 0xf8, 0xbd, 0x1d, 0x9b, 0xe6, 0xbc, 0xb1, 0xdb, 0xac, 0xbd,
  0x61, 0xdf, 0xcf, 0xbc, 0x56, 0x5c, 0x12, 0x3d, 0xf2, 0x15, 0x66, 0xbd,
  0xcf, 0xcc, 0xf0, 0xbb, 0xee, 0x69, 0x29, 0x3a, 0x0b, 0x90, 0xf0, 0xbd,
  0x05, 0xe9, 0x50, 0xbe, 0xa2, 0xdb, 0xd5, 0xbd, 0x0b, 0xbb, 0xd9, 0xbd,
  0x7f, 0x50, 0x0c, 0xbe, 0x05, 0x80, 0xba, 0xbd, 0x58, 0x81, 0x87, 0x3d,
  0xf2, 0x6e, 0x7b, 0x3c, 0xc1, 0x67, 0x94, 0xbd, 0xfb, 0xd6, 0xee, 0x3c,
  0x7e, 0xff, 0xc7, 0x3d, 0x52, 0x6b, 0x6e, 0x3d, 0x6c, 0x97, 0xbe, 0xbd,
  0x16, 0xef, 0x7f, 0x3c, 0xfb, 0x75, 0xa3, 0x3c, 0x94, 0x8b, 0x81, 0xbd,
  0xd5, 0xdd, 0x10, 0xbb, 0x95, 0x86, 0x83, 0xbd, 0x78, 0x2a, 0xa3, 0xbd,
  0x17, 0x6a, 0xfb, 0xbb, 0xa3, 0xe7, 0xc2, 0xbd, 0x75, 0xb4, 0x26, 0x3d,
  0x1b, 0x12, 0xae, 0x3d, 0xa8, 0xa3, 0x82, 0xbb, 0x7a, 0x6c, 0x79, 0x3d,
  0x84, 0xfd, 0x14, 0xbd, 0x70, 0x34, 0x38, 0xbc, 0x0a, 0x78, 0xaa, 0x3c,
  0x14, 0xcd, 0xc1, 0x3c, 0x2f, 0xd1, 0xe8, 0x3d, 0xa7, 0x7f, 0xb3, 0x3d,
  0x80, 0x8b, 0x3c, 0xbd, 0x0e, 0xbd, 0x06, 0xbd, 0xff, 0x79, 0x17, 0x3e,
  0x18, 0x92, 0xf5, 0x3d, 0xed, 0x89, 0xfe, 0x3d, 0x0f, 0x43, 0xa3, 0xbc,
  0x0a, 0x23, 0x92, 0x3d, 0x8a, 0x22, 0xf9, 0x3c, 0x32, 0x4a, 0x66, 0x3d,
  0x9f, 0x8e, 0x9f, 0x3d, 0xb5, 0x3f, 0x53, 0x3d, 0x96, 0xba, 0xa1, 0x3d,
  0x76, 0x78, 0xc8, 0x3d, 0x37, 0xcb, 0x3f, 0x3e, 0x98, 0xfc, 0xe2, 0x3d,
  0xa4, 0xca, 0x62, 0x3d, 0xad, 0xe6, 0xd3, 0x3c, 0x90, 0x1f, 0x72, 0xba,
  0x0a, 0x95, 0xc2, 0x3c, 0xcc, 0xfc, 0x42, 0x3d, 0x01, 0x1b, 0xa2, 0xbd,
  0x74, 0xd5, 0x5a, 0xbc, 0x48, 0x2e, 0x94, 0xbd, 0x9f, 0xf1, 0xcf, 0x3b,
  0xfb, 0x44, 0x23, 0xbd, 0x9e, 0xa2, 0xaa, 0xbd, 0x99, 0x57, 0xc4, 0xbd,
  0xe3, 0xae, 0x8f, 0xbd, 0x5c, 0x37, 0xfd, 0xbd, 0xf9, 0x05, 0xad, 0xbd,
  0x90, 0x38, 0xb5, 0x3d, 0x75, 0x54, 0x01, 0x3e, 0xbd, 0x93, 0xce, 0xbb,
  0xa0, 0x03, 0x7a, 0xbc, 0x60, 0x57, 0x42, 0x3c, 0x2c, 0x91, 0x00, 0x3e,
  0x4d, 0x18, 0x7c, 0x3c, 0x58, 0xb2, 0x04, 0xbd, 0xd8, 0x08, 0xe7, 0x3d,
  0xb9, 0x13, 0x10, 0x3e, 0x13, 0x12, 0x34, 0x3e, 0xb8, 0x5a, 0x1e, 0x3e,
  0xc7, 0x69, 0x29, 0x3e, 0x1c, 0x22, 0x8f, 0x3d, 0xa3, 0xb2, 0xb9, 0x3d,
  0xcc, 0x63, 0x38, 0xbd, 0x6b, 0x40, 0x5d, 0xbd, 0x50, 0x04, 0x70, 0x3d,
  0x3f, 0xf4, 0x0b, 0xbd, 0xc2, 0x63, 0xfc, 0x3d, 0x77, 0x0c, 0x76, 0x3d,
  0x97, 0x00, 0x0d, 0x3e, 0xdb, 0x7e, 0x36, 0x3d, 0x3d, 0xc0, 0x83, 0x3d,
  0x79, 0xf1, 0xbd, 0x3d, 0xf3, 0xe9, 0x35, 0x3e, 0x9e, 0x73, 0x22, 0x3d,
  0xa4, 0x2a, 0xe6, 0x3d, 0x16, 0xcb, 0x86, 0x3d, 0x17, 0x3d, 0x08, 0xbd,
  0x30, 0xb9, 0xbb, 0x3d, 0x23, 0xd5, 0x0c, 0x3c, 0x31, 0x5b, 0x39, 0x3d,
  0x1a, 0x70, 0x60, 0x3b, 0x8e, 0x40, 0xb0, 0x3d, 0x01, 0x18, 0x2c, 0x3c,
  0x62, 0xd4, 0xe5, 0x3d, 0x59, 0xdb, 0x16, 0x3e, 0x35, 0x5b, 0x58, 0x3e,
  0xd8, 0x69, 0xf7, 0x3c, 0x77, 0x28, 0xee, 0x3d, 0xc6, 0x4e, 0xd4, 0x3d,
  0x8e, 0x26, 0xdc, 0x3d, 0x21, 0x93, 0x9c, 0x3d, 0xd1, 0x17, 0x10, 0x3d,
  0xf0, 0x93, 0x29, 0x3e, 0x56, 0xae, 0x60, 0x3e, 0xed, 0xe1, 0x32, 0x3d,
  0x77, 0x12, 0xf3, 0x3d, 0xe2, 0xc5, 0xc8, 0x3d, 0xeb, 0x8d, 0x21, 0x3d,
  0x4d, 0x17, 0x52, 0x3d, 0xfc, 0xc1, 0x16, 0x3d, 0x83, 0x17, 0x24, 0x3d,
  0xbd, 0xea, 0x39, 0xbd, 0x08, 0xbc, 0x5d, 0x3c, 0xd0, 0x91, 0xc9, 0x3b,
  0x2c, 0x00, 0x7b, 0xbd, 0x8b, 0x20, 0xa8, 0xbc, 0xfb, 0xea, 0x6c, 0x3d,
  0x52, 0x80, 0xa6, 0x3d, 0xb8, 0x98, 0x21, 0xbd, 0x31, 0x26, 0xb3, 0x3d,
  0x65, 0xdc, 0x9a, 0x3d, 0xd6, 0xa8, 0xab, 0x3d, 0x4b, 0x84, 0xbb, 0xbd,
  0xe4, 0xe0, 0x33, 0xbe, 0x3c, 0x69, 0x7d, 0xbd, 0x53, 0x19, 0x94, 0xbc,
  0x97, 0x8d, 0x9f, 0x3a, 0x21, 0x0a, 0xd0, 0xbd, 0x0f, 0x2d, 0xba, 0xbd,
  0x9b, 0x88, 0x1a, 0xbd, 0x27, 0x49, 0x70, 0xbd, 0x7e, 0x37, 0x33, 0xbd,
  0xcb, 0x71, 0x52, 0x3c, 0x35, 0x93, 0x90, 0x3c, 0xed, 0x49, 0x84, 0xbd,
  0x06, 0xe7, 0xc0, 0x3c, 0x76, 0xdd, 0x64, 0xbd, 0xf3, 0x78, 0x9b, 0xbd,
  0x42, 0x56, 0x9b, 0xbc, 0xce, 0xa4, 0x24, 0xbd, 0xc1, 0x4f, 0x0e, 0x3d,
  0xfc, 0xc0, 0xd1, 0x3d, 0x66, 0x78, 0xf3, 0x3c, 0xc1, 0xea, 0xb7, 0xbd,
  0xf4, 0x81, 0x21, 0xbd, 0x1d, 0x08, 0x8c, 0xbc, 0x7f, 0xa7, 0xa9, 0x3b,
  0x4b, 0xbb, 0x36, 0x3d, 0xa0, 0xb7, 0xda, 0x3d, 0xa0, 0xa7, 0xdf, 0x3d,
  0x78, 0x97, 0xeb, 0x3d, 0x3e, 0xf1, 0x2f, 0x3d, 0x73, 0xc8, 0xec, 0x39,
  0x40, 0xa4, 0x9c, 0x3d, 0x67, 0x73, 0xb7, 0xbd, 0xbc, 0x69, 0x3f, 0x3d,
  0xf8, 0x3f, 0xdb, 0xbc, 0x25, 0x0f, 0x17, 0x3d, 0xef, 0x48, 0xa2, 0xbd,
  0x2f, 0x34, 0x6d, 0xbd, 0x9f, 0x7d, 0x14, 0x3d, 0xc3, 0x8c, 0x67, 0x3c,
  0x51, 0x62, 0xc5, 0x3d, 0x45, 0x10, 0xc9, 0x3d, 0x33, 0x22, 0x26, 0x3c,
  0x14, 0x05, 0xc4, 0x3d, 0x91, 0x9b, 0x4d, 0xbd, 0x04, 0x45, 0x5e, 0xbc,
  0x24, 0xa6, 0xad, 0x3d, 0xd3, 0x4c, 0x71, 0xbd, 0x9c, 0x86, 0x03, 0xbb,
  0x3b, 0xb3, 0xda, 0x3d, 0x0f, 0x0e, 0xf3, 0x3c, 0xd7, 0x05, 0xac, 0x3d,
  0x72, 0xcc, 0xb7, 0xbc, 0x73, 0x44, 0x4c, 0x3d, 0x83, 0x3e, 0xb5, 0xbd,
  0xe2, 0x94, 0x98, 0xbd, 0xdb, 0xd5, 0x29, 0xbd, 0xac, 0x57, 0x5f, 0x3d,
  0xd6, 0xe9, 0x94, 0xbd, 0x1f, 0xe9, 0xd4, 0xbc, 0x96, 0x3b, 0xe5, 0x3c,
  0x94, 0x7a, 0x01, 0x3d, 0x64, 0xb5, 0x5d, 0x3d, 0x2b, 0x84, 0x1c, 0x3d,
  0xab, 0x0f, 0x71, 0xbd, 0xbb, 0xc9, 0xbc, 0x3d, 0x1d, 0xf7, 0x8f, 0x3d,
  0xaa, 0x2d, 0xe6, 0x3d, 0xda, 0x73, 0xfc, 0x3b, 0xe9, 0x18, 0xa8, 0x3d,
  0x14, 0x2d, 0xaf, 0x3d, 0x61, 0xcd, 0x2d, 0x3b, 0x13, 0xc9, 0x0e, 0x3e,
  0xf2, 0xe7, 0xf1, 0x3d, 0x30, 0x12, 0x21, 0x3e, 0x56, 0xd0, 0x63, 0x3c,
  0x9a, 0x88, 0x25, 0x3e, 0x09, 0xa5, 0x25, 0x3e, 0x01, 0xa2, 0x27, 0x3e,
  0x39, 0x14, 0x49, 0x3e, 0x20, 0xe1, 0x48, 0x3e, 0x2c, 0x1e, 0x15, 0x3e,
  0xff, 0x32, 0x82, 0x3d, 0x77, 0xff, 0xc1, 0x3c, 0x33, 0xf0, 0x54, 0x3d,
  0x7b, 0x35, 0x96, 0x3d, 0x64, 0x77, 0xe2, 0x3d, 0x5c, 0xf5, 0xd7, 0x3b,
  0xd9, 0x1c, 0xdb, 0x3d, 0x79, 0x15, 0xf0, 0x3d, 0x44, 0x24, 0x5b, 0xbc,
  0xd9, 0x9f, 0x4b, 0x3d, 0x09, 0x47, 0x4f, 0x3d, 0x27, 0xd3, 0x11, 0x3e,
  0x7e, 0xa6, 0xa3, 0x3d, 0x9d, 0x73, 0x16, 0x3d, 0x26, 0xb2, 0x20, 0x3e,
  0x22, 0x6e, 0x27, 0x3e, 0x50, 0xd7, 0x2b, 0x3e, 0x45, 0xcb, 0x35, 0x3c,
  0x25, 0xfa, 0xe7, 0x3d, 0xa4, 0xa6, 0x25, 0x3e, 0x25, 0xf3, 0x70, 0x3d,
  0x36, 0x8c, 0xe5, 0x3d, 0xa7, 0x93, 0xa6, 0x3d, 0x84, 0x62, 0x14, 0x3e,
  0x97, 0x74, 0xc5, 0x3d, 0xb9, 0x65, 0x33, 0x3e, 0xe2, 0x0a, 0xcc, 0x3d,
  0x62, 0x45, 0x75, 0x3e, 0xcb, 0x7a, 0x31, 0x3e, 0x7f, 0x40, 0x0d, 0x3e,
  0x04, 0xcb, 0xc6, 0x3d, 0x32, 0x51, 0x45, 0x3e, 0x63, 0xa2, 0x72, 0x3d,
  0x2a, 0x5b, 0x37, 0x3e, 0xff, 0x66, 0xaa, 0x3d, 0x03, 0xbb, 0x47, 0x3e,
  0x10, 0x14, 0x27, 0x3e, 0x44, 0x1c, 0x12, 0x3e, 0x79, 0x0c, 0xa1, 0x3b,
  0xe5, 0xe8, 0x7f, 0x3d, 0xf4, 0x08, 0x07, 0x3e, 0x59, 0x82, 0xb5, 0xba,
  0x6a, 0x09, 0xa0, 0xbd, 0xff, 0x90, 0x30, 0xbd, 0x25, 0xe7, 0x46, 0xbc,
  0x9f, 0x5f, 0x5d, 0x3d, 0x6c, 0x64, 0x6d, 0xbd, 0x47, 0xa4, 0x06, 0x3d,
  0xc1, 0xb0, 0x92, 0x3d, 0xac, 0x73, 0xfd, 0x3b, 0x5a, 0x50, 0x23, 0x3d,
  0xe7, 0xbb, 0xeb, 0x3d, 0x02, 0x6b, 0xae, 0xbb, 0xa0, 0xb8, 0x6d, 0xbc,
  0x67, 0x14, 0x11, 0x3e, 0xd4, 0xed, 0x3b, 0x3d, 0xdb, 0x8d, 0x1b, 0xbd,
  0xdc, 0x2d, 0x34, 0x3e, 0x8f, 0xd2, 0xf9, 0x3d, 0x72, 0xbf, 0x8d, 0x3d,
  0xea, 0x79, 0xf4, 0xbc, 0x86, 0x0e, 0x52, 0xbc, 0xb5, 0x6b, 0xbf, 0x3b,
  0x5d, 0xa2, 0x1a, 0xbd, 0x69, 0xfa, 0x2a, 0x3e, 0x5b, 0xb6, 0x81, 0xbd,
  0xc2, 0x36, 0xa2, 0xba, 0xc8, 0x5f, 0x23, 0xbd, 0xce, 0x73, 0x9b, 0x3d,
  0xd3, 0xed, 0x8c, 0xbd, 0x87, 0x46, 0x2b, 0x3d, 0xae, 0xfe, 0x5a, 0xbc,
  0xcd, 0xb7, 0xb6, 0x3d, 0x37, 0xe3, 0x25, 0x3c, 0xcf, 0x42, 0xe7, 0x3c,
  0xb3, 0x7f, 0xf9, 0xba, 0x09, 0x01, 0xfd, 0x3c, 0x66, 0x2a, 0x92, 0x3b,
  0x17, 0xaf, 0xf0, 0x3d, 0x8e, 0x66, 0x22, 0x3d, 0xb3, 0x02, 0x16, 0x3e,
  0xe3, 0xb9, 0xc5, 0x3d, 0xe5, 0x2d, 0x6c, 0x3d, 0x89, 0x30, 0x95, 0x3d,
  0x99, 0x65, 0xcd, 0xbc, 0xa2, 0x5d, 0xd1, 0x3d, 0xaf, 0xbb, 0xf5, 0xb9,
  0xf3, 0xb5, 0xd4, 0x3d, 0xb0, 0xdd, 0x91, 0xbb, 0x56, 0xb6, 0xc3, 0x3d,
  0x32, 0x3d, 0x4c, 0x3d, 0x97, 0x1c, 0x97, 0x3d, 0x1d, 0x83, 0xa9, 0x3c,
  0x22, 0x5a, 0x5c, 0xbd, 0x1b, 0x13, 0x61, 0x3c, 0x1e, 0xb0, 0x6a, 0x3c,
  0x41, 0xf2, 0xb7, 0x3b, 0x19, 0x59, 0x3d, 0xbc, 0x71, 0x1d, 0x94, 0x3d,
  0x92, 0x86, 0x91, 0x3d, 0xe0, 0x6f, 0xee, 0xbc, 0x21, 0xb4, 0x30, 0xbd,
  0x4f, 0xa8, 0xc2, 0x3d, 0xe0, 0x9b, 0xa3, 0xbc, 0x9d, 0xa8, 0xde, 0x3d,
  0x17, 0x14, 0x8b, 0x3a, 0x89, 0x05, 0x9d, 0x3d, 0xae, 0x91, 0x45, 0x3d,
  0xca, 0x63, 0x1b, 0x3e, 0x09, 0xc7, 0xb0, 0xbb, 0x0b, 0xc5, 0x43, 0x3e,
  0x68, 0xea, 0x09, 0x3d, 0x30, 0xfa, 0x0f, 0x3d, 0x33, 0x14, 0x48, 0x3d,
  0x6c, 0x65, 0xd6, 0x3d, 0xfb, 0x14, 0x6d, 0x3d, 0xf4, 0x6f, 0x2c, 0x3e,
  0xf2, 0x90, 0xb9, 0x3c, 0x6c, 0xb0, 0xb4, 0x3d, 0x8e, 0x25, 0x43, 0x3e,
  0x41, 0x94, 0xf0, 0x3c, 0x7e, 0x26, 0xcd, 0x3d, 0x9a, 0x19, 0x32, 0x3e,
  0x28, 0x48, 0x42, 0x3e, 0xe4, 0x32, 0xba, 0x3d, 0x2f, 0x91, 0xd1, 0x3d,
  0xd0, 0xc6, 0x4e, 0x3e, 0xde, 0xd7, 0x46, 0x3e, 0xcd, 0x9b, 0x05, 0x3e,
  0xa1, 0xe6, 0x81, 0x3e, 0x45, 0x6c, 0x7b, 0x3d, 0xe5, 0xa7, 0xe6, 0x3d,
  0xdd, 0x93, 0x4d, 0x3e, 0x6a, 0xed, 0x1d, 0x3e, 0x4f, 0xdf, 0x79, 0x3e,
  0x51, 0x1c, 0xac, 0x3d, 0x08, 0x15, 0x5b, 0x3e, 0xdd, 0x58, 0x83, 0x3e,
  0xbb, 0x7f, 0x43, 0x3e, 0x46, 0x77, 0xab, 0x3c, 0x81, 0x05, 0x1d, 0x3e,
  0xf7, 0x39, 0x7a, 0x3e, 0x13, 0xd2, 0x82, 0x3e, 0x96, 0x37, 0xe8, 0x3d,
  0x8c, 0xdb, 0x4c, 0x3e, 0xfe, 0x82, 0x75, 0x3e, 0x12, 0xd0, 0x9e, 0x3d,
  0x45, 0x92, 0x56, 0x3e, 0x1f, 0x0b, 0x42, 0x3e, 0x31, 0x87, 0x3f, 0x3e,
  0xcf, 0x96, 0x04, 0x3e, 0xc6, 0x48, 0x0b, 0x3e, 0x96, 0x53, 0xe0, 0x3d,
  0xab, 0x29, 0x5b, 0x3e, 0xbd, 0xfe, 0xaa, 0x3d, 0x29, 0x80, 0x3d, 0x3e,
  0x3f, 0xff, 0x17, 0x3e, 0x62, 0x21, 0x23, 0x3e, 0x58, 0x4c, 0x9f, 0x3d,
  0x95, 0x66, 0x4b, 0x3e, 0x98, 0xdf, 0x02, 0x3e, 0xba, 0x72, 0x6e, 0x3e,
  0x4c, 0x08, 0x8e, 0x3d, 0x83, 0x8b, 0x57, 0x3c, 0x2c, 0xb8, 0xeb, 0x3d,
  0x88, 0x12, 0x46, 0x3e, 0x40, 0xaf, 0x34, 0x3e, 0xa0, 0xc7, 0xd1, 0x3d,
  0x94, 0xee, 0x83, 0x3e, 0xe4, 0x76, 0x41, 0x3e, 0xf8, 0x91, 0x15, 0x3e,
  0x29, 0x58, 0x71, 0x3e, 0x4f, 0x04, 0xf1, 0x3d, 0x84, 0x1d, 0x00, 0x3e,
  0xff, 0x3f, 0x6d, 0x3e, 0xe9, 0x3d, 0x66, 0x3e, 0xee, 0x82, 0x7d, 0x3e,
  0xd6, 0xb7, 0x6d, 0x3e, 0x7e, 0x43, 0xfd, 0x3d, 0x39, 0xc3, 0xab, 0x3d,
  0x42, 0x7b, 0x4f, 0x3e, 0xc3, 0x72, 0x82, 0x3e, 0xf1, 0xb2, 0xdf, 0x3d,
  0xb8, 0x9c, 0x46, 0x3e, 0x83, 0x90, 0x54, 0xbc, 0x79, 0x99, 0xb2, 0x3d,
  0x01, 0xf8, 0xbb, 0x3d, 0xc4, 0x3d, 0xc0, 0x3c, 0x3d, 0xb9, 0xa6, 0x3d,
  0x71, 0x0e, 0xdc, 0x3d, 0x5d, 0x0c, 0x31, 0x3d, 0xf8, 0x92, 0x95, 0x3d,
  0x0b, 0xbd, 0x77, 0x3d, 0xf8, 0x1f, 0x92, 0xbd, 0xe1, 0x8d, 0xba, 0x3c,
  0xc2, 0x3e, 0xb9, 0x3c, 0x35, 0x79, 0xc1, 0xbc, 0x7a, 0x37, 0x2c, 0xbd,
  0xbb, 0xdd, 0x56, 0xbd, 0x34, 0x9e, 0xd7, 0xbd, 0xa7, 0xb1, 0x32, 0x3c,
  0x07, 0xcc, 0x46, 0xbd, 0x81, 0x75, 0xba, 0xbd, 0x0e, 0x47, 0x57, 0xbd,
  0xf2, 0x2f, 0xfa, 0xbc, 0x53, 0x3b, 0x69, 0x3d, 0xa8, 0x5e, 0x72, 0xbc,
  0xdb, 0x1e, 0xd4, 0xbd, 0x1f, 0x88, 0x5e, 0xbd, 0xfe, 0xf2, 0xa9, 0xbc,
  0x55, 0x42, 0xb1, 0xbd, 0xb3, 0x9c, 0x3e, 0xbd, 0x2b, 0x28, 0xe4, 0xbd,
  0xb7, 0x78, 0x2c, 0xbc, 0xa6, 0x6b, 0xbe, 0xbd, 0x68, 0x31, 0x02, 0xbe,
  0x6f, 0x1f, 0x8d, 0xbd, 0x34, 0x4a, 0xd9, 0xbd, 0x8d, 0x79, 0xdd, 0x3d,
  0xae, 0x51, 0xb2, 0xbd, 0x38, 0x0e, 0x9b, 0x3d, 0x85, 0x6c, 0x27, 0xbe,
  0xf1, 0x84, 0xcb, 0xbd, 0xdb, 0x88, 0x94, 0xbd, 0xc5, 0x5d, 0x90, 0xbd,
  0x23, 0x40, 0xa3, 0xbb, 0x4c, 0x91, 0xaa, 0xbd, 0x63, 0xe0, 0x87, 0xbc,
  0xe3, 0xb2, 0x98, 0x3d, 0x71, 0x27, 0x38, 0x3b, 0xc5, 0xbe, 0x25, 0x3d,
  0x38, 0xdf, 0x96, 0x3d, 0xe6, 0x8b, 0x7e, 0x3d, 0xa0, 0xdb, 0x41, 0x3d,
  0x37, 0x9e, 0x7d, 0xbb, 0x53, 0x62, 0x44, 0xbc, 0xd0, 0xce, 0x6a, 0xbc,
  0x07, 0x85, 0xc1, 0x3d, 0x57, 0xc7, 0x01, 0xbd, 0xf6, 0x7f, 0x94, 0xbc,
  0xae, 0x9b, 0x9a, 0x3d, 0xab, 0xaa, 0x11, 0x3d, 0xa6, 0xef, 0x81, 0x3d,
  0xde, 0x79, 0x06, 0x3e, 0x3d, 0x48, 0x88, 0xbd, 0xe1, 0x9d, 0xdf, 0x3d,
  0xe2, 0x5d, 0xf2, 0x3d, 0xcd, 0x04, 0x28, 0x3d, 0x01, 0xb5, 0x2e, 0xbd,
  0xea, 0x01, 0xe8, 0x3b, 0x70, 0x9c, 0x46, 0xba, 0x8e, 0x35, 0xd9, 0x38,
  0x90, 0x17, 0xbc, 0x3c, 0x86, 0xcc, 0x87, 0x3d, 0xe5, 0xa4, 0xde, 0x3d,
  0x90, 0xf6, 0xcd, 0x3c, 0xa9, 0x98, 0x11, 0x3e, 0x84, 0xc9, 0x61, 0x3c,
  0x2d, 0xc2, 0x16, 0x3e, 0x33, 0x9e, 0x1f, 0x3e, 0x78, 0x15, 0x28, 0x3e,
  0x32, 0x06, 0xf3, 0xbb, 0x6d, 0xe3, 0x05, 0x3e, 0x97, 0x65, 0x32, 0x3d,
  0xc4, 0xa0, 0x1d, 0x3e, 0x55, 0x9b, 0xcc, 0x3d, 0x8f, 0x09, 0xa9, 0x3c,
  0xda, 0x83, 0xa1, 0x3d, 0x12, 0xa5, 0x2a, 0xbc, 0xa8, 0x1b, 0xf4, 0xbc,
  0xdd, 0x40, 0x5d, 0x3d, 0xdf, 0x14, 0xbe, 0xbc, 0x67, 0xe3, 0x51, 0xbc,
  0xae, 0xaa, 0x4e, 0xbc, 0x2b, 0x60, 0x5a, 0x3d, 0x58, 0x9e, 0x6b, 0xbd,
  0xa8, 0x77, 0x0e, 0xbc, 0xf3, 0x73, 0x92, 0xbc, 0x97, 0x5f, 0xe4, 0x3d,
  0x4b, 0xf1, 0xde, 0x3c, 0x23, 0x2e, 0x2d, 0x3e, 0x07, 0x79, 0x92, 0x3d,
  0x58, 0x9a, 0x19, 0xbd, 0xf0, 0x0e, 0x48, 0x3d, 0xe2, 0xb6, 0xa9, 0x3d,
  0x20, 0x52, 0x02, 0x3e, 0x93, 0x2f, 0x15, 0x3e, 0x4b, 0xc6, 0x97, 0x3d,
  0x06, 0x64, 0xea, 0x3c, 0xf2, 0x55, 0x04, 0x3e, 0x94, 0xe6, 0xe5, 0x3d,
  0x0f, 0xd2, 0x94, 0x3d, 0x92, 0x37, 0x98, 0x3d, 0xe7, 0xbf, 0x22, 0x3e,
  0xd7, 0xd7, 0x05, 0x3a, 0xdc, 0x0e, 0x49, 0x3e, 0xda, 0xd5, 0x02, 0x3e,
  0x69, 0xda, 0xca, 0x3d, 0xa3, 0x2d, 0x09, 0x3e, 0x4f, 0xb2, 0xe4, 0x3d,
  0xb0, 0xa6, 0x16, 0x3e, 0xa4, 0x29, 0x16, 0x3e, 0xd5, 0x53, 0xa8, 0x3d,
  0x63, 0xda, 0xa2, 0x3d, 0xf0, 0xae, 0x69, 0x3d, 0x19, 0x7d, 0x42, 0x3e,
  0x8f, 0x88, 0xe9, 0x3d, 0xda, 0xfa, 0x0e, 0x3e, 0x39, 0x6c, 0x80, 0x3e,
  0xad, 0x9b, 0x00, 0x3e, 0x28, 0x90, 0x1c, 0x3e, 0x2c, 0x07, 0x41, 0x3d,
  0x22, 0x4b, 0x22, 0x3d, 0x79, 0xc9, 0xb6, 0x3d, 0x4d, 0xaa, 0xbb, 0x3d,
  0x4a, 0xd2, 0xb6, 0x3d, 0xed, 0x5e, 0xbf, 0xbc, 0x13, 0xd3, 0xf4, 0x3c,
  0x04, 0xaa, 0xa9, 0x3d, 0x4b, 0xac, 0xb6, 0x3d, 0x15, 0xb2, 0x19, 0x3e,
  0x8a, 0x18, 0xc0, 0x3d, 0x23, 0xd2, 0xf2, 0x3d, 0xd0, 0x8f, 0xeb, 0x3d,
  0x6d, 0xa2, 0x1e, 0x3e, 0x69, 0x67, 0xce, 0x3d, 0x40, 0xc6, 0x0c, 0x3e,
  0x64, 0xf5, 0xfe, 0x3c, 0xcd, 0x7d, 0x0f, 0x3e, 0x62, 0x70, 0x7c, 0x3d,
  0x0c, 0xad, 0x6b, 0x3d, 0x9e, 0x64, 0x9b, 0xbd, 0x93, 0x18, 0x00, 0x3b,
  0x54, 0x55, 0x07, 0xbe, 0xb7, 0x38, 0x79, 0x3d, 0x7a, 0x40, 0x2d, 0xbd,
  0xf4, 0x0f, 0x29, 0xbc, 0x0d, 0xae, 0x50, 0x3c, 0xc4, 0xa9, 0xbd, 0x3c,
  0x54, 0x99, 0x0b, 0x3d, 0x71, 0x2e, 0x87, 0x3d, 0xb9, 0x14, 0xdf, 0xbc,
  0x32, 0xaf, 0x10, 0x3d, 0x82, 0x9e, 0xd0, 0xbd, 0x53, 0x70, 0xaa, 0xbd,
  0xf3, 0xff, 0x80, 0xbd, 0x6e, 0xce, 0xdb, 0xbd, 0x50, 0xa6, 0x8b, 0x3c,
  0xc4, 0x13, 0xee, 0xbd, 0xf3, 0x91, 0x11, 0xbe, 0x13, 0x44, 0xfa, 0xbd,
  0xe0, 0x00, 0x0b, 0xbe, 0xad, 0xf8, 0x92, 0xbd, 0xb9, 0x9f, 0xf4, 0xbd,
  0x0e, 0xd3, 0x06, 0xbc, 0x7c, 0xd9, 0x6e, 0xbd, 0xdc, 0xc6, 0xfb, 0xbd,
  0xef, 0xd7, 0x24, 0xbd, 0x03, 0x0d, 0x36, 0xbe, 0xaf, 0x8d, 0x00, 0xbd,
  0x9b, 0x44, 0x3e, 0xbe, 0x24, 0x06, 0x1a, 0xbe, 0x14, 0x04, 0x5f, 0xbd,
  0xb8, 0x0d, 0x39, 0xbe, 0x28, 0xfd, 0x08, 0xbe, 0x1d, 0x4d, 0x4e, 0xbe,
  0xe7, 0x0c, 0x37, 0xbe, 0x5f, 0xa8, 0x72, 0xbd, 0x2f, 0x65, 0x5e, 0xbe,
  0x7f, 0x30, 0x07, 0xbe, 0xd9, 0xff, 0xab, 0xbd, 0x85, 0xa1, 0x17, 0xbe,
  0xbf, 0x5a, 0xf8, 0xbd, 0x2f, 0x7f, 0x5a, 0xbc, 0x32, 0x38, 0xcd, 0xbd,
  0x06, 0xad, 0x14, 0xbd, 0x23, 0xe6, 0x4a, 0xbe, 0x1b, 0x84, 0x0a, 0xbe,
  0x32, 0xaf, 0x01, 0xbe, 0xfa, 0xab, 0xe6, 0xbd, 0xb8, 0x80, 0xfd, 0xbd,
  0x71, 0x6e, 0x24, 0xbe, 0x9b, 0x84, 0x3d, 0xbe, 0xb6, 0x12, 0x04, 0xbe,
  0x24, 0x80, 0x2c, 0xbe, 0x76, 0x91, 0x43, 0xbe, 0x9e, 0xcf, 0x2c, 0xbe,
  0xf4, 0xd8, 0x64, 0xbe, 0xf4, 0xe4, 0x2d, 0xbe, 0xb5, 0xda, 0xbc, 0xbd,
  0x5d, 0x6c, 0x6e, 0xbe, 0x4b, 0x73, 0x63, 0xbe, 0x82, 0x9f, 0x06, 0xbe,
  0x3d, 0x6c, 0x80, 0xbd, 0x94, 0xc1, 0xb4, 0xbc, 0x7b, 0x2d, 0xef, 0xbc,
  0xf7, 0x69, 0xb8, 0xbd, 0xa8, 0xbc, 0x5b, 0xbe, 0x87, 0x30, 0x2c, 0xbe,
  0x8c, 0xfd, 0x8a, 0xbe, 0xa7, 0xbd, 0x11, 0xbe, 0xe5, 0x94, 0x41, 0xbe,
  0x01, 0x3c, 0x08, 0xbe, 0x17, 0xab, 0x13, 0xbe, 0x25, 0x39, 0xb0, 0xbd,
  0x8e, 0xdd, 0x46, 0xbe, 0x97, 0x69, 0xf3, 0xbc, 0xf4, 0x47, 0x87, 0xbd,
  0xb3, 0xb5, 0xcd, 0xbd, 0xbf, 0x03, 0xb2, 0xbd, 0x3b, 0x45, 0x75, 0xbd,
  0x85, 0x42, 0x73, 0xbc, 0xbd, 0x7f, 0x95, 0xbd, 0x10, 0x1f, 0x53, 0xbe,
  0x99, 0x76, 0xb2, 0xbd, 0x3f, 0xb9, 0x1a, 0xbe, 0xbf, 0xfb, 0x54, 0xbd,
  0xa3, 0x3b, 0x73, 0xbe, 0xa7, 0x7c, 0x3c, 0xbe, 0xa3, 0x92, 0x94, 0xbe,
  0xfa, 0xc8, 0x76, 0xbe, 0x65, 0xe3, 0x4e, 0xbe, 0xb9, 0x29, 0x8d, 0xbe,
  0x2d, 0xb4, 0x4a, 0xbe, 0x3a, 0x35, 0x6e, 0xbe, 0xd7, 0x6b, 0x45, 0xbe,
  0x72, 0x36, 0x8c, 0xbe, 0xb6, 0xfd, 0x36, 0xbe, 0xd6, 0x23, 0x3b, 0xbe,
  0xe8, 0x95, 0x2f, 0xbe, 0x76, 0xe3, 0x8a, 0xbe, 0x8c, 0x3b, 0xd0, 0xbd,
  0xd6, 0x76, 0xa5, 0xbd, 0xa7, 0xa4, 0xe1, 0xbd, 0x37, 0x79, 0x08, 0xbe,
  0xd3, 0x9b, 0xe0, 0xbd, 0xa4, 0xa2, 0xc2, 0xbd, 0x8c, 0x7c, 0x01, 0xbe,
  0x74, 0x12, 0xc0, 0xbd, 0xeb, 0x2b, 0xf0, 0x3d, 0xbc, 0x81, 0x9f, 0xbc,
  0x24, 0xb3, 0xc8, 0xbd, 0xab, 0xf2, 0x9d, 0xbd, 0xc8, 0x88, 0x35, 0xbe,
  0x6e, 0x98, 0x18, 0xbe, 0x78, 0x4a, 0x20, 0xbd, 0xd6, 0xb9, 0x65, 0x3c,
  0xda, 0xfd, 0xdd, 0xbd, 0xd6, 0x5b, 0x6e, 0x38, 0xc0, 0x3d, 0x66, 0xbe,
  0x2b, 0x66, 0x2b, 0xbe, 0x63, 0x9d, 0x6b, 0xbe, 0xaa, 0x24, 0x21, 0xbe,
  0x52, 0x5a, 0x36, 0xbe, 0xd9, 0x00, 0x32, 0xbe, 0xc1, 0x31, 0x92, 0xbd,
  0xca, 0x31, 0x5e, 0xbe, 0xbc, 0xc3, 0x92, 0xbe, 0x27, 0x29, 0x95, 0xbe,
  0xfb, 0x6e, 0x95, 0xbe, 0xa0, 0x5c, 0x72, 0xbe, 0xc9, 0x51, 0x29, 0xbe,
  0xc8, 0x5a, 0x60, 0xbe, 0x9c, 0xd9, 0x94, 0xbe, 0xc2, 0x14, 0xbd, 0xbe,
  0x07, 0xa9, 0x3e, 0xbe, 0xb0, 0x9f, 0xa8, 0xbe, 0xc3, 0x62, 0x94, 0xbe,
  0x22, 0x78, 0x81, 0xbe, 0xc2, 0xbd, 0x0a, 0xbe, 0x7d, 0x6d, 0x81, 0xbe,
  0x2a, 0xf9, 0x75, 0xbe, 0x20, 0x28, 0x0b, 0xbe, 0xf9, 0xb9, 0x07, 0xbe,
  0xbb, 0xfc, 0x35, 0xbe, 0xc5, 0x4e, 0x10, 0xbe, 0xa9, 0x66, 0xd8, 0xbd,
  0xbf, 0xbf, 0x8a, 0xbe, 0x59, 0xe1, 0x7f, 0xbd, 0x5a, 0x08, 0x7b, 0xbd,
  0x55, 0x19, 0xdc, 0xbd, 0x80, 0x72, 0x31, 0xbd, 0x78, 0x4e, 0x9f, 0x3d,
  0xc8, 0x98, 0x95, 0x3c, 0xcb, 0x4b, 0x92, 0xbc, 0x5f, 0x61, 0x9e, 0xbd,
  0x14, 0x26, 0x74, 0x3d, 0x3c, 0xcf, 0x3e, 0x3d, 0xfa, 0xc8, 0x40, 0x3e,
  0x8a, 0xdd, 0x04, 0x3e, 0xb8, 0x34, 0x22, 0x3e, 0x4c, 0xfc, 0x18, 0x3e,
  0x25, 0x89, 0x25, 0x3e, 0x0e, 0x14, 0x61, 0x3e, 0xf9, 0xe7, 0x2f, 0x3e,
  0x63, 0x37, 0x9b, 0x3e, 0x1c, 0xe8, 0x9f, 0x3e, 0xdd, 0x64, 0xd5, 0x3e,
  0x7f, 0x82, 0x73, 0x3e, 0x70, 0xa2, 0xa5, 0x3e, 0xb8, 0xea, 0x94, 0x3e,
  0xd4, 0xd0, 0xbf, 0x3e, 0x5b, 0x27, 0x6f, 0x3e, 0xcb, 0x52, 0xab, 0x3e,
  0x3d, 0x03, 0xa7, 0x3e, 0xc2, 0xa8, 0xff, 0x3e, 0xf7, 0x03, 0xa6, 0x3e,
  0xea, 0xa8, 0x9c, 0x3e, 0x29, 0xf6, 0xe0, 0x3e, 0x78, 0xf6, 0xd6, 0x3e,
  0xda, 0x51, 0xf2, 0x3e, 0x85, 0xa8, 0xdf, 0x3e, 0x29, 0xa4, 0xd2, 0x3e,
  0x8d, 0x44, 0xc8, 0x3e, 0x69, 0xe9, 0xfa, 0x3e, 0x7f, 0x91, 0xc1, 0x3e,
  0x41, 0x8c, 0xf1, 0x3e, 0xb0, 0x3d, 0xec, 0x3e, 0x3f, 0x6b, 0xf7, 0x3e,
  0x54, 0xb4, 0x00, 0x3f, 0x95, 0xe2, 0x00, 0x3f, 0xae, 0x04, 0xff, 0x3e,
  0xfc, 0x0d, 0xf6, 0x3e, 0x43, 0x3d, 0xb0, 0x3e, 0x3b, 0x64, 0x05, 0x3f,
  0x38, 0x61, 0xf3, 0x3e, 0x52, 0x8d, 0x03, 0x3f, 0x86, 0x94, 0x14, 0x3f,
  0xb4, 0x25, 0xfd, 0x3e, 0x95, 0x79, 0x99, 0x3e, 0xa1, 0xb0, 0x9e, 0x3e,
  0xad, 0x35, 0x99, 0x3e, 0x73, 0x17, 0x9f, 0x3e, 0xea, 0xa0, 0xc1, 0x3e,
  0xb2, 0x9b, 0x55, 0x3e, 0x90, 0x2a, 0x38, 0x3e, 0x4b, 0x8d, 0xed, 0x3d,
  0x4a, 0xe2, 0x07, 0xbd, 0x9e, 0x29, 0x81, 0x3d, 0xa2, 0x4f, 0x8e, 0x3d,
  0x45, 0x05, 0x0c, 0xbd, 0x6f, 0x16, 0xcf, 0x39, 0xb8, 0x74, 0xa3, 0xbd,
  0x23, 0x23, 0x19, 0xbe, 0x78, 0x6f, 0x58, 0xbe, 0x24, 0x74, 0xbf, 0xbd,
  0xdf, 0xe4, 0xf7, 0xbd, 0x42, 0xda, 0x31, 0xbe, 0x08, 0xb5, 0x9c, 0xbe,
  0xfc, 0x38, 0x41, 0xbe, 0x98, 0xdc, 0x3d, 0xbe, 0x9f, 0x64, 0xa2, 0xbe,
  0x07, 0x50, 0xa8, 0xbe, 0xcb, 0x5e, 0x90, 0xbe, 0x0e, 0xe9, 0xbb, 0xbe,
  0x61, 0xc9, 0x6d, 0xbe, 0x44, 0x8c, 0xaa, 0xbe, 0x49, 0x7a, 0x20, 0xbe,
  0xa0, 0x1b, 0x72, 0xbe, 0x51, 0x02, 0x7f, 0xbe, 0x69, 0x69, 0xf4, 0xbe,
  0xe7, 0x5d, 0xfb, 0xbe, 0xbe, 0x36, 0x88, 0xbe, 0xe5, 0x71, 0x9a, 0xbe,
  0xdf, 0x27, 0x95, 0xbe, 0x22, 0xca, 0xe1, 0xbe, 0x8a, 0x35, 0xbe, 0xbe,
  0xdc, 0x07, 0x02, 0xbf, 0x67, 0x61, 0xd5, 0xbe, 0xe1, 0xce, 0xa9, 0xbe,
  0xe9, 0xb3, 0xc9, 0xbe, 0x52, 0xa4, 0xb7, 0xbe, 0xfb, 0x08, 0x98, 0xbe,
  0x41, 0x51, 0x8e, 0xbe, 0x07, 0xbd, 0xb7, 0xbe, 0x92, 0x0e, 0xb9, 0xbe,
  0xbf, 0x82, 0x50, 0xbe, 0xef, 0xfd, 0x3a, 0xbe, 0x5f, 0x57, 0xb6, 0xbe,
  0x56, 0x7f, 0x2a, 0xbe, 0x52, 0x83, 0xbb, 0xbe, 0xf2, 0x60, 0x11, 0xbe,
  0xdd, 0x74, 0x61, 0xbe, 0x16, 0x00, 0x60, 0xbe, 0x0d, 0x7b, 0x5b, 0xbe,
  0x7c, 0xd2, 0x06, 0xbe, 0x5e, 0xba, 0x4b, 0xbe, 0x67, 0x72, 0xaa, 0xbe,
  0x8e, 0x42, 0x8e, 0x3c, 0xc7, 0xbd, 0x3b, 0xbe, 0xb5, 0x80, 0x26, 0xbe,
  0x1a, 0xbd, 0x1c, 0xbe, 0x43, 0xd2, 0x00, 0xbd, 0xd1, 0xcc, 0x95, 0x3d,
  0x56, 0xaa, 0x64, 0x3b, 0xdc, 0xe5, 0xa2, 0xbc, 0x34, 0x5e, 0x00, 0x3d,
  0xe3, 0x02, 0xb1, 0xbd, 0x33, 0x3a, 0x27, 0x3d, 0xae, 0x66, 0x5a, 0x3d,
  0x10, 0x10, 0x64, 0x3d, 0x38, 0x7c, 0xec, 0x3c, 0x57, 0xd6, 0xdc, 0x3d,
  0xae, 0x58, 0x31, 0x3e, 0xd8, 0xae, 0xb8, 0x3d, 0x32, 0xff, 0x57, 0x3e,
  0x46, 0x0c, 0x37, 0x3e, 0xd8, 0x3f, 0x2b, 0x3e, 0x86, 0x59, 0x02, 0x3e,
  0xe6, 0x4a, 0x6a, 0x3e, 0xc1, 0xf7, 0x05, 0x3e, 0xb7, 0x12, 0x29, 0x3e,
  0xbc, 0x1c, 0x0f, 0x3e, 0xe1, 0xde, 0x1b, 0x3e, 0xc7, 0x07, 0x29, 0x3e,
  0xcc, 0x3b, 0xbe, 0x3d, 0xb5, 0xb5, 0x00, 0x3e, 0xdf, 0x74, 0x6e, 0x3e,
  0x01, 0x8d, 0x99, 0x3e, 0x61, 0x48, 0x4e, 0x3e, 0x00, 0xa8, 0xf0, 0x3d,
  0x30, 0xd3, 0xa0, 0x3e, 0xaf, 0x0a, 0x87, 0x3e, 0x3d, 0xff, 0x13, 0x3e,
  0x80, 0x9e, 0x6a, 0x3e, 0xc1, 0xc0, 0x37, 0x3e, 0xc1, 0x7b, 0x9b, 0x3e,
  0x8a, 0xcf, 0xef, 0x3d, 0x83, 0x63, 0xc3, 0x3d, 0x69, 0xe7, 0x7f, 0x3e,
  0xae, 0x24, 0x94, 0x3e, 0xb2, 0xcf, 0xc5, 0x3d, 0x3d, 0x13, 0x9a, 0x3e,
  0xa4, 0x63, 0x0f, 0x3e, 0x52, 0xf7, 0x08, 0x3e, 0xf5, 0x71, 0x63, 0x3e,
  0xb4, 0x0c, 0x47, 0x3e, 0x7a, 0x9a, 0xeb, 0x3d, 0xc5, 0xba, 0x17, 0x3e,
  0x10, 0x15, 0x5b, 0x3e, 0xc2, 0xef, 0x39, 0x3e, 0xeb, 0x54, 0xea, 0x3d,
  0xa9, 0x95, 0x93, 0x3d, 0x55, 0x40, 0x1e, 0x3d, 0xda, 0x5b, 0x14, 0x3e,
  0xa2, 0x7a, 0xd4, 0x3d, 0x49, 0xa6, 0x28, 0x3e, 0x35, 0x16, 0x24, 0x3d,
  0x7f, 0xd3, 0x76, 0xbc, 0xd0, 0x98, 0x0b, 0xbd, 0x76, 0x7a, 0x0c, 0xbd,
  0x5f, 0x84, 0xc8, 0xbc, 0x6f, 0x07, 0x81, 0x3c, 0x23, 0x5f, 0xa5, 0x3d,
  0x17, 0xf8, 0xc3, 0x3c, 0xef, 0xd3, 0xbe, 0xbc, 0x5f, 0xb2, 0x58, 0x3d,
  0x1c, 0xf0, 0xb4, 0xbb, 0xf9, 0x79, 0x54, 0xbd, 0x29, 0xc0, 0xc4, 0x3d,
  0x7f, 0xe9, 0x23, 0x3d, 0xca, 0x0a, 0x95, 0xbd, 0xcb, 0xbc, 0x40, 0xbc,
  0xca, 0x33, 0xbe, 0x3d, 0xe3, 0x10, 0xc8, 0xbd, 0x4a, 0x50, 0x48, 0xbd,
  0x5a, 0x62, 0xa1, 0x3d, 0x1e, 0x32, 0x1c, 0xbe, 0x99, 0x24, 0x0d, 0xbd,
  0x31, 0x7f, 0xb4, 0xbd, 0x1d, 0xd2, 0xf0, 0xbd, 0x09, 0xc6, 0xa5, 0xbc,
  0x16, 0x26, 0xf5, 0x3c, 0xa5, 0xa1, 0xcd, 0xbd, 0x39, 0xaf, 0xf1, 0xbd,
  0xa4, 0xf2, 0x21, 0xbe, 0xc9, 0x20, 0x03, 0xbe, 0x23, 0xb4, 0x69, 0xbe,
  0x16, 0x89, 0x42, 0xbe, 0x92, 0x29, 0x3f, 0xbe, 0xa3, 0x33, 0x08, 0xbe,
  0xc9, 0xde, 0x34, 0xbe, 0xff, 0x66, 0x96, 0xbe, 0x74, 0x4a, 0x0a, 0xbe,
  0x92, 0x5e, 0x27, 0xbe, 0x7e, 0xec, 0x24, 0xbe, 0xc4, 0xc6, 0x18, 0xbe,
  0xb9, 0x9c, 0x8d, 0xbe, 0xb2, 0xb7, 0xa9, 0xbe, 0x6d, 0xe7, 0x79, 0xbe,
  0xe8, 0x58, 0xbc, 0xbe, 0xf0, 0x17, 0x92, 0xbe, 0x59, 0xea, 0x5c, 0xbe,
  0xf7, 0x2d, 0xbe, 0xbe, 0x07, 0x0b, 0x7f, 0xbe, 0xfe, 0xc2, 0x8d, 0xbe,
  0xae, 0x99, 0xb7, 0xbe, 0xcc, 0x4f, 0x69, 0xbe, 0x2d, 0x92, 0xc6, 0xbe,
  0x88, 0x44, 0xc1, 0xbe, 0xd7, 0x4e, 0xa2, 0xbe, 0x13, 0xae, 0x96, 0xbe,
  0x71, 0xc2, 0xd8, 0xbe, 0x26, 0x23, 0xc9, 0xbe, 0xae, 0x5a, 0xd1, 0xbe,
  0xce, 0xea, 0xd4, 0xbe, 0x3a, 0x21, 0xa4, 0xbe, 0xec, 0xd1, 0xc4, 0xbe,
  0x7c, 0x16, 0xdf, 0xbe, 0xc3, 0xe2, 0xcf, 0xbe, 0x27, 0xfc, 0x81, 0xbe,
  0x0d, 0x4a, 0x9d, 0xbe, 0x8d, 0xca, 0x50, 0xbe, 0x8c, 0x0c, 0x9c, 0xbe,
  0x0f, 0x3b, 0x4a, 0xbe, 0xe4, 0x49, 0x95, 0xbe, 0x6f, 0x60, 0x94, 0xbe,
  0x37, 0x4c, 0x9c, 0xbe, 0xf4, 0x29, 0x2d, 0xbe, 0xeb, 0xf9, 0x20, 0xbe,
  0xf1, 0x59, 0x87, 0xbe, 0x15, 0x8c, 0x3b, 0xbe, 0x97, 0xf8, 0xdb, 0xbd,
  0x6c, 0xc8, 0x29, 0xbe, 0x22, 0xdb, 0xde, 0xbd, 0xb9, 0x65, 0xbc, 0xbd,
  0xd7, 0x70, 0x68, 0xbd, 0xa9, 0x05, 0xf4, 0xbd, 0xe0, 0xcc, 0xac, 0x3a,
  0x01, 0x91, 0xc3, 0xbd, 0x62, 0x39, 0x7b, 0x3c, 0xfd, 0x5d, 0x5d, 0xbd,
  0x5f, 0x9d, 0xa8, 0xbd, 0xd9, 0x66, 0x6f, 0x3d, 0x1f, 0x3e, 0xfe, 0xbc,
  0xff, 0x4a, 0x69, 0xbc, 0x77, 0x02, 0x99, 0x3d, 0xf0, 0xde, 0xc3, 0xbd,
  0xb0, 0x96, 0x11, 0xbd, 0x78, 0x7f, 0x2b, 0x3e, 0x17, 0xe8, 0xe6, 0x3d,
  0x78, 0x76, 0x63, 0x3d, 0xbe, 0xef, 0x19, 0x3e, 0xbf, 0xc3, 0x22, 0x3e,
  0xed, 0xce, 0x0e, 0x3d, 0x90, 0x9d, 0x63, 0xbb, 0xbb, 0x97, 0x69, 0xbd,
  0x4b, 0xc7, 0x14, 0x3d, 0x75, 0xe9, 0xbe, 0xbd, 0x99, 0x20, 0x13, 0x3d,
  0xbd, 0xa6, 0x65, 0x3d, 0x61, 0xfe, 0xa8, 0x3d, 0x5d, 0x6d, 0x91, 0xbc,
  0x68, 0xdf, 0xce, 0xbd, 0x5e, 0xc1, 0x02, 0x3d, 0xde, 0x45, 0xfa, 0x3c,
  0x39, 0xf9, 0xc1, 0xbd, 0xf3, 0x24, 0x3b, 0xbd, 0x31, 0x6e, 0x8d, 0xbd,
  0x7c, 0xa1, 0x8a, 0x3d, 0x03, 0x89, 0x2e, 0x3c, 0xe0, 0x32, 0xbc, 0x3d,
  0x49, 0xd9, 0x4e, 0x3d, 0x36, 0x75, 0x08, 0x3e, 0x08, 0x64, 0x26, 0xbd,
  0xa5, 0x29, 0xbe, 0x3d, 0xa7, 0x41, 0x10, 0x3d, 0xa3, 0x6d, 0xf2, 0x3c,
  0xb9, 0xb1, 0xec, 0x3d, 0xd1, 0xa5, 0x8b, 0x3d, 0x18, 0xd9, 0x9f, 0xbc,
  0xc7, 0x58, 0x45, 0x3a, 0xf5, 0x4d, 0x80, 0xbd, 0x62, 0xba, 0x65, 0x3c,
  0xc7, 0xdc, 0x4f, 0x3d, 0xd4, 0xb9, 0xab, 0x3d, 0x4c, 0x7c, 0x45, 0xbd,
  0xa3, 0xbb, 0xaa, 0x3c, 0xbe, 0xb5, 0x3c, 0xbd, 0xe9, 0xa9, 0x90, 0xbc,
  0xb7, 0xdb, 0x69, 0xbd, 0xb2, 0xbe, 0x87, 0x3d, 0x7c, 0x12, 0x31, 0x3d,
  0x61, 0x9b, 0x8e, 0xbd, 0xfd, 0xb2, 0x00, 0xba, 0x4d, 0x19, 0x41, 0xbd,
  0xd0, 0xbe, 0x2a, 0xbd, 0xc4, 0x2d, 0x93, 0x3c, 0x79, 0x9a, 0x09, 0x3e,
  0x88, 0x10, 0x2c, 0x3e, 0x79, 0x85, 0xa0, 0x3d, 0x68, 0xfa, 0x4d, 0x3e,
  0x69, 0xdc, 0x84, 0x3e, 0x66, 0x49, 0x14, 0x3e, 0x50, 0x06, 0x6a, 0x3e,
  0xab, 0xea, 0xab, 0x3d, 0x72, 0x08, 0xae, 0x3d, 0xc5, 0xb6, 0xf7, 0x3d,
  0x45, 0xf2, 0x65, 0x3e, 0x73, 0x22, 0x91, 0x3e, 0x1a, 0xc6, 0x93, 0x3e,
  0x99, 0xe1, 0x55, 0x3e, 0x7e, 0xb2, 0x4f, 0x3e, 0xae, 0x16, 0x0d, 0x3e,
  0x8a, 0x28, 0x20, 0x3d, 0x40, 0xd2, 0x8e, 0x3d, 0x4c, 0x61, 0x68, 0x3e,
  0xa7, 0x33, 0x68, 0x3e, 0x85, 0xca, 0x4d, 0x3d, 0xd3, 0xc4, 0xec, 0x3d,
  0xca, 0xcb, 0x28, 0x3d, 0xb1, 0x3d, 0x44, 0x3e, 0x6d, 0x35, 0x31, 0x3e,
  0x27, 0x85, 0xcc, 0x3d, 0xb6, 0x60, 0x36, 0x3e, 0xcc, 0x51, 0xc4, 0x3c,
  0xc4, 0x28, 0x18, 0x3e, 0xe8, 0x13, 0x01, 0x3e, 0x24, 0xcc, 0x00, 0x3e,
  0xd9, 0xe3, 0xaa, 0x3d, 0xf8, 0x89, 0x39, 0x3e, 0xa2, 0x14, 0xae, 0x3d,
  0xc5, 0xd0, 0xc9, 0x3c, 0xb1, 0x7d, 0x08, 0x3e, 0x86, 0xcf, 0x02, 0x3e,
  0xec, 0xa7, 0x3c, 0x3e, 0x20, 0xe1, 0x0c, 0x3e, 0x3b, 0x75, 0xa2, 0x3d,
  0xd0, 0x03, 0xbb, 0x3d, 0x4f, 0x3c, 0x64, 0x3c, 0x40, 0x7b, 0xf8, 0x3d,
  0xf1, 0xe1, 0xb2, 0x3a, 0x13, 0xda, 0x15, 0x3e, 0x9a, 0xf2, 0x6b, 0x3d,
  0x8d, 0xad, 0xb7, 0x3d, 0xa6, 0x9a, 0x74, 0x3d, 0x80, 0x5d, 0x56, 0x3d,
  0xba, 0x0e, 0x06, 0x3e, 0x24, 0x8f, 0x1e, 0x3d, 0xb6, 0x9a, 0x9d, 0x3b,
  0x81, 0x8f, 0xac, 0x3d, 0x8f, 0x53, 0xf2, 0xbc, 0x1f, 0xc8, 0x61, 0xbc,
  0x67, 0x75, 0x51, 0x3d, 0xee, 0x7b, 0xe6, 0xbc, 0xc7, 0xd8, 0xbe, 0xbd,
  0x90, 0xa7, 0x0c, 0xbc, 0x0a, 0xc8, 0xe4, 0x3c, 0x6c, 0x9e, 0xce, 0xbd,
  0x92, 0x49, 0xc1, 0xbd, 0xae, 0x37, 0x93, 0x3b, 0x85, 0x1f, 0x97, 0xbd,
  0x7f, 0xa3, 0x8b, 0x3c, 0x12, 0xfe, 0x9b, 0x3b, 0x58, 0x1f, 0xb0, 0x3c,
  0x49, 0x09, 0xf7, 0x3d, 0x8a, 0x16, 0xf8, 0xbc, 0x0e, 0x32, 0xd9, 0x3c,
  0xf1, 0x59, 0x4e, 0xbd, 0x54, 0x07, 0x5b, 0xbd, 0x80, 0x5b, 0xcd, 0xbd,
  0x61, 0xf0, 0xcb, 0x3c, 0x4e, 0x92, 0x8d, 0xbd, 0x0e, 0x9c, 0x23, 0x3d,
  0x1a, 0x62, 0xb8, 0xbc, 0xfd, 0xd3, 0x5e, 0xbc, 0x87, 0x5e, 0xef, 0xbb,
  0x34, 0x41, 0x83, 0x3b, 0x42, 0x2f, 0x87, 0xbd, 0x2f, 0x6e, 0x4a, 0xbd,
  0x20, 0x5b, 0xc9, 0xbc, 0x90, 0x50, 0x8f, 0xbc, 0x20, 0x7c, 0x3e, 0xbe,
  0x05, 0x6c, 0xf0, 0xbd, 0xec, 0x93, 0xab, 0x3a, 0x60, 0x69, 0x21, 0xbe,
  0x41, 0x06, 0x40, 0xbe, 0x4a, 0x23, 0x6c, 0xbe, 0x72, 0xff, 0xe9, 0xbd,
  0xe8, 0xab, 0x68, 0xbe, 0x91, 0x3d, 0x3a, 0xbe, 0x2e, 0xf8, 0xcc, 0xbd,
  0x30, 0xbd, 0x3f, 0xbe, 0x32, 0x2a, 0x32, 0xbe, 0x2d, 0x58, 0x66, 0xbe,
  0x69, 0xe5, 0x8f, 0xbe, 0xd8, 0x02, 0x89, 0xbe, 0x61, 0x95, 0x97, 0xbe,
  0x2d, 0xe6, 0x98, 0xbe, 0xe1, 0x89, 0x9a, 0xbe, 0xdf, 0xed, 0xb4, 0xbe,
  0x90, 0x17, 0x37, 0xbe, 0x37, 0x66, 0x83, 0xbe, 0x20, 0x3c, 0x62, 0xbe,
  0x36, 0xd6, 0x6d, 0xbe, 0x7d, 0x80, 0x2f, 0xbe, 0x9c, 0x12, 0xf6, 0xbd,
  0xcc, 0x24, 0x07, 0xbe, 0xdb, 0x73, 0x4f, 0xbe, 0xec, 0xcb, 0x20, 0xbe,
  0x96, 0x2c, 0x7c, 0xbe, 0xaf, 0x39, 0x84, 0xbe, 0xf7, 0xe0, 0xf6, 0xbd,
  0xb4, 0xc0, 0x39, 0xbe, 0x31, 0xea, 0x85, 0xbe, 0x36, 0xdd, 0x0a, 0xbe,
  0xe6, 0x85, 0xb4, 0xbd, 0x5a, 0xb5, 0x89, 0xbe, 0x6e, 0x3d, 0x21, 0xbe,
  0x83, 0x90, 0x12, 0xbe, 0xd7, 0xe7, 0x4c, 0xbe, 0x1c, 0x06, 0x5b, 0xbe,
  0xa9, 0xf4, 0x72, 0xbd, 0xc9, 0x3a, 0x6e, 0xbd, 0x9b, 0xe9, 0x40, 0xbe,
  0x5c, 0x5e, 0xf5, 0xbd, 0x4d, 0x97, 0xc6, 0xbd, 0x86, 0x02, 0x5d, 0xbd,
  0x5e, 0x83, 0x72, 0x3d, 0x93, 0x85, 0x10, 0xbe, 0x00, 0xc3, 0x47, 0xbd,
  0x93, 0x47, 0xbc, 0xbd, 0xfb, 0x41, 0x86, 0xbd, 0xde, 0xc7, 0x71, 0xbd,
  0xf9, 0x93, 0x8c, 0x3d, 0x38, 0xe8, 0x5d, 0xbd, 0x0d, 0x04, 0x84, 0x3d,
  0xa1, 0x53, 0x06, 0xbd, 0x32, 0xe2, 0xdb, 0x3c, 0x16, 0x77, 0xa7, 0x3d,
  0x52, 0x85, 0xa5, 0x3d, 0xe0, 0x03, 0x9b, 0x3b, 0xd2, 0x73, 0xe5, 0x3d,
  0xdf, 0x45, 0xf7, 0x3d, 0xc3, 0x43, 0x04, 0x3d, 0x8f, 0xef, 0x8b, 0x3d,
  0x5d, 0xd6, 0x72, 0x3d, 0x08, 0xa9, 0x32, 0x3d, 0x6f, 0xa2, 0x32, 0x3e,
  0x7d, 0x32, 0x42, 0x3e, 0xd1, 0x0a, 0x18, 0x3e, 0x8f, 0xa8, 0xc1, 0x3d,
  0x5f, 0x6f, 0x3f, 0x3d, 0x81, 0x3a, 0xa7, 0x3d, 0x80, 0x68, 0x83, 0x3d,
  0x3f, 0xc4, 0x2e, 0x3c, 0xdc, 0x83, 0x46, 0x3e, 0x87, 0xa6, 0x00, 0x3e,
  0x29, 0x43, 0x44, 0x3e, 0xca, 0x0d, 0x2e, 0x3e, 0x5e, 0xca, 0x29, 0x3e,
  0x3b, 0x0f, 0x85, 0x3d, 0x8c, 0xcd, 0x5c, 0x3d, 0x30, 0x74, 0x0a, 0x3e,
  0x6b, 0x54, 0x44, 0x3e, 0x98, 0xb7, 0x32, 0x3e, 0xc9, 0x05, 0x0e, 0x3e,
  0x29, 0x2f, 0xc7, 0x3d, 0x18, 0xf5, 0x44, 0xbb, 0x10, 0x89, 0x90, 0x3d,
  0x71, 0xfc, 0xc3, 0x3d, 0x07, 0x53, 0xb2, 0xbc, 0xc7, 0x05, 0xf2, 0x3d,
  0x5f, 0x71, 0xad, 0x3d, 0x76, 0x82, 0xa9, 0x3d, 0x5f, 0xf7, 0xbb, 0x3c,
  0x74, 0x9a, 0xc4, 0x3d, 0x18, 0x89, 0x35, 0xbd, 0x00, 0xef, 0x1a, 0x3e,
  0xf7, 0x73, 0x76, 0x3c, 0xae, 0x37, 0x08, 0xbd, 0xf3, 0x1b, 0xe1, 0x3c,
  0xe0, 0x88, 0x02, 0x3e, 0xb8, 0xbb, 0xd2, 0x3b, 0x82, 0xb6, 0x81, 0x3c,
  0x00, 0x52, 0x10, 0x3e, 0xbf, 0x1c, 0x53, 0x3e, 0x04, 0xb0, 0x44, 0x3e,
  0xd5, 0x99, 0x23, 0x3e, 0x0e, 0x72, 0x18, 0x3e, 0x0b, 0x5e, 0xfa, 0x3d,
  0xa9, 0xd5, 0x84, 0x3e, 0x35, 0xe1, 0xe0, 0x3d, 0x1d, 0xc3, 0x10, 0x3e,
  0xd2, 0xd2, 0x8a, 0x3e, 0xf5, 0x8b, 0x4f, 0x3e, 0x1c, 0xcf, 0x17, 0x3e,
  0xfb, 0x11, 0xad, 0x3d, 0x7d, 0xf0, 0x3a, 0x3e, 0x55, 0xaf, 0x8f, 0x3d,
  0x55, 0xc2, 0xf3, 0x3d, 0x5f, 0x7e, 0x3d, 0x3e, 0x46, 0x35, 0x14, 0x3e,
  0xca, 0x86, 0xae, 0x3d, 0x26, 0x61, 0x48, 0x3c, 0x64, 0x4b, 0xa4, 0x3c,
  0xae, 0x3c, 0x6a, 0x3c, 0xe3, 0xb0, 0xfb, 0x3c, 0xf5, 0x73, 0x19, 0x3e,
  0xa9, 0x46, 0xcd, 0x3d, 0x12, 0x3a, 0x16, 0x3e, 0x2e, 0x13, 0x06, 0x3e,
  0x55, 0x40, 0x29, 0x3e, 0x7e, 0xc2, 0xac, 0x3d, 0x22, 0xcb, 0x3e, 0x3d,
  0xd7, 0xd4, 0x71, 0x3d, 0xa4, 0x3e, 0xb8, 0xbc, 0x1a, 0x36, 0xe9, 0x3b,
  0x19, 0x86, 0x7d, 0xbd, 0x41, 0x3b, 0x0d, 0x3d, 0xb7, 0x9e, 0xea, 0x3d,
  0x57, 0x6d, 0x3a, 0xbd, 0x99, 0xb3, 0xd1, 0x3d, 0x55, 0xe2, 0x14, 0x3e,
  0x74, 0xfb, 0xaa, 0x3d, 0xe5, 0x74, 0x06, 0x3e, 0x6b, 0xa2, 0x0c, 0x3d,
  0x96, 0x8e, 0xe8, 0x3d, 0xc9, 0x87, 0x16, 0x3d, 0x2f, 0x8f, 0xd0, 0x3d,
  0xa7, 0x3f, 0xd0, 0x3d, 0x44, 0x7e, 0x67, 0x3e, 0x16, 0x0d, 0xc2, 0x3d,
  0x61, 0x50, 0xe1, 0x3d, 0xe8, 0x4c, 0xa3, 0x3d, 0xce, 0xcd, 0x19, 0x3e,
  0x75, 0xa2, 0xdc, 0x3d, 0x87, 0xb4, 0xc3, 0x3d, 0x07, 0xec, 0xa8, 0xba,
  0xdf, 0xef, 0x6e, 0x3c, 0x4e, 0x55, 0x16, 0x3e, 0x6d, 0x41, 0x3d, 0x3e,
  0xee, 0x9a, 0xcb, 0x3d, 0x1c, 0x63, 0x8d, 0xb9, 0x4c, 0xb2, 0x87, 0x3d,
  0x84, 0x7f, 0x46, 0x3c, 0xc9, 0xcc, 0x16, 0x3e, 0x8d, 0xb6, 0x12, 0x3e,
  0x16, 0xd6, 0x2c, 0x3e, 0xcf, 0x9d, 0xf7, 0x3d, 0x68, 0xfe, 0x56, 0x3d,
  0x5e, 0x94, 0x5e, 0x3d, 0x63, 0x98, 0x03, 0x3d, 0x1b, 0x19, 0x33, 0x3d,
  0x7c, 0x05, 0x22, 0xbd, 0xa5, 0x95, 0x4a, 0xbd, 0x98, 0x44, 0xad, 0x3d,
  0x89, 0x6e, 0x50, 0x3a, 0x36, 0x48, 0x9f, 0xbd, 0xd7, 0x49, 0xd1, 0xbc,
  0xaf, 0xf6, 0x02, 0x3c, 0x57, 0x6c, 0x2a, 0xbd, 0x4d, 0x9f, 0x0d, 0x3d,
  0x40, 0x4f, 0xc6, 0x3d, 0x7a, 0xf1, 0x25, 0x3d, 0x6d, 0x7f, 0x6f, 0xbd,
  0xe4, 0xc1, 0x56, 0x3c, 0xc2, 0x87, 0x70, 0x3d, 0x96, 0x6a, 0x0e, 0xbb,
  0x11, 0xe8, 0x9d, 0x3d, 0x37, 0x3f, 0x81, 0x3d, 0xfe, 0xa8, 0x21, 0xbd,
  0xcb, 0x77, 0x6c, 0x3d, 0x76, 0x94, 0x6d, 0xbd, 0x4b, 0x0d, 0xe8, 0x3d,
  0x23, 0x09, 0x71, 0xbd, 0xb0, 0xc4, 0x88, 0x3d, 0x9a, 0x43, 0x6a, 0x3d,
  0xd5, 0x47, 0x00, 0xbd, 0xae, 0x07, 0xa0, 0x3d, 0x68, 0x36, 0x09, 0xbd,
  0x51, 0x8b, 0xc3, 0x3d, 0x89, 0x9e, 0x4a, 0x3d, 0x6c, 0x0e, 0xe5, 0x3c,
  0xcd, 0x6f, 0xc3, 0x3d, 0x46, 0x16, 0xe5, 0x3d, 0x18, 0x88, 0x2b, 0x3d,
  0xad, 0xc1, 0x9e, 0x3b, 0xc1, 0x29, 0x2e, 0x3e, 0x66, 0xbe, 0x2a, 0x3c,
  0xa0, 0x79, 0xc3, 0x3d, 0xdf, 0x14, 0x8c, 0x3d, 0x59, 0xa0, 0x58, 0xbd,
  0x6b, 0x6b, 0x20, 0x3d, 0x94, 0xcb, 0xee, 0x3d, 0x61, 0x96, 0x20, 0x3e,
  0xb2, 0xef, 0xbd, 0x3d, 0xf7, 0x8c, 0x7f, 0x3d, 0x5a, 0x89, 0xef, 0x3d,
  0x6a, 0xab, 0x9e, 0x3d, 0x11, 0x9c, 0x21, 0x3e, 0xe6, 0x16, 0xb3, 0x3d,
  0xff, 0x18, 0x7d, 0x3e, 0x18, 0x06, 0x57, 0x3e, 0x80, 0xb4, 0x82, 0x3e,
  0x5f, 0x72, 0x2d, 0x3e, 0x5b, 0xf7, 0x53, 0x3e, 0xaf, 0x05, 0x81, 0x3d,
  0xc3, 0x38, 0x6e, 0x3e, 0x55, 0x57, 0x21, 0x3e, 0xf7, 0x56, 0x41, 0x3e,
  0xc8, 0xa5, 0x2e, 0x3e, 0x7e, 0xbc, 0x54, 0x3e, 0xf6, 0x2e, 0x07, 0x3d,
  0x30, 0xd3, 0x04, 0x3e, 0x9e, 0x5f, 0x82, 0xbd, 0xe9, 0x9a, 0x14, 0x3e,
  0x03, 0x9b, 0x9e, 0x3d, 0xd3, 0xaa, 0x20, 0x3e, 0xd2, 0x5f, 0x63, 0x3d,
  0xe2, 0xad, 0x16, 0x3e, 0xed, 0x4f, 0xef, 0xbc, 0x84, 0xe0, 0x07, 0x3e,
  0xbb, 0xc5, 0x04, 0x3e, 0xf8, 0x65, 0x99, 0x3d, 0x4b, 0x60, 0x13, 0x3e,
  0xbc, 0xda, 0xba, 0x3d, 0xc2, 0xab, 0x08, 0x3e, 0xc3, 0xed, 0x75, 0x3c,
  0xf5, 0xdb, 0x3c, 0x3d, 0xc4, 0x74, 0x83, 0x3d, 0xd1, 0xfb, 0xbe, 0x3d,
  0x52, 0x2d, 0xd6, 0x3d, 0x44, 0x17, 0x99, 0x3d, 0xb3, 0x81, 0x08, 0xbd,
  0xab, 0xae, 0x87, 0xbd, 0xc4, 0xd9, 0x88, 0xbc, 0x2c, 0x7e, 0x42, 0xbd,
  0x29, 0xff, 0xc0, 0xbd, 0xd3, 0x30, 0x88, 0x3d, 0xc8, 0x35, 0xf0, 0xba,
  0x70, 0x4d, 0xdc, 0x3d, 0xda, 0xa6, 0x52, 0x3c, 0x1a, 0x76, 0x7a, 0xbb,
  0x44, 0x2d, 0xf5, 0xbd, 0x6b, 0x82, 0xb8, 0xbd, 0x5a, 0x63, 0x72, 0xbc,
  0x70, 0x16, 0x06, 0xbd, 0xcd, 0x47, 0x10, 0x3e, 0x78, 0x8d, 0x13, 0xbd,
  0x64, 0xaf, 0x0c, 0x3d, 0x33, 0xe1, 0x43, 0xbd, 0x89, 0x33, 0xdd, 0xbd,
  0xb2, 0xca, 0xff, 0x3d, 0xa3, 0x8f, 0xf8, 0xbc, 0xbc, 0x02, 0x19, 0x3d,
  0xa5, 0xc3, 0xa5, 0x3d, 0x4d, 0x25, 0x4e, 0x3d, 0x69, 0x88, 0x1a, 0x3e,
  0xdf, 0x71, 0x56, 0xbd, 0x21, 0xf5, 0xb0, 0xbd, 0x5c, 0xde, 0x14, 0xbd,
  0x99, 0xba, 0x03, 0x3d, 0x0a, 0xcb, 0x8d, 0xbd, 0x94, 0xca, 0x7e, 0xbd,
  0x03, 0x0b, 0x69, 0xbd, 0x90, 0xd1, 0x80, 0xbd, 0x3d, 0x60, 0x58, 0xbd,
  0xc3, 0xfd, 0x75, 0xbd, 0x3a, 0xc4, 0x84, 0x3d, 0xeb, 0xf8, 0x2f, 0xbd,
  0xcd, 0x7e, 0xaa, 0x3c, 0x10, 0x36, 0x94, 0xbd, 0x93, 0x05, 0x89, 0xbd,
  0xf9, 0xa4, 0xa9, 0xbd, 0xa0, 0x90, 0x14, 0x3c, 0x8f, 0x32, 0x43, 0xbd,
  0x7f, 0x2e, 0xad, 0x3d, 0x99, 0x62, 0xae, 0xbd, 0x4b, 0xf5, 0x19, 0xbd,
  0xf9, 0xdc, 0x9e, 0x3d, 0x7d, 0x31, 0x4a, 0x3d, 0x60, 0x51, 0xe0, 0xbd,
  0x72, 0xbf, 0xc5, 0xbb, 0x20, 0xc0, 0xb2, 0xbd, 0xaf, 0x40, 0x7a, 0x3c,
  0xd8, 0x3f, 0x48, 0xbd, 0xec, 0x4c, 0x9f, 0xbd, 0xf4, 0xbb, 0xe9, 0xbd,
  0x72, 0x27, 0x45, 0xbd, 0xa3, 0xb9, 0x25, 0xbd, 0xba, 0x76, 0x19, 0xbe,
  0x57, 0xe5, 0x04, 0xbe, 0xf2, 0xdc, 0xba, 0xbc, 0xa0, 0x48, 0xa4, 0xbd,
  0xca, 0x0e, 0x4b, 0xbd, 0xdc, 0x63, 0xb5, 0x3d, 0x52, 0xfe, 0x0b, 0x3e,
  0x26, 0x85, 0xbf, 0xbd, 0x74, 0x2a, 0xb9, 0xbd, 0xc6, 0x79, 0xcc, 0x3d,
  0xba, 0x9d, 0x8e, 0xbd, 0x8b, 0x55, 0xab, 0x3d, 0x53, 0x6f, 0x19, 0x3d,
  0xd1, 0xb0, 0x9d, 0x3d, 0x54, 0xe2, 0x6c, 0xbc, 0x9f, 0x67, 0xa4, 0x3d,
  0xcd, 0x75, 0xd7, 0x3c, 0xa1, 0x35, 0x5e, 0xbd, 0x52, 0x7b, 0xb1, 0xbc,
  0xb5, 0x55, 0x7b, 0x3d, 0x02, 0x22, 0x64, 0x3d, 0xa6, 0xe4, 0x7c, 0xbd,
  0x04, 0x48, 0x9c, 0xbc, 0x27, 0x1e, 0x0d, 0xbc, 0xac, 0xda, 0x6d, 0xbd,
  0x3a, 0xd5, 0x10, 0xbd, 0x1e, 0x6f, 0x4b, 0xbd, 0xbc, 0x4a, 0xf8, 0xbc,
  0xb8, 0x03, 0x9b, 0xbc, 0xe8, 0x78, 0x40, 0xbc, 0x64, 0x42, 0x10, 0xbd,
  0x1b, 0xf8, 0xd4, 0x3d, 0x9c, 0x24, 0x8b, 0x3d, 0xb8, 0xf4, 0x79, 0xbc,
  0x99, 0x07, 0x4f, 0xbd, 0x07, 0x7a, 0xa4, 0xbd, 0xc0, 0xa7, 0x64, 0x3d,
  0x01, 0x53, 0xbd, 0xbb, 0xf3, 0x64, 0xab, 0x3d, 0xa0, 0x78, 0x0a, 0x3e,
  0xfc, 0xa2, 0x98, 0xbd, 0xfe, 0x37, 0x14, 0xbd, 0xa5, 0x1a, 0x81, 0x3d,
  0x6f, 0x30, 0x12, 0xbd, 0x15, 0x2a, 0xde, 0x3d, 0xd6, 0xf1, 0x2f, 0xb9,
  0x0e, 0xc6, 0x4f, 0x3d, 0x05, 0x8c, 0x07, 0x3d, 0xec, 0xd4, 0xcc, 0x3d,
  0x4e, 0x01, 0xcc, 0x3c, 0xc9, 0x74, 0x03, 0x3e, 0xc1, 0xee, 0x5f, 0x3d,
  0x6d, 0x68, 0x48, 0x3e, 0xcb, 0x4f, 0x28, 0x3e, 0x53, 0x6c, 0x1b, 0x3e,
  0x9a, 0x58, 0x0e, 0x3d, 0x15, 0x42, 0x4d, 0x3e, 0x46, 0x34, 0xe2, 0x3d,
  0x94, 0x15, 0xb3, 0x3d, 0x54, 0xec, 0xbd, 0x3d, 0xae, 0x4c, 0xd7, 0x3d,
  0xae, 0x20, 0xe7, 0xba, 0xea, 0x48, 0x1f, 0x3e, 0x65, 0x8f, 0x0f, 0x3e,
  0x88, 0x9a, 0x04, 0x3e, 0xf8, 0xd2, 0x4e, 0xbb, 0x9a, 0xdf, 0xb1, 0x3d,
  0x95, 0x95, 0x4e, 0x3e, 0x51, 0x75, 0xb4, 0x3d, 0xe6, 0xd9, 0x47, 0x3c,
  0x23, 0xfd, 0x67, 0x3d, 0x29, 0x25, 0x3c, 0x3e, 0x51, 0xf4, 0x3f, 0x3e,
  0xb8, 0x7a, 0x24, 0x3e, 0x3f, 0xb4, 0x71, 0x3d, 0x92, 0xfe, 0x4b, 0x3c,
  0x09, 0xb5, 0x41, 0x3c, 0xe0, 0x17, 0x4d, 0x3c, 0xdc, 0xe3, 0xdf, 0x3b,
  0x72, 0x71, 0xbe, 0x3d, 0xd8, 0xb0, 0x16, 0x3e, 0xb1, 0x4f, 0x59, 0x3e,
  0xa5, 0xd5, 0x06, 0x3d, 0x7c, 0x51, 0x26, 0x3d, 0xd6, 0xba, 0xd5, 0xbc,
  0xbf, 0x2c, 0x68, 0x3d, 0xfc, 0xe2, 0xd8, 0x3d, 0x34, 0x92, 0x93, 0x3c,
  0x0e, 0x87, 0xf1, 0xbc, 0x6b, 0xec, 0x74, 0x3c, 0x62, 0xdc, 0x34, 0x3d,
  0x47, 0x33, 0x3e, 0x3d, 0x7b, 0xee, 0xb2, 0x3d, 0x86, 0x49, 0xd5, 0x3d,
  0x01, 0x3b, 0xa5, 0x3d, 0x86, 0x59, 0x81, 0x3d, 0x1c, 0x82, 0xfb, 0x3c,
  0x22, 0x7d, 0x33, 0x3b, 0x31, 0xaa, 0x41, 0x3e, 0x07, 0xba, 0xb0, 0x3c,
  0xce, 0x95, 0xbc, 0x3c, 0xe0, 0xfb, 0xd8, 0x3d, 0x8a, 0x41, 0xa0, 0x3d,
  0x59, 0x67, 0xcb, 0x3d, 0x01, 0x75, 0x2d, 0x3e, 0xc6, 0x43, 0xbf, 0x3d,
  0x53, 0xb8, 0x00, 0x3d, 0xbe, 0x54, 0xec, 0x3d, 0xe1, 0xc3, 0xb3, 0x3d,
  0x06, 0x22, 0x27, 0x3d, 0xcf, 0x68, 0x53, 0x3e, 0xcc, 0x1d, 0x81, 0x3d,
  0xae, 0xbe, 0x10, 0x3d, 0xd8, 0x47, 0xaf, 0x3a, 0xf7, 0x60, 0x14, 0x3e,
  0x5f, 0xd5, 0x27, 0x3e, 0x35, 0x5e, 0x0e, 0x3e, 0x48, 0xee, 0x7e, 0x3c,
  0x65, 0x78, 0xc4, 0xbc, 0x45, 0x37, 0x00, 0x3e, 0x2a, 0xe4, 0x91, 0x3d,
  0x31, 0xf3, 0xcc, 0xbc, 0x38, 0x79, 0xa0, 0x3d, 0xd3, 0x3c, 0x0b, 0x3e,
  0x32, 0xcf, 0x1b, 0x3e, 0xac, 0x24, 0x77, 0x3d, 0x6b, 0x33, 0x5f, 0x3d,
  0x26, 0x16, 0xac, 0xbc, 0xdf, 0xc7, 0x65, 0xbd, 0x53, 0xc6, 0xf8, 0x3d,
  0xdc, 0xef, 0x5e, 0x3c, 0xf9, 0xa7, 0xb3, 0x3d, 0xc6, 0x26, 0xe5, 0x3d,
  0x7f, 0x16, 0x82, 0x3d, 0xea, 0x2b, 0x9c, 0x3c, 0x59, 0x63, 0xfd, 0x3b,
  0x58, 0x05, 0xa2, 0x3c, 0xe4, 0x6d, 0x3f, 0xbd, 0x4a, 0xad, 0x03, 0x3e,
  0xf7, 0xce, 0x06, 0x3e, 0x67, 0xb5, 0x94, 0x3d, 0x9f, 0xe4, 0x26, 0x3d,
  0x2f, 0x2c, 0x01, 0x3d, 0x89, 0x92, 0xa6, 0x3c, 0x3a, 0xe3, 0xd4, 0xbc,
  0x64, 0xab, 0x2c, 0x3d, 0x4f, 0xdb, 0xc1, 0x3d, 0x7b, 0x28, 0xce, 0x3d,
  0x14, 0x5f, 0x11, 0x3e, 0x72, 0x1a, 0x27, 0x3e, 0x30, 0x3f, 0x10, 0x3c,
  0x91, 0xcf, 0xd6, 0x3d, 0x7e, 0x83, 0x7e, 0x3d, 0x31, 0x3d, 0xf4, 0x3d,
  0x62, 0xb7, 0x80, 0x3d, 0x33, 0xbf, 0x10, 0x3e, 0x5b, 0x8f, 0xa0, 0x3b,
  0x3a, 0x66, 0xc7, 0x3d, 0xe5, 0x1c, 0xc4, 0xbd, 0x56, 0xae, 0x98, 0x3d,
  0xad, 0x27, 0x32, 0x3d, 0x36, 0x99, 0xbd, 0x3d, 0xff, 0xee, 0xc3, 0x3d,
  0xc5, 0x72, 0x88, 0x3c, 0x22, 0xa5, 0x50, 0xbd, 0x0f, 0xf8, 0x0f, 0xbd,
  0xfb, 0x14, 0xda, 0x3d, 0x55, 0xa4, 0x69, 0x3d, 0xd6, 0xfd, 0xe6, 0x3d,
  0x11, 0x62, 0xcc, 0x3d, 0x2c, 0xf8, 0x11, 0xbd, 0x31, 0x82, 0x05, 0xbd,
  0x99, 0x16, 0x37, 0x3c, 0x7e, 0x48, 0x6f, 0x3d, 0xee, 0x4a, 0x0b, 0x3d,
  0xb6, 0x0e, 0x07, 0x3e, 0x28, 0xd0, 0xaf, 0x3c, 0xe4, 0x08, 0xbe, 0x3d,
  0xb1, 0xc4, 0xb0, 0x3d, 0x14, 0x42, 0x35, 0xbb, 0x54, 0x00, 0x76, 0x3d,
  0x91, 0x6b, 0x6f, 0x3d, 0xef, 0x23, 0x85, 0xbd, 0x3f, 0xbd, 0x51, 0xbd,
  0x11, 0x4a, 0xe6, 0xbd, 0x60, 0x95, 0x4e, 0xbc, 0x2c, 0xea, 0x1b, 0xbd,
  0x6d, 0x57, 0x1f, 0xbe, 0x3b, 0xb8, 0x0e, 0xbe, 0x54, 0xf9, 0x43, 0x3d,
  0x7c, 0xb7, 0xc5, 0xbd, 0xca, 0x1b, 0xb4, 0xbc, 0x24, 0xf3, 0x97, 0xbd,
  0x63, 0x6a, 0xc0, 0xbd, 0xd0, 0x78, 0x1e, 0xbe, 0x15, 0x72, 0x62, 0xbd,
  0x36, 0x09, 0x0a, 0xbe, 0x41, 0x90, 0x0d, 0x3d, 0x21, 0x45, 0x04, 0xbd,
  0xfb, 0xa7, 0xf7, 0xbd, 0x92, 0xb4, 0x97, 0x3c, 0xc6, 0xb1, 0xa1, 0xbd,
  0xa1, 0x4a, 0xd5, 0xbc, 0xaf, 0x5b, 0x02, 0xbe, 0x02, 0x8e, 0xeb, 0x3c,
  0xa0, 0xfa, 0x00, 0xbe, 0x9b, 0x6d, 0x3a, 0xbd, 0xdc, 0x9c, 0x22, 0xbe,
  0xc4, 0x28, 0x33, 0xbe, 0xcc, 0xb6, 0x90, 0xbd, 0xfa, 0xdf, 0xb8, 0xbc,
  0xaf, 0x0c, 0x0a, 0xbe, 0xcf, 0x80, 0xc2, 0xbd, 0xb6, 0x81, 0x5a, 0xbc,
  0x17, 0xcf, 0x0c, 0xbe, 0x89, 0x22, 0xde, 0xbd, 0x5a, 0x5b, 0x15, 0xbd,
  0xa0, 0x83, 0x9f, 0xbd, 0x5f, 0x8e, 0x08, 0xbe, 0x7e, 0x3a, 0xec, 0xbd,
  0x79, 0x09, 0xe7, 0xbd, 0xf9, 0x55, 0x22, 0xbb, 0x65, 0x27, 0xca, 0xbc,
  0x00, 0x6e, 0x94, 0xbd, 0xa1, 0x40, 0xc2, 0xbd, 0x5e, 0x84, 0x95, 0xbc,
  0x8c, 0xa9, 0xcd, 0x3c, 0xa5, 0xa3, 0xb0, 0x3d, 0xa6, 0xb6, 0x34, 0xbd,
  0xf3, 0x86, 0xab, 0x3d, 0x82, 0x0d, 0x83, 0x3d, 0x82, 0x1c, 0x28, 0x3c,
  0x6c, 0x84, 0x9a, 0x3d, 0x93, 0xf6, 0x98, 0x3d, 0xec, 0x38, 0xd2, 0xbc,
  0xd3, 0x46, 0x28, 0x3d, 0xf7, 0x03, 0xed, 0x3d, 0xcf, 0x58, 0xf5, 0x3d,
  0x52, 0xaa, 0xd2, 0x3d, 0x23, 0x2c, 0xcb, 0x3d, 0x35, 0x26, 0x0d, 0x3e,
  0xd3, 0xcc, 0x09, 0x3b, 0x6d, 0x4a, 0xad, 0xba, 0x08, 0x99, 0xbc, 0x3d,
  0x80, 0xff, 0x81, 0x3d, 0x85, 0x7f, 0xb3, 0xba, 0x95, 0x3c, 0x70, 0xbc,
  0x4a, 0x0e, 0x7a, 0x3d, 0x84, 0x74, 0xb4, 0x3d, 0xe0, 0xe1, 0xb0, 0x3d,
  0xfb, 0xc5, 0x92, 0x3b, 0x9e, 0x37, 0x24, 0x3e, 0x6a, 0xb4, 0x9b, 0x3d,
  0x26, 0xff, 0x9f, 0x3d, 0xc1, 0x70, 0x8b, 0x3d, 0xba, 0x53, 0xc5, 0x3d,
  0xf0, 0xa6, 0x87, 0x3c, 0xf5, 0x52, 0x83, 0x3d, 0x40, 0x8a, 0xf8, 0xbc,
  0x8b, 0x92, 0x00, 0x3e, 0x80, 0xe6, 0x51, 0x3d, 0x4b, 0x42, 0xbc, 0x3d,
  0x76, 0xef, 0x3e, 0x3d, 0x35, 0x92, 0xea, 0x3d, 0x49, 0xe7, 0x06, 0x3c,
  0x6e, 0xe8, 0x32, 0x3e, 0x18, 0x73, 0xa1, 0x3d, 0xa3, 0x11, 0xf8, 0x3d,
  0x71, 0xfb, 0x2a, 0x3d, 0x05, 0x14, 0xda, 0x3d, 0xb5, 0x91, 0x6c, 0x3b,
  0x1a, 0x7d, 0x93, 0x3c, 0x29, 0x2a, 0x1f, 0xbd, 0xe2, 0xe0, 0x81, 0xbc,
  0x5b, 0x30, 0xf3, 0x3c, 0xf6, 0x97, 0xd6, 0xbd, 0xf8, 0xfd, 0x34, 0x3c,
  0x84, 0x9c, 0xe2, 0xbd, 0x13, 0x90, 0x3a, 0xbd, 0xa9, 0xfb, 0xaa, 0xbd,
  0x22, 0x8e, 0x27, 0xbd, 0x5b, 0xd0, 0x2f, 0x3d, 0x71, 0x18, 0xdd, 0x3b,
  0x53, 0x67, 0x35, 0x3d, 0x1c, 0xb9, 0xa3, 0xbd, 0x66, 0x91, 0xd6, 0xbd,
  0x3b, 0xd1, 0x90, 0xbc, 0xf3, 0xe1, 0xda, 0xbd, 0xdc, 0xf8, 0xfb, 0xbc,
  0x25, 0x60, 0xdc, 0xbd, 0xde, 0xa0, 0xd4, 0xbd, 0x98, 0xb2, 0xaa, 0xbb,
  0x3f, 0x07, 0xa6, 0x3c, 0xd2, 0x67, 0x8d, 0x3d, 0xf7, 0xe4, 0x87, 0xbd,
  0xee, 0x03, 0xeb, 0xbd, 0xce, 0xad, 0x70, 0x3d, 0x70, 0xe3, 0xc7, 0x39,
  0xa0, 0x04, 0x72, 0xbd, 0x3a, 0x6c, 0x24, 0x3d, 0xbc, 0xb3, 0x2b, 0xbd,
  0xb7, 0xe3, 0x95, 0xbd, 0x07, 0x7c, 0xcd, 0xbd, 0x50, 0x5b, 0x06, 0xbe,
  0x66, 0x8f, 0xf6, 0xbd, 0x47, 0x64, 0x1a, 0xbd, 0xe4, 0xc0, 0xeb, 0xbb,
  0x73, 0x10, 0xdd, 0xbd, 0x6d, 0x82, 0x95, 0xbc, 0x8f, 0x94, 0x2a, 0xbd,
  0x80, 0x31, 0xd4, 0xbd, 0xb8, 0x03, 0x86, 0xbd, 0xc5, 0xea, 0x8c, 0xbd,
  0x59, 0x6c, 0x1f, 0xbe, 0x0a, 0xbd, 0x4a, 0xbc, 0x53, 0xb5, 0xc2, 0xbd,
  0x4a, 0xd0, 0x9d, 0xbd, 0x1c, 0xdf, 0x16, 0xbd, 0x4f, 0xc0, 0x04, 0xbe,
  0x6b, 0xd9, 0xae, 0xbd, 0xfe, 0x2f, 0x12, 0xbe, 0xee, 0xf6, 0x05, 0xbe,
  0x1f, 0x50, 0x9c, 0xbd, 0x12, 0x0c, 0x40, 0xbd, 0xb5, 0xc3, 0xbb, 0xbd,
  0xf7, 0x7c, 0xd5, 0xbd, 0x14, 0x30, 0x74, 0xbd, 0x43, 0xa2, 0x02, 0xbd,
  0x0e, 0x29, 0x0c, 0xbc, 0xa2, 0x80, 0xab, 0xbd, 0x46, 0x4a, 0xdf, 0xbd,
  0x34, 0xda, 0xbb, 0xbc, 0x3d, 0x01, 0xbd, 0xbd, 0x90, 0x70, 0x07, 0x3c,
  0x3b, 0x7e, 0x9b, 0xbd, 0x36, 0x6a, 0xc7, 0x3d, 0xc2, 0x95, 0x53, 0x3b,
  0x7e, 0xeb, 0xc1, 0x3b, 0x6f, 0xd0, 0x2d, 0xbd, 0xda, 0x7d, 0x5c, 0xbd,
  0x7e, 0x56, 0xf6, 0xbc, 0x48, 0x73, 0xb1, 0x3c, 0xf2, 0x59, 0x13, 0x3e,
  0xb8, 0x50, 0x1b, 0x3e, 0x58, 0x22, 0xa9, 0xbc, 0xb1, 0x09, 0x33, 0x3e,
  0x0e, 0xac, 0x58, 0x3d, 0x55, 0x3f, 0x3a, 0x3e, 0x3c, 0x15, 0x0f, 0x3e,
  0x69, 0x0a, 0x33, 0x3e, 0xc3, 0x96, 0x14, 0x3e, 0x34, 0xb6, 0x30, 0x3e,
  0x7d, 0x5f, 0x0e, 0x3e, 0x63, 0x1b, 0x16, 0x3e, 0xf2, 0xbf, 0x2a, 0x3e,
  0xe3, 0x31, 0x71, 0x3d, 0xdc, 0xb7, 0x69, 0x3e, 0xc7, 0xf5, 0x2e, 0x3e,
  0xd5, 0x06, 0x5d, 0x3e, 0x45, 0xeb, 0x3d, 0x3d, 0x09, 0x9b, 0x27, 0x3e,
  0x05, 0xb8, 0x0d, 0x3e, 0x41, 0xbe, 0xac, 0x3a, 0x5e, 0x34, 0x3b, 0x3e,
  0xbd, 0xb4, 0x26, 0x3d, 0x50, 0x18, 0xc7, 0x3d, 0xc3, 0x4b, 0x29, 0x3e,
  0xa2, 0x1d, 0xce, 0x3b, 0x5f, 0xc0, 0x30, 0x3e, 0x34, 0x52, 0x05, 0x3e,
  0xbb, 0x0a, 0x32, 0xbd, 0xd6, 0x2b, 0x8d, 0x3c, 0x28, 0xd5, 0xca, 0x3d,
  0x94, 0x46, 0xc9, 0xba, 0xad, 0x84, 0xdf, 0xbc, 0x6c, 0xf4, 0xa9, 0xbc,
  0x14, 0x7d, 0x92, 0x3d, 0x75, 0xd5, 0x86, 0x3d, 0xae, 0x3f, 0x21, 0x3c,
  0x0a, 0x27, 0x8e, 0xbd, 0xe7, 0x46, 0xbd, 0xbd, 0x4d, 0xed, 0x7a, 0xbd,
  0x70, 0x7e, 0x66, 0xbd, 0x3e, 0x8a, 0x0a, 0xbe, 0xdf, 0xbc, 0x91, 0xbc,
  0x7e, 0xde, 0x2d, 0xbe, 0x98, 0x18, 0xa6, 0xbd, 0x9c, 0x7a, 0xea, 0xbd,
  0x02, 0xb1, 0x38, 0xbb, 0x3f, 0x9a, 0x25, 0xbe, 0x26, 0x0f, 0x30, 0xbe,
  0xf0, 0xc4, 0x0a, 0xbe, 0x4b, 0x93, 0x31, 0xbe, 0x89, 0x4e, 0x0f, 0xbe,
  0x6d, 0x26, 0x05, 0xbe, 0x9b, 0x0d, 0x48, 0xbe, 0x0c, 0x32, 0x94, 0xbd,
  0x56, 0x98, 0x62, 0xbe, 0x15, 0x4b, 0x7f, 0xbe, 0x85, 0x07, 0x48, 0xbe,
  0xf3, 0x8e, 0x53, 0xbe, 0x16, 0x39, 0x3c, 0xbd, 0x67, 0x06, 0x46, 0xbe,
  0xcd, 0xff, 0x37, 0xbe, 0xee, 0xfd, 0x4c, 0xbd, 0x91, 0x8a, 0x1a, 0xbe,
  0xc3, 0xaf, 0xdc, 0xbd, 0xde, 0x36, 0xc8, 0xbd, 0x46, 0x26, 0x35, 0xbd,
  0x52, 0xef, 0xda, 0xbd, 0x0e, 0x47, 0x55, 0xbd, 0xd1, 0x74, 0x9a, 0x3b,
  0x61, 0x2d, 0x97, 0xbd, 0x0a, 0xe5, 0x1c, 0xbd, 0x0d, 0xb7, 0x9a, 0xb9,
  0x3f, 0x0e, 0x02, 0xbd, 0xda, 0x4d, 0x05, 0xbd, 0x61, 0xb0, 0x32, 0xbc,
  0xcc, 0x25, 0x8b, 0x3d, 0x99, 0x75, 0xa8, 0x3b, 0xd5, 0x64, 0x8c, 0x3d,
  0x27, 0x68, 0xc4, 0x3d, 0xdb, 0x31, 0xb2, 0xbc, 0x28, 0x2e, 0x5b, 0x3d,
  0x19, 0xfd, 0x10, 0x3d, 0x16, 0x62, 0x15, 0x3e, 0xef, 0xb0, 0xb8, 0x3d,
  0xbe, 0xb0, 0x36, 0x3e, 0xd7, 0x91, 0xc6, 0x3d, 0x4c, 0x41, 0xc9, 0x3d,
  0xcc, 0x4f, 0x1b, 0x3e, 0xcc, 0x89, 0x20, 0xbb, 0xfb, 0xff, 0xb1, 0xbb,
  0x0b, 0x26, 0x36, 0x3d, 0x33, 0x5f, 0x2a, 0x3e, 0xc3, 0x0a, 0x38, 0x3e,
  0xba, 0x51, 0xd9, 0x3d, 0x6f, 0x83, 0x99, 0x3d, 0x78, 0x8e, 0x05, 0x3e,
  0x3c, 0x13, 0xca, 0x3c, 0xd5, 0xe5, 0x4d, 0x3d, 0x87, 0x65, 0x0f, 0x3d,
  0x04, 0xa6, 0x3f, 0xbd, 0xaa, 0xae, 0xa2, 0xbd, 0x77, 0x6a, 0x33, 0x3d,
  0x1f, 0x8d, 0xce, 0xbc, 0x6b, 0x5b, 0x0b, 0xbd, 0xca, 0x17, 0x4b, 0xbd,
  0xc4, 0x29, 0xab, 0xbc, 0x99, 0xb8, 0x77, 0x3c, 0x6f, 0xe8, 0x9c, 0xbd,
  0x4a, 0x6d, 0xc5, 0xbd, 0x84, 0x9c, 0x4c, 0x3d, 0xfa, 0x97, 0xd9, 0x3d,
  0x20, 0x38, 0x54, 0x3d, 0xf0, 0x58, 0x22, 0x3d, 0x85, 0xd6, 0xda, 0xbb,
  0xd0, 0x9b, 0x9e, 0xbc, 0xe2, 0x82, 0xc2, 0x3d, 0x39, 0x29, 0x26, 0x3e,
  0xb8, 0x19, 0x5b, 0x3e, 0x84, 0xb5, 0x0a, 0x3e, 0x8b, 0x5c, 0xf5, 0x3d,
  0x18, 0xe2, 0x56, 0x3d, 0xe5, 0x9a, 0x3c, 0x3d, 0x0b, 0x95, 0x3f, 0x3e,
  0x3f, 0xf4, 0x55, 0x3e, 0xe8, 0xbe, 0x17, 0x3e, 0x86, 0xf3, 0x84, 0x3d,
  0xda, 0x87, 0x5e, 0x3e, 0xa3, 0x9f, 0x1d, 0x3e, 0x09, 0x9c, 0x3d, 0x3e,
  0xbd, 0x5d, 0x37, 0x3e, 0x74, 0x9d, 0x3b, 0x3e, 0xf7, 0x78, 0x1a, 0x3e,
  0x4a, 0x66, 0x2d, 0x3e, 0x8a, 0x75, 0xd3, 0x3d, 0xe5, 0x30, 0xc1, 0x3d,
  0x58, 0x52, 0x36, 0x3e, 0x4e, 0xa3, 0xd0, 0x3d, 0x59, 0x8b, 0x0e, 0x3e,
  0x6e, 0x20, 0xef, 0x3d, 0xf7, 0xc9, 0x50, 0x3b, 0x25, 0x9b, 0x09, 0x3d,
  0xeb, 0xf5, 0x60, 0xbd, 0x8a, 0xb6, 0x24, 0x3d, 0x20, 0xb3, 0xc6, 0xbd,
  0x70, 0x4a, 0x1b, 0xbd, 0x46, 0x1f, 0xb3, 0xbd, 0xc9, 0xb5, 0x10, 0xbe,
  0x4e, 0x19, 0xdd, 0xbc, 0x07, 0x55, 0x1f, 0xbe, 0x0c, 0x2b, 0x1c, 0xbe,
  0x58, 0x8d, 0x8c, 0x3b, 0x7d, 0x34, 0x2c, 0xbe, 0x61, 0x5e, 0x16, 0xbe,
  0x70, 0xe6, 0xdb, 0xbd, 0x86, 0x07, 0x35, 0xbe, 0xac, 0x0f, 0xd0, 0xbd,
  0xe9, 0xe8, 0x3b, 0xbe, 0xf2, 0xbf, 0x52, 0xbe, 0x28, 0x19, 0x6b, 0xbe,
  0x32, 0x6c, 0x63, 0xbe, 0x06, 0x7b, 0xa4, 0xbd, 0x56, 0xac, 0x65, 0xbe,
  0x6a, 0x56, 0x89, 0xbe, 0xe2, 0x1f, 0xe7, 0xbd, 0x22, 0x80, 0x3a, 0xbe,
  0xc5, 0xca, 0x7e, 0xbe, 0x79, 0xe2, 0x8e, 0xbe, 0x67, 0x5e, 0x95, 0xbe,
  0xe7, 0x08, 0x8b, 0xbe, 0x8d, 0x90, 0x83, 0xbe, 0xb1, 0x9b, 0xa9, 0xbe,
  0xc3, 0xc3, 0x51, 0xbe, 0x51, 0x9f, 0xa1, 0xbe, 0xc8, 0x1e, 0x8f, 0xbe,
  0x07, 0x5f, 0x6a, 0xbe, 0x2d, 0xbf, 0x2a, 0xbe, 0x76, 0xba, 0x50, 0xbe,
  0x38, 0x3f, 0x3a, 0xbe, 0x9b, 0x27, 0xa6, 0xbe, 0xcd, 0x4c, 0xec, 0xbd,
  0x4b, 0xfc, 0xda, 0xbd, 0x1d, 0xd9, 0x1c, 0xbe, 0x6c, 0x6b, 0x0b, 0xbe,
  0x08, 0x82, 0x66, 0xbe, 0x76, 0x11, 0x33, 0xbe, 0xd3, 0x2f, 0x88, 0xbe,
  0x75, 0x60, 0x84, 0xbd, 0x53, 0x96, 0x07, 0xbe, 0x11, 0x56, 0xe5, 0xbd,
  0x90, 0x24, 0x0c, 0xbe, 0x73, 0xad, 0x1e, 0xbd, 0x84, 0x3d, 0x45, 0x3c,
  0xd4, 0x76, 0xf0, 0xbd, 0x0e, 0xe8, 0x01, 0xbe, 0x3e, 0x60, 0x85, 0xbb,
  0xaa, 0xb3, 0xc9, 0x3d, 0xbd, 0x39, 0x04, 0x3c, 0x7a, 0x9a, 0x02, 0x3e,
  0xb4, 0xa4, 0xc2, 0x3c, 0x8d, 0xf8, 0x92, 0x3d, 0x60, 0x37, 0xf1, 0x3d,
  0x21, 0xc9, 0x95, 0x3d, 0xcd, 0x83, 0x6b, 0x3e, 0xd6, 0xa6, 0x1a, 0x3e,
  0x17, 0x4d, 0x6c, 0x3e, 0x8c, 0xbe, 0x3b, 0x3e, 0x0d, 0x9d, 0xbb, 0x3d,
  0x90, 0xcd, 0xf4, 0x3d, 0xd0, 0x2c, 0x46, 0x3d, 0xec, 0xeb, 0x76, 0x3e,
  0xe6, 0x68, 0x66, 0x3e, 0x88, 0xd3, 0xa7, 0x3d, 0x21, 0xac, 0xb0, 0x3c,
  0xf1, 0xaa, 0x83, 0x3c, 0x81, 0xbb, 0xa2, 0x3d, 0xd5, 0x77, 0x71, 0x3d,
  0x57, 0x64, 0x31, 0x3e, 0xc9, 0xd3, 0x4b, 0x3e, 0x73, 0xb4, 0x62, 0x3e,
  0x58, 0x88, 0x54, 0x3e, 0xc8, 0xcf, 0x21, 0x3e, 0x9d, 0xed, 0x11, 0x3e,
  0x98, 0x5e, 0x88, 0x3e, 0xa8, 0x88, 0x1a, 0x3e, 0xc5, 0x74, 0x60, 0x3d,
  0xcf, 0x6a, 0x54, 0x3e, 0xd2, 0x57, 0x58, 0x3d, 0xc5, 0x77, 0x47, 0x3e,
  0x3e, 0xf8, 0x7f, 0x3e, 0x44, 0xb2, 0x23, 0x3e, 0x15, 0xa0, 0x6b, 0x3d,
  0x4f, 0x50, 0x25, 0x3d, 0xd7, 0x3f, 0x69, 0x3d, 0x37, 0x50, 0x74, 0x3c,
  0x5d, 0xea, 0x04, 0x3e, 0x8e, 0xb0, 0xa6, 0x3c, 0xfb, 0xb9, 0xc5, 0x3d,
  0x88, 0xce, 0x3b, 0x3e, 0xc4, 0x8a, 0x47, 0x3d, 0x95, 0x09, 0xc5, 0x3d,
  0x4d, 0xdf, 0x60, 0x3e, 0x37, 0xec, 0xa5, 0x3b, 0xb5, 0x62, 0xcc, 0x3d,
  0x7d, 0xc6, 0x5d, 0x3d, 0x66, 0x5a, 0x12, 0x3e, 0xc2, 0x6a, 0x0e, 0x3e,
  0x7a, 0x35, 0xfb, 0x3d, 0xa5, 0x6d, 0xf4, 0x3d, 0xeb, 0xc2, 0x04, 0xbd,
  0xbc, 0x25, 0x03, 0x3e, 0xc9, 0x71, 0x07, 0x3d, 0xd3, 0xa6, 0xb4, 0xba,
  0x6b, 0x8a, 0x6c, 0x3d, 0xc4, 0x7b, 0xc5, 0xbb, 0xc5, 0x2c, 0x96, 0x3d,
  0x98, 0x59, 0x95, 0x3d, 0x9d, 0xf9, 0x26, 0x3d, 0x0f, 0x97, 0xfb, 0x3c,
  0x86, 0x9b, 0xb9, 0xbd, 0x16, 0x0d, 0x99, 0xbd, 0x47, 0x79, 0xe7, 0xbc,
  0xa0, 0x6a, 0x13, 0xbe, 0x40, 0x69, 0xd7, 0xbd, 0x66, 0xf1, 0x59, 0xbd,
  0xcf, 0x33, 0x06, 0xbe, 0xb4, 0xbc, 0x6f, 0xbe, 0x69, 0x0a, 0x6d, 0xbe,
  0x8a, 0x35, 0x5b, 0xbe, 0x08, 0x0d, 0xbd, 0xbd, 0x12, 0x7c, 0x91, 0xbe,
  0x57, 0xb1, 0x7f, 0xbe, 0x9e, 0xac, 0x97, 0xbe, 0x7e, 0x74, 0x90, 0xbe,
  0xd6, 0x1c, 0xb6, 0xbe, 0xee, 0xec, 0x4e, 0xbe, 0xfc, 0xfb, 0x9e, 0xbe,
  0x33, 0xe4, 0xbe, 0xbe, 0xb9, 0x05, 0x99, 0xbe, 0x54, 0xf4, 0x5c, 0xbe,
  0x7c, 0x1d, 0x9a, 0xbe, 0xa4, 0xd9, 0xc5, 0xbe, 0x8c, 0x64, 0x4b, 0xbe,
  0x80, 0x89, 0x85, 0xbe, 0x63, 0x81, 0xac, 0xbe, 0x1d, 0x01, 0xa2, 0xbe,
  0xe5, 0xff, 0x96, 0xbe, 0x1c, 0x4c, 0x6b, 0xbe, 0xf0, 0x07, 0x86, 0xbe,
  0x13, 0x72, 0xd6, 0xbe, 0x8e, 0xb6, 0x84, 0xbe, 0xbc, 0x1d, 0xcf, 0xbe,
  0x13, 0xa0, 0x8c, 0xbe, 0x13, 0xe6, 0x79, 0xbe, 0x81, 0x49, 0x9f, 0xbe,
  0x75, 0x7c, 0x58, 0xbe, 0x8e, 0xdc, 0x3c, 0xbe, 0xa2, 0xc1, 0xad, 0xbe,
  0x2f, 0x10, 0x8b, 0xbe, 0x3d, 0x5b, 0x6e, 0xbe, 0x89, 0xd6, 0x88, 0xbe,
  0xf7, 0x8b, 0x02, 0xbe, 0xa1, 0x8e, 0x2a, 0xbe, 0x13, 0x49, 0x0f, 0xbe,
  0xbe, 0x2c, 0xd7, 0xbd, 0xb9, 0x81, 0xb8, 0xbc, 0x66, 0x79, 0xa5, 0xbd,
  0xae, 0x4c, 0x66, 0x3c, 0x1b, 0xdb, 0x34, 0x3d, 0xbe, 0xcc, 0x03, 0xbe,
  0xc4, 0x3f, 0x7f, 0xbd, 0x7e, 0x58, 0xbc, 0xbc, 0xdb, 0xe0, 0x59, 0x3d,
  0x67, 0xfa, 0x35, 0x3d, 0x8e, 0xab, 0x44, 0xbd, 0x3a, 0xdc, 0xec, 0x3d,
  0x77, 0x49, 0xa1, 0x3d, 0x4c, 0x84, 0x66, 0x3d, 0xe7, 0xb4, 0xac, 0x3b,
  0xc9, 0xba, 0x2a, 0x3e, 0x5e, 0x48, 0xa8, 0x3c, 0x3a, 0x69, 0x27, 0x3e,
  0x78, 0xff, 0x3b, 0x3e, 0xc6, 0x6a, 0xe9, 0x3d, 0xc1, 0x4d, 0x44, 0x3d,
  0xfa, 0x42, 0x8d, 0x3d, 0xfe, 0xd9, 0x21, 0x3e, 0x3e, 0x82, 0x81, 0x3d,
  0x4b, 0xb9, 0x72, 0x3e, 0x45, 0x70, 0x59, 0x3e, 0xdc, 0x5c, 0xae, 0x3d,
  0xde, 0x4a, 0x26, 0x3e, 0x92, 0x6a, 0xf0, 0x3d, 0xb3, 0xc9, 0xf0, 0x3d,
  0x0a, 0x9b, 0x25, 0x3e, 0xb6, 0x64, 0x0e, 0x3e, 0xfc, 0xeb, 0x4b, 0x3e,
  0x85, 0x20, 0x28, 0x3e, 0xd0, 0xd9, 0x0e, 0x3e, 0xf5, 0xc7, 0x66, 0x3d,
  0xb3, 0x48, 0x42, 0x3e, 0xd0, 0x03, 0x51, 0x3e, 0xf5, 0xa5, 0x2f, 0x3e,
  0x9b, 0x78, 0x62, 0x3e, 0x2e, 0x43, 0x62, 0x3e, 0x78, 0xa1, 0x1a, 0x3e,
  0x02, 0x8a, 0xa4, 0x3d, 0x82, 0x55, 0x57, 0x3e, 0x47, 0x37, 0x38, 0x3e,
  0xe1, 0x2b, 0xf3, 0x3d, 0xd1, 0x48, 0xd3, 0xb9, 0x53, 0xa2, 0xc4, 0xbb,
  0xe9, 0xd6, 0xd0, 0x3d, 0x50, 0xa3, 0x20, 0xbd, 0xe8, 0x1d, 0x34, 0xbc,
  0xc5, 0xb0, 0x89, 0x3d, 0x66, 0x3a, 0x33, 0xbc, 0xe9, 0x70, 0xa0, 0xbd,
  0x9a, 0xe8, 0xb1, 0x3d, 0x28, 0x0a, 0x9d, 0x3c, 0xd0, 0xf8, 0xc7, 0xbc,
  0xb1, 0xa3, 0x29, 0xbd, 0x2d, 0x05, 0x9c, 0x3c, 0x67, 0xa0, 0x9c, 0x3d,
  0xba, 0xf2, 0xf1, 0x3d, 0x37, 0xe7, 0x49, 0x3d, 0xb2, 0x0d, 0x34, 0x3e,
  0xce, 0x25, 0xd6, 0x3d, 0x73, 0x9a, 0x54, 0x3e, 0x5f, 0xe6, 0x3c, 0x3d,
  0x11, 0x3e, 0x30, 0x3e, 0xb6, 0xab, 0x00, 0x3e, 0xe5, 0x5c, 0x64, 0x3e,
  0x10, 0x39, 0x32, 0x3e, 0x0f, 0x25, 0x3c, 0x3e, 0xd1, 0x5c, 0x7f, 0x3e,
  0x52, 0xbf, 0xd6, 0x3d, 0xb5, 0x84, 0x97, 0x3d, 0xf6, 0xf1, 0x59, 0x3e,
  0x90, 0x62, 0x7f, 0x3e, 0xec, 0x8b, 0x64, 0x3e, 0xc1, 0xf2, 0x04, 0x3e,
  0x04, 0xe2, 0x6e, 0x3d, 0xc6, 0x4f, 0x10, 0x3e, 0xb6, 0xa2, 0x60, 0x3e,
  0x90, 0x5f, 0x0d, 0x3e, 0x7c, 0x90, 0x2e, 0x3e, 0x34, 0x86, 0x6f, 0x3d,
  0xd9, 0xcb, 0xbf, 0x3d, 0x92, 0x83, 0x84, 0x3e, 0xb7, 0x4c, 0x32, 0x3e,
  0xa5, 0xc1, 0x32, 0x3e, 0xd7, 0xb9, 0xbe, 0x3d, 0xb7, 0x1a, 0x88, 0x3e,
  0xee, 0x39, 0x03, 0x3e, 0xb0, 0x22, 0x83, 0x3e, 0x38, 0x95, 0xd7, 0x3d,
  0xc1, 0x29, 0x46, 0x3e, 0x5e, 0xff, 0x70, 0x3e, 0xcc, 0xfb, 0x5a, 0x3e,
  0xee, 0x8a, 0x60, 0x3e, 0xc4, 0x19, 0xfb, 0x3d, 0x13, 0x92, 0xf6, 0x3d,
  0x87, 0x92, 0x9e, 0x3d, 0x15, 0x19, 0xaf, 0x3d, 0x04, 0x1a, 0xb8, 0x3d,
  0x04, 0xcd, 0x1f, 0xbd, 0xe0, 0x02, 0xaa, 0x3d, 0x5c, 0x1f, 0xfc, 0xbc,
  0x62, 0x64, 0xe7, 0x3c, 0x18, 0xa0, 0x18, 0xbe, 0x93, 0xcf, 0xe0, 0xbd,
  0x52, 0x05, 0x0b, 0xbe, 0x82, 0x16, 0xff, 0xbd, 0xab, 0xee, 0x44, 0xbe,
  0x3f, 0x47, 0x5d, 0xbe, 0xf6, 0xab, 0x61, 0x3d, 0xd7, 0x07, 0xed, 0xbc,
  0xf6, 0x04, 0xf4, 0x3c, 0xf2, 0x2d, 0xe4, 0xbd, 0x7a, 0xf2, 0x60, 0x3d,
  0x96, 0xca, 0xba, 0xbd, 0x0b, 0xa1, 0x8a, 0xbd, 0x9e, 0x01, 0x74, 0x3d,
  0x18, 0x4c, 0x3f, 0x3d, 0xf4, 0xc0, 0x2a, 0xbc, 0xec, 0x9e, 0xa0, 0xba,
  0x76, 0x09, 0x93, 0x3c, 0x8f, 0x6b, 0xf3, 0xbd, 0xfa, 0x70, 0xb5, 0x3c,
  0x0d, 0x70, 0x97, 0xbd, 0xb8, 0x07, 0x38, 0xbd, 0x95, 0xbd, 0xab, 0xbd,
  0x8b, 0x0c, 0xa2, 0x3a, 0x57, 0xee, 0xae, 0xbd, 0x2e, 0xd4, 0xcf, 0x3c,
  0xb9, 0xe4, 0x62, 0xbd, 0x53, 0x15, 0x7a, 0xbd, 0x44, 0xf9, 0x35, 0xbd,
  0x21, 0x31, 0x3d, 0x3b, 0xd6, 0x52, 0x0d, 0xbd, 0x8e, 0xac, 0x4f, 0xbd,
  0x8c, 0x3d, 0xc7, 0xbd, 0x82, 0x6f, 0x6b, 0xbd, 0xb0, 0xbc, 0xbb, 0xbd,
  0xe7, 0xd9, 0xe3, 0xbd, 0xec, 0x5e, 0x2d, 0x3d, 0x63, 0x21, 0x89, 0xbc,
  0x8b, 0xa5, 0x4c, 0xbd, 0xec, 0x5d, 0xf0, 0x3c, 0x30, 0x1f, 0xf0, 0xbb,
  0xf0, 0xdd, 0x45, 0xbd, 0xee, 0x1e, 0x9d, 0xbd, 0x64, 0x24, 0xa7, 0xbd,
  0xf1, 0x2c, 0x55, 0x3d, 0x36, 0xbe, 0xc6, 0xbd, 0xb5, 0x46, 0xbc, 0x3d,
  0xdd, 0x20, 0xa7, 0x3d, 0xcf, 0x25, 0xdb, 0x3d, 0x23, 0x7f, 0xb5, 0x3d,
  0x45, 0x1a, 0x17, 0x3d, 0x5e, 0x34, 0x8c, 0x3c, 0x25, 0xdb, 0x00, 0x3e,
  0x28, 0xd9, 0xec, 0x3c, 0xd4, 0xcd, 0x3c, 0x3e, 0x13, 0x0c, 0x18, 0x3e,
  0x49, 0x0e, 0x9d, 0x3d, 0xd2, 0x4c, 0x53, 0xbd, 0x32, 0x67, 0xcb, 0x3d,
  0x82, 0x16, 0x2f, 0xbd, 0xc0, 0x88, 0x45, 0x3d, 0x51, 0xbc, 0x0d, 0x3d,
  0x63, 0x98, 0x92, 0x3d, 0x74, 0xb2, 0xa5, 0xbd, 0x39, 0xa4, 0x72, 0x3d,
  0xb4, 0x34, 0xa4, 0x3d, 0x23, 0xe3, 0x63, 0xbc, 0x92, 0xf2, 0xcb, 0x3d,
  0xcb, 0x47, 0x93, 0x3d, 0xa1, 0x8f, 0xf7, 0xbc, 0x7c, 0xeb, 0x92, 0x3d,
  0xf9, 0xb5, 0x3a, 0xbd, 0x8d, 0x4c, 0x03, 0x3e, 0x8c, 0x66, 0xcb, 0xbc,
  0x35, 0xa6, 0x05, 0xbd, 0xaf, 0xb3, 0xae, 0x3d, 0xbb, 0x96, 0x0c, 0xbd,
  0x6b, 0x08, 0xec, 0x3d, 0x78, 0x83, 0xd4, 0x3d, 0x9d, 0x76, 0x45, 0xba,
  0x03, 0x4f, 0xf6, 0x3d, 0x1c, 0x1d, 0x0d, 0xbb, 0x38, 0xc4, 0xac, 0x3d,
  0x2a, 0xa6, 0xbd, 0x3d, 0xa9, 0x42, 0xf3, 0x3c, 0xbf, 0xd5, 0x87, 0x3d,
  0x4b, 0xb2, 0xb4, 0xbc, 0xd9, 0x58, 0x9a, 0x3d, 0x39, 0xcf, 0x3a, 0xbd,
  0xa4, 0xf9, 0x59, 0xbd, 0x49, 0x7e, 0x24, 0x3c, 0x23, 0x4c, 0x89, 0xbd,
  0x48, 0xbf, 0xb2, 0xbd, 0x33, 0x34, 0x6e, 0xbc, 0x9b, 0xd6, 0xe5, 0xbd,
  0x76, 0x13, 0x3c, 0x3d, 0xe1, 0xbe, 0x3d, 0xbc, 0x23, 0x06, 0xd5, 0x3d,
  0xc3, 0xcd, 0x0c, 0xbd, 0x77, 0x46, 0x3c, 0xbd, 0xcd, 0xf7, 0xed, 0xbd,
  0xb5, 0xbe, 0xc0, 0xbd, 0x25, 0xbe, 0x97, 0x3d, 0x62, 0x01, 0x06, 0xbe,
  0xce, 0x22, 0x35, 0xbc, 0x36, 0xc3, 0x16, 0xbd, 0x41, 0x3b, 0xb7, 0xbc,
  0xf5, 0x45, 0xd7, 0x3c, 0x25, 0x88, 0xda, 0x3d, 0xbb, 0xaf, 0xc0, 0xbc,
  0xa0, 0xf5, 0x8b, 0xbd, 0x71, 0xc8, 0xbb, 0xbd, 0xf4, 0xe9, 0xac, 0xbc,
  0x1c, 0x1b, 0x8e, 0x3d, 0x81, 0xea, 0x51, 0x3d, 0x9b, 0xf1, 0x7d, 0x3d,
  0x83, 0xe5, 0x3d, 0x3b, 0x7d, 0x9e, 0x4f, 0x3d, 0x7d, 0x30, 0xc5, 0x3c,
  0x6e, 0xa3, 0x5b, 0x3d, 0xd7, 0xe2, 0x16, 0x3d, 0x58, 0xcc, 0xe9, 0x3b,
  0xda, 0xc6, 0xc4, 0x3c, 0xa5, 0x6b, 0xbc, 0xbc, 0x83, 0xd5, 0x30, 0xbd,
  0x9c, 0xd3, 0xde, 0xbd, 0xa8, 0x39, 0xc2, 0x3c, 0x19, 0xfa, 0xed, 0xbd,
  0x52, 0x14, 0x11, 0xbc, 0x0a, 0x70, 0x12, 0xbe, 0x45, 0xbc, 0x77, 0xbd,
  0x61, 0xfc, 0x02, 0xbe, 0x30, 0x77, 0x3c, 0xbc, 0x2b, 0x36, 0xbb, 0xbd,
  0x55, 0x9d, 0x94, 0xbd, 0xcf, 0x13, 0xf7, 0x3b, 0x2a, 0x9b, 0x75, 0x3d,
  0x63, 0x12, 0x96, 0x3d, 0x04, 0x3f, 0x9b, 0xbd, 0xbf, 0x9c, 0xbc, 0xbd,
  0x26, 0xa3, 0xee, 0x3d, 0xd8, 0x60, 0xe7, 0x3d, 0x58, 0xc8, 0xdc, 0x3d,
  0x0a, 0x8a, 0x32, 0xbd, 0x9a, 0xc2, 0xdc, 0xbc, 0x41, 0xdf, 0xf3, 0x3c,
  0xbb, 0x97, 0x49, 0xbc, 0x7c, 0xe2, 0xce, 0xbc, 0x09, 0x80, 0x08, 0x3e,
  0x39, 0x34, 0x46, 0xbd, 0xb1, 0xc2, 0xcb, 0x3d, 0xf4, 0x7c, 0x7c, 0xbc,
  0x0d, 0x7b, 0x12, 0x3d, 0x63, 0x3c, 0x86, 0xbd, 0x20, 0xbd, 0x17, 0x3d,
  0xbe, 0x32, 0xa7, 0x3d, 0xc5, 0x99, 0xa4, 0x3d, 0xb4, 0x82, 0xec, 0xbc,
  0xdc, 0x28, 0x8a, 0xbc, 0x69, 0x7b, 0xb2, 0xbb, 0x06, 0x3c, 0xb9, 0x3d,
  0x5b, 0xeb, 0x14, 0x3e, 0x1e, 0xba, 0xb3, 0x3d, 0x92, 0xed, 0x20, 0x3e,
  0x1e, 0x7a, 0xf8, 0xbc, 0xd4, 0x98, 0x0d, 0x3c, 0x70, 0xba, 0x5d, 0xbd,
  0xa9, 0xe1, 0xa0, 0xbb, 0x53, 0xa4, 0x34, 0x3d, 0xf2, 0xfd, 0x24, 0x3c,
  0xb4, 0x0b, 0xef, 0x3d, 0x8b, 0x12, 0xfc, 0x3d, 0x47, 0x3c, 0x40, 0xbb,
  0xd6, 0x6c, 0x6b, 0x3d, 0xb8, 0xe7, 0xdb, 0x3d, 0xf1, 0xd9, 0x51, 0x3c,
  0xce, 0x36, 0x53, 0x3d, 0x94, 0xa7, 0xf4, 0x3d, 0x7d, 0xbb, 0x34, 0xbc,
  0x2f, 0xb4, 0x96, 0x3d, 0x5f, 0x9f, 0x6e, 0xbc, 0x9a, 0xa7, 0x09, 0x3e,
  0xb0, 0x5c, 0x77, 0x3a, 0x50, 0x73, 0x01, 0x3e, 0xda, 0x34, 0x3c, 0xbd,
  0x10, 0x22, 0x0c, 0xbd, 0xed, 0x20, 0x14, 0x3e, 0x19, 0x77, 0x98, 0xbb,
  0x7b, 0x3f, 0xba, 0x3d, 0x64, 0x7b, 0xe2, 0x3c, 0xed, 0xb4, 0xcf, 0x3a,
  0xe0, 0x47, 0xdf, 0x3d, 0x27, 0xe5, 0x47, 0x3d, 0x73, 0x71, 0x41, 0x3e,
  0x79, 0x63, 0x9c, 0x3d, 0xcf, 0x62, 0x55, 0x3d, 0x03, 0x07, 0xff, 0x3d,
  0xf4, 0x2b, 0xc4, 0x3d, 0xa8, 0x6f, 0x34, 0xbc, 0xe9, 0xf2, 0x16, 0x3e,
  0xbd, 0x1e, 0x22, 0x3e, 0x8b, 0xc4, 0xa3, 0x3d, 0xc7, 0xf9, 0xc9, 0x3d,
  0xa1, 0x6a, 0x42, 0x3d, 0x86, 0x68, 0xe3, 0x3c, 0xd8, 0xca, 0x29, 0xbd,
  0x99, 0xb0, 0xa3, 0xbd, 0x20, 0x0c, 0xd3, 0x3d, 0x2d, 0xd9, 0x02, 0x3e,
  0xc9, 0x45, 0x55, 0xbd, 0x54, 0x12, 0x90, 0x3c, 0xd8, 0xcd, 0x73, 0x3d,
  0x38, 0x38, 0xeb, 0x3d, 0x26, 0x73, 0xfa, 0x3d, 0x64, 0x05, 0xcc, 0x3d,
  0xce, 0x4f, 0x15, 0x3d, 0x4d, 0xb9, 0x20, 0x3e, 0x3e, 0xfe, 0x5d, 0x3d,
  0xd2, 0xf8, 0xa8, 0x3d, 0x85, 0x92, 0x60, 0x3d, 0xee, 0x7c, 0x95, 0x3d,
  0xc7, 0x64, 0x0c, 0x3e, 0x0f, 0xdb, 0xce, 0x3d, 0x72, 0x11, 0x1a, 0x3e,
  0x27, 0x88, 0x18, 0x3e, 0x03, 0xbd, 0x84, 0x3d, 0x9c, 0x3f, 0x05, 0x3e,
  0x7d, 0x63, 0x34, 0x3d, 0xe1, 0x27, 0x45, 0x3d, 0x0d, 0x9b, 0xac, 0x3d,
  0x8b, 0xaf, 0xc4, 0x3d, 0xbc, 0x1f, 0xac, 0x3c, 0xcb, 0x6a, 0x0f, 0xbd,
  0x5b, 0xd3, 0x67, 0xbd, 0xca, 0x31, 0x06, 0xbb, 0x01, 0xad, 0x34, 0xbc,
  0xee, 0x30, 0xec, 0x3c, 0x7d, 0xe3, 0xa6, 0x3c, 0xaa, 0xf3, 0x36, 0x3d,
  0xf2, 0xba, 0xbe, 0xbc, 0xef, 0xc3, 0xc9, 0x3d, 0xe3, 0xfe, 0x11, 0xbe,
  0x89, 0xe3, 0x64, 0x3c, 0xb6, 0xc5, 0x6a, 0xbd, 0x16, 0x59, 0x84, 0xbd,
  0xa8, 0xdd, 0x89, 0xbc, 0xb0, 0xd1, 0x88, 0x3d, 0xa9, 0x67, 0x98, 0x3d,
  0x2e, 0xf7, 0x3d, 0x3d, 0xdb, 0x86, 0x85, 0xbd, 0x65, 0x78, 0x9d, 0xbc,
  0xd3, 0x6c, 0x73, 0xba, 0xbd, 0x6e, 0xe7, 0x3c, 0x74, 0xa8, 0xda, 0xbd,
  0x4e, 0x65, 0x09, 0xbd, 0x19, 0xb5, 0x84, 0x3d, 0xa7, 0x4f, 0x72, 0x3b,
  0xe4, 0x1f, 0x8e, 0xbd, 0x64, 0x60, 0x1c, 0xbd, 0xc0, 0xa5, 0x61, 0x3d,
  0x94, 0xcd, 0xce, 0x3c, 0x79, 0x51, 0xbd, 0xbb, 0x4b, 0x68, 0x67, 0xbd,
  0xaa, 0x1b, 0xb5, 0x3c, 0x66, 0x89, 0xae, 0x3d, 0x63, 0xa8, 0x30, 0xbc,
  0xf8, 0x87, 0x99, 0x3d, 0x24, 0x59, 0xa7, 0x3d, 0x6a, 0xd4, 0x29, 0xbd,
  0x41, 0xb1, 0x9d, 0xbd, 0xc1, 0x86, 0xeb, 0xbc, 0x9d, 0x79, 0x13, 0x3d,
  0x0d, 0xf7, 0xf6, 0x3c, 0x8b, 0x63, 0x56, 0xbd, 0x8b, 0x23, 0x8b, 0x3d,
  0x43, 0xa1, 0xd4, 0x3d, 0x51, 0xb4, 0x21, 0xbd, 0x84, 0xfa, 0xe8, 0xbc,
  0x79, 0x8f, 0xc9, 0x3d, 0xff, 0xc6, 0x81, 0x3d, 0x48, 0xd4, 0x24, 0x3c,
  0xc9, 0x98, 0xb2, 0xbc, 0x4b, 0x15, 0x0f, 0xbd, 0xa9, 0x68, 0xf8, 0x3d,
  0x22, 0xec, 0xe0, 0x3a, 0xbb, 0xad, 0xc1, 0x3c, 0xcb, 0xd7, 0x1b, 0x3e,
  0x66, 0xac, 0x66, 0x3d, 0x99, 0xb3, 0x03, 0x3e, 0x38, 0xf4, 0x00, 0x3d,
  0x93, 0xa5, 0xcb, 0x3d, 0x85, 0x26, 0xc6, 0x3c, 0xd8, 0xdc, 0x59, 0xbd,
  0x3d, 0xf5, 0xdc, 0x3c, 0xfa, 0x46, 0x95, 0xbb, 0xbb, 0xea, 0x95, 0x3c,
  0x32, 0x1d, 0x9d, 0x3d, 0xa7, 0xcd, 0xb7, 0x3c, 0xa9, 0xc3, 0x59, 0x3d,
  0xb9, 0x37, 0x94, 0x3d, 0xe9, 0xe6, 0x59, 0x3c, 0x1f, 0x22, 0x9e, 0x3c,
  0xd4, 0x7a, 0xe3, 0xbd, 0x10, 0x6f, 0x8c, 0xbb, 0x67, 0xd0, 0xa7, 0x3c,
  0x3a, 0x5e, 0xf8, 0x3c, 0x9a, 0x87, 0x74, 0x3d, 0xf8, 0xfc, 0x8b, 0x3d,
  0xb1, 0x68, 0x34, 0xbd, 0xcd, 0xc6, 0x08, 0x3c, 0xf1, 0xab, 0x78, 0x3c,
  0x22, 0xf8, 0xb5, 0x3d, 0xfa, 0x0c, 0x49, 0xbd, 0x10, 0x88, 0xab, 0x3d,
  0xac, 0x14, 0x44, 0x3c, 0xb6, 0x6d, 0x2c, 0xbd, 0xde, 0x7d, 0x15, 0x3e,
  0x53, 0x2a, 0x95, 0xbb, 0x6c, 0x10, 0x0d, 0x3e, 0x06, 0x05, 0x8a, 0xbd,
  0x23, 0x80, 0xec, 0x3d, 0xb5, 0x32, 0xbf, 0x3d, 0xbd, 0x28, 0x72, 0xbd,
  0xdd, 0xd8, 0x80, 0x3d, 0xe4, 0x9b, 0x19, 0xbc, 0x8d, 0x14, 0x0a, 0x3d,
  0x87, 0xd9, 0x9c, 0x3c, 0x9b, 0xb2, 0x1e, 0xbd, 0x2a, 0x4f, 0xbe, 0x3d,
  0x0c, 0xe7, 0x47, 0x3d, 0x07, 0x06, 0x08, 0x3e, 0x82, 0x72, 0x16, 0xbd,
  0x52, 0x6f, 0xbe, 0x3d, 0xd9, 0x0f, 0x0f, 0x3e, 0xb1, 0xad, 0x6b, 0x3d,
  0xff, 0xb4, 0x59, 0x3d, 0x3a, 0x2f, 0x16, 0x3e, 0x14, 0x95, 0x30, 0x3e,
  0x58, 0x32, 0x5a, 0x3e, 0x03, 0xe1, 0x72, 0x3d, 0xf8, 0x79, 0x36, 0x3d,
  0x86, 0x2e, 0x26, 0x3e, 0x87, 0xc4, 0x2e, 0x3e, 0x40, 0xd6, 0x43, 0x3e,
  0x0c, 0xfd, 0x53, 0x3e, 0x00, 0xc9, 0x7c, 0x3e, 0x0a, 0x18, 0x79, 0x3e,
  0x8e, 0x35, 0x11, 0x3e, 0xa9, 0x6e, 0xd7, 0x3d, 0xf0, 0x08, 0x30, 0x3e,
  0x8f, 0xdd, 0x61, 0x3e, 0xea, 0x72, 0x52, 0x3e, 0x5b, 0x0f, 0xe2, 0x3d,
  0x03, 0x39, 0x0a, 0x3e, 0x6e, 0xe2, 0x2a, 0x3e, 0x02, 0xc9, 0x00, 0x3e,
  0xad, 0x38, 0x39, 0x3e, 0x39, 0xfe, 0x15, 0x3e, 0x76, 0x51, 0x75, 0x3e,
  0x14, 0xc0, 0x5b, 0x3e, 0x50, 0xa1, 0x15, 0x3e, 0xcc, 0x7d, 0x15, 0x3e,
  0xb6, 0xae, 0xc7, 0x3d, 0x80, 0x10, 0x65, 0x3e, 0xad, 0xb8, 0x98, 0x3d,
  0xf7, 0x8d, 0x78, 0x3e, 0x26, 0x6c, 0x04, 0x3e, 0xc9, 0x75, 0x3d, 0x3e,
  0x9a, 0x65, 0x34, 0x3e, 0x65, 0x09, 0x62, 0x3e, 0x7b, 0x23, 0x22, 0x3e,
  0xa5, 0x59, 0xd6, 0x3c, 0xd7, 0x82, 0x25, 0x3e, 0xd3, 0xf5, 0xca, 0x3d,
  0xf4, 0x09, 0xa3, 0x3d, 0x1f, 0x87, 0xc2, 0x3d, 0x51, 0x83, 0x41, 0x3e,
  0x6b, 0xd8, 0x26, 0x3d, 0x01, 0xc8, 0x1f, 0x3d, 0x58, 0x1a, 0x64, 0x3d,
  0xca, 0x53, 0xa4, 0x3d, 0x49, 0xd2, 0x52, 0x3d, 0xba, 0x8c, 0x1c, 0x3e,
  0xcb, 0xa4, 0xce, 0x3d, 0x65, 0x2b, 0x46, 0x3e, 0x07, 0x1e, 0x49, 0x3e,
  0x26, 0x53, 0x17, 0x3e, 0xe2, 0x1b, 0xd2, 0x3d, 0x87, 0xde, 0xe0, 0x3d,
  0xcd, 0x10, 0xb3, 0x3d, 0xcd, 0x70, 0xb5, 0xbb, 0x49, 0xb0, 0x46, 0xbc,
  0x3e, 0x92, 0x0b, 0x3e, 0x35, 0x46, 0x09, 0x3e, 0xa0, 0x77, 0xf6, 0x3d,
  0x6f, 0xa2, 0xdc, 0x3c, 0x81, 0xbd, 0xe2, 0x3d, 0xb8, 0x80, 0x0d, 0xbb,
  0x21, 0x24, 0xa8, 0x3d, 0xf7, 0x8b, 0x40, 0x3d, 0x9c, 0x82, 0x8c, 0x3d,
  0xfd, 0xa2, 0xa7, 0x3d, 0x72, 0xb6, 0x73, 0x3d, 0x4a, 0x2b, 0x4f, 0xbd,
  0xfc, 0x84, 0x2a, 0xbd, 0x7b, 0x73, 0x0e, 0x3d, 0x86, 0x6c, 0x0b, 0x3e,
  0x74, 0xea, 0x26, 0xbc, 0x6b, 0x81, 0x9a, 0xbd, 0xb0, 0xab, 0xab, 0xbd,
  0x2d, 0x9c, 0x83, 0xbd, 0xb6, 0x62, 0x9b, 0xbd, 0x25, 0x54, 0x9e, 0xbd,
  0x64, 0xee, 0x19, 0xbe, 0x6d, 0x7c, 0x23, 0xbd, 0x67, 0x00, 0x0f, 0x3d,
  0xc3, 0xe5, 0xe4, 0xbd, 0xef, 0xb8, 0x08, 0xbe, 0x2d, 0x94, 0xc0, 0xbd,
  0x77, 0xb0, 0x17, 0x3d, 0x81, 0x41, 0x8a, 0xbd, 0x15, 0xa2, 0xd2, 0xbd,
  0x4c, 0x68, 0x03, 0xbc, 0x97, 0xe0, 0xda, 0xbd, 0xcc, 0x93, 0x16, 0x3c,
  0x05, 0xe9, 0x36, 0xbd, 0x16, 0x83, 0xc6, 0xbd, 0x68, 0x78, 0x9f, 0xbd,
  0x17, 0x94, 0xb1, 0xbd, 0xfc, 0x91, 0x52, 0xbc, 0xb9, 0x4b, 0xdb, 0xbb,
  0x75, 0x58, 0x41, 0xbc, 0xf9, 0x1f, 0xfb, 0xbc, 0xcc, 0x60, 0x9b, 0x3d,
  0xe0, 0x2a, 0x94, 0x3d, 0x43, 0xad, 0x0a, 0xbc, 0xd5, 0xe8, 0xe2, 0xbc,
  0x48, 0xa3, 0xec, 0x3d, 0x12, 0x7c, 0xed, 0xbc, 0xb7, 0xf0, 0x89, 0xbd,
  0xd5, 0x05, 0xa5, 0x3d, 0x5a, 0x83, 0x01, 0x3e, 0xff, 0xcc, 0xc6, 0x3d,
  0x3e, 0x68, 0x4e, 0xbd, 0xcb, 0x96, 0x5e, 0xbd, 0xc4, 0x3c, 0xcb, 0x3d,
  0x2c, 0x49, 0xdb, 0x3c, 0x6f, 0x11, 0xd8, 0xbc, 0xeb, 0x77, 0x89, 0xbd,
  0x38, 0x24, 0xb3, 0x3d, 0xf0, 0x34, 0x0d, 0x3e, 0x91, 0x92, 0x83, 0x3d,
  0x50, 0x50, 0x35, 0x3e, 0xf8, 0x41, 0x43, 0x3e, 0xec, 0x96, 0xcf, 0x3d,
  0x47, 0xe8, 0xfa, 0x3d, 0x57, 0x18, 0xfc, 0x3c, 0xd6, 0x60, 0x61, 0x3d,
  0xa9, 0xec, 0x61, 0x3c, 0x24, 0xc8, 0x40, 0x3e, 0xda, 0x70, 0x2b, 0x3e,
  0x6c, 0x27, 0x22, 0x3e, 0xae, 0xc5, 0x85, 0x3d, 0x4a, 0x55, 0xa3, 0xb9,
  0x04, 0x8e, 0x27, 0x3e, 0x7c, 0xbf, 0x43, 0x3e, 0x66, 0xdc, 0xb2, 0x3d,
  0x7b, 0x08, 0x0e, 0x3e, 0x75, 0x45, 0x02, 0x3e, 0x3e, 0x87, 0xe5, 0xbb,
  0x1b, 0x0e, 0x01, 0x3e, 0xb5, 0xe5, 0x37, 0x3e, 0xe4, 0x49, 0x1d, 0x3e,
  0x14, 0x39, 0x8f, 0x3c, 0xe9, 0x37, 0x47, 0x3e, 0x7d, 0xf1, 0xd3, 0x3d,
  0xb3, 0x53, 0xe3, 0x3d, 0xf6, 0x11, 0x19, 0x3e, 0xdf, 0x60, 0x12, 0x3e,
  0xed, 0xb4, 0x07, 0x3e, 0xac, 0x91, 0x0f, 0x3e, 0xeb, 0x2a, 0x8a, 0x3d,
  0xa5, 0xdc, 0x33, 0x3e, 0x73, 0xc0, 0x0d, 0x3d, 0x50, 0xb6, 0x62, 0x3d,
  0xd6, 0xcd, 0xe4, 0x3d, 0x9f, 0xbf, 0x08, 0x3e, 0xe3, 0xdf, 0x29, 0x3e,
  0xe5, 0x3e, 0xa0, 0x3d, 0x6c, 0xd9, 0x11, 0x3e, 0x2e, 0xc9, 0xfc, 0x3c,
  0xa1, 0xf0, 0xfe, 0xbc, 0x6b, 0x8a, 0xe2, 0x3d, 0x77, 0xb3, 0xae, 0x3d,
  0x66, 0x74, 0x0b, 0x3d, 0x4c, 0xc4, 0x5f, 0x3d, 0x6b, 0x41, 0xf3, 0x3d,
  0x45, 0x4d, 0xb9, 0x3d, 0xc4, 0xcc, 0x01, 0x3e, 0x1a, 0x04, 0x2f, 0x3e,
  0xf8, 0x35, 0x39, 0x3d, 0x8f, 0xe7, 0x3c, 0x3e, 0xa9, 0x43, 0x32, 0x3e,
  0x49, 0xf3, 0xaf, 0x3d, 0xff, 0x19, 0x51, 0x3d, 0x5b, 0x2d, 0xfe, 0x3d,
  0x68, 0x3d, 0x23, 0x3d, 0x62, 0xfd, 0x6c, 0x3d, 0x6a, 0xe7, 0x63, 0x3d,
  0x84, 0xe2, 0x8a, 0xbd, 0xf8, 0x5b, 0xb1, 0xbd, 0x87, 0xc9, 0x87, 0xbc,
  0x70, 0xae, 0x1d, 0x3d, 0x54, 0x41, 0xe7, 0x3c, 0xb0, 0xff, 0xc1, 0xbd,
  0xea, 0xea, 0xa8, 0xbc, 0x83, 0xea, 0x81, 0xbd, 0x30, 0x48, 0x64, 0xbc,
  0xbd, 0xf4, 0xb6, 0xbd, 0xe0, 0xaf, 0xc0, 0xbd, 0xe6, 0x49, 0x0a, 0x3d,
  0x45, 0x9f, 0xb7, 0xbd, 0x34, 0x0e, 0x8f, 0xbd, 0x79, 0x4e, 0x41, 0x3d,
  0xe8, 0x0b, 0xb6, 0xbd, 0xe5, 0x00, 0x0a, 0xbd, 0xf7, 0xe0, 0xa7, 0xbd,
  0xc0, 0x1f, 0xae, 0xbd, 0x96, 0xef, 0x2d, 0xbd, 0xe2, 0x44, 0x30, 0x3d,
  0x7e, 0x59, 0x99, 0xbd, 0xfa, 0xf9, 0xb2, 0x3c, 0x65, 0xf0, 0xa9, 0xbd,
  0x75, 0xee, 0x01, 0x3d, 0x24, 0xac, 0x1c, 0x3d, 0x36, 0x09, 0xc4, 0xbd,
  0x20, 0x39, 0x00, 0xbe, 0x67, 0x88, 0x8e, 0x3a, 0x5b, 0x87, 0xbb, 0xbd,
  0x1e, 0x60, 0x39, 0xbd, 0x36, 0x37, 0x3a, 0x3c, 0x06, 0x45, 0x0c, 0x3c,
  0xfc, 0xd1, 0xd9, 0xbc, 0xd8, 0xbf, 0x4c, 0xbd, 0x4a, 0xed, 0xb1, 0x3d,
  0xf6, 0x8a, 0xcb, 0xbc, 0xb7, 0x01, 0x56, 0x3c, 0xcf, 0x1d, 0x53, 0x3d,
  0x26, 0x02, 0xd9, 0x3c, 0x7d, 0xe1, 0x36, 0xbd, 0xfe, 0x90, 0x85, 0x3d,
  0x94, 0xd4, 0xe8, 0x3d, 0x7a, 0x5e, 0x10, 0x3e, 0x8d, 0xe6, 0x48, 0x3e,
  0x9c, 0xc2, 0xc7, 0x3c, 0x86, 0x0e, 0x67, 0x3e, 0xbd, 0x90, 0x7d, 0x3d,
  0x6f, 0x2f, 0x6f, 0x3d, 0xd8, 0x64, 0xac, 0x3d, 0x8c, 0x9e, 0x80, 0x3e,
  0xb4, 0xaf, 0xcf, 0x3d, 0x6e, 0xdc, 0x63, 0x3e, 0x00, 0xa2, 0x35, 0x3e,
  0x47, 0x33, 0x39, 0x3e, 0x6e, 0x71, 0x9a, 0x3d, 0xad, 0xf3, 0x4f, 0x3e,
  0x66, 0x96, 0x0b, 0x3d, 0xd0, 0xd5, 0xbb, 0x3d, 0x5a, 0x7f, 0x25, 0x3e,
  0xb6, 0x22, 0x1c, 0x3e, 0xe1, 0x56, 0x74, 0x3e, 0x40, 0x52, 0xf5, 0x3d,
  0x10, 0x57, 0x65, 0x3e, 0xd5, 0xa5, 0x16, 0x3e, 0xc3, 0xf3, 0x34, 0x3e,
  0x57, 0xad, 0x0b, 0x3e, 0x5d, 0x6a, 0x92, 0x3e, 0x61, 0xf4, 0x62, 0x3e,
  0x31, 0xda, 0x2c, 0x3e, 0x7c, 0xf0, 0xf1, 0x3d, 0x54, 0x78, 0x3a, 0x3e,
  0x3e, 0x6f, 0x39, 0x3e, 0xc4, 0x00, 0xf2, 0x3d, 0xac, 0x88, 0x79, 0x3e,
  0x27, 0x9e, 0x77, 0x3e, 0xfe, 0x9b, 0xcb, 0x3d, 0xd3, 0xf1, 0xe0, 0x3d,
  0x92, 0xb8, 0xe5, 0x3d, 0x0d, 0x3a, 0xb5, 0x3d, 0x1a, 0x67, 0x08, 0x3e,
  0xda, 0x8b, 0x36, 0x3c, 0x9b, 0xc6, 0x1e, 0x3e, 0x73, 0x8e, 0x07, 0x3e,
  0x16, 0x19, 0x65, 0x3e, 0xeb, 0xb3, 0xc8, 0x3d, 0xf8, 0x4e, 0x41, 0x3e,
  0x00, 0x80, 0xf5, 0x3d, 0x96, 0x12, 0x1c, 0x3e, 0x36, 0x8e, 0x94, 0x3d,
  0xee, 0x63, 0x50, 0x3e, 0xf3, 0x76, 0x1e, 0x3e, 0x7e, 0xb3, 0x25, 0x3d,
  0x84, 0x2f, 0x25, 0x3c, 0x5a, 0xa9, 0xfb, 0xbb, 0x0c, 0x9c, 0x43, 0x3e,
  0x00, 0xa1, 0xf1, 0x3d, 0x9a, 0x50, 0xac, 0x3e, 0x0d, 0x55, 0x93, 0x3d,
  0xdb, 0x17, 0x3a, 0x3e, 0x47, 0xb6, 0x4f, 0x3e, 0xba, 0x9e, 0x72, 0x3d,
  0xc5, 0x7f, 0x0c, 0x3e, 0x12, 0x2c, 0x88, 0x3d, 0xfd, 0x3a, 0x03, 0x3e,
  0x7e, 0x53, 0xac, 0x3d, 0x77, 0x92, 0x90, 0xbc, 0xd3, 0xa1, 0xc7, 0xbc,
  0x2b, 0x56, 0x14, 0x3e, 0x4e, 0xdc, 0x0f, 0x3c, 0x9a, 0x3e, 0x36, 0x3c,
  0x1d, 0x86, 0x9d, 0xbd, 0x84, 0x85, 0xcc, 0x3c, 0x95, 0xb3, 0x60, 0xbd,
  0xfe, 0xcf, 0x3d, 0x3c, 0x14, 0x0e, 0xcb, 0xbb, 0x1d, 0x6d, 0x92, 0xbd,
  0x9d, 0xc7, 0xca, 0xba, 0xe8, 0x57, 0x41, 0xbc, 0xb1, 0xd2, 0xe7, 0xbc,
  0x6f, 0x24, 0x6f, 0xbd, 0x10, 0x80, 0x02, 0xbe, 0x5c, 0xe4, 0xc4, 0xbd,
  0x43, 0x55, 0xdf, 0xbd, 0x83, 0xd0, 0xa3, 0xbd, 0x65, 0x91, 0x34, 0xbe,
  0x3e, 0xa6, 0x9d, 0xbd, 0xb9, 0xae, 0x80, 0xbc, 0xcb, 0x7e, 0xb9, 0xbc,
  0x39, 0x39, 0x0d, 0xbe, 0xd2, 0x89, 0xbd, 0xbd, 0xf7, 0x17, 0x6a, 0xbd,
  0x2e, 0x99, 0x5e, 0xbd, 0xc3, 0xf0, 0xcd, 0xbd, 0xb8, 0x79, 0x1d, 0x3c,
  0xf0, 0x44, 0xb7, 0x3d, 0x2a, 0xb6, 0x6a, 0x3d, 0x5f, 0x55, 0xb4, 0x3d,
  0xa6, 0x24, 0x4f, 0x3c, 0xfd, 0x9f, 0xa3, 0xbc, 0x79, 0x96, 0x47, 0xbd,
  0x4f, 0x08, 0xbc, 0xbc, 0x22, 0xab, 0xe9, 0x3d, 0x82, 0xde, 0xbf, 0x3d,
  0x95, 0xb7, 0xce, 0x3d, 0xde, 0x04, 0x0d, 0x3e, 0x30, 0xed, 0x1e, 0x3e,
  0x0f, 0x52, 0x87, 0x3e, 0x8c, 0x6a, 0x23, 0x3e, 0xf4, 0x9c, 0x96, 0x3e,
  0xa5, 0x9e, 0xf2, 0x3d, 0x39, 0xf4, 0x89, 0x3e, 0xe3, 0x8a, 0x98, 0x3e,
  0x79, 0x35, 0x8d, 0x3e, 0x19, 0x29, 0x71, 0x3e, 0x45, 0xfa, 0xe6, 0x3d,
  0x6b, 0x31, 0x7d, 0x3e, 0x5b, 0x9a, 0x51, 0x3e, 0xa4, 0x14, 0x66, 0x3e,
  0x1a, 0x6e, 0x30, 0x3e, 0x14, 0x8a, 0x70, 0x3e, 0xeb, 0x38, 0x4e, 0x3e,
  0x09, 0x15, 0xb9, 0x3d, 0x24, 0x54, 0x4e, 0x3e, 0x79, 0xc9, 0x5f, 0x3e,
  0x02, 0x91, 0x3f, 0x3d, 0x36, 0xd7, 0xaf, 0x3d, 0xaf, 0x12, 0x89, 0xbc,
  0xe4, 0xce, 0xe0, 0x3d, 0x30, 0x73, 0xe9, 0x3d, 0x29, 0x3b, 0x48, 0x3d,
  0xae, 0x80, 0x51, 0x3d, 0xe3, 0x33, 0x91, 0xbb, 0x3b, 0x84, 0x1e, 0x3d,
  0x13, 0x26, 0xec, 0x3d, 0x2a, 0x26, 0xaa, 0xbc, 0x0b, 0x6a, 0xb2, 0xbd,
  0x6f, 0x60, 0x8a, 0x3d, 0x2a, 0x07, 0xa3, 0xbd, 0x9a, 0x98, 0x33, 0x3d,
  0x72, 0xd0, 0x96, 0x3d, 0x9c, 0x19, 0xc6, 0x3c, 0x7a, 0x05, 0x7c, 0x3c,
  0xa1, 0x18, 0x72, 0xbd, 0xe1, 0xc0, 0xa9, 0xbc, 0x0f, 0xd1, 0x7c, 0xbd,
  0x0d, 0xaf, 0x7a, 0xbe, 0xdd, 0xfd, 0x1f, 0xbe, 0x36, 0x66, 0x79, 0xbe,
  0xc3, 0x8b, 0x9b, 0xbe, 0xd8, 0x92, 0x80, 0xbe, 0x94, 0xa1, 0x96, 0xbe,
  0xdf, 0x68, 0x5e, 0xbe, 0xb8, 0x81, 0x1c, 0xbe, 0xeb, 0xc5, 0x7d, 0xbe,
  0x0e, 0x57, 0x02, 0xbe, 0xb3, 0x60, 0xcb, 0xbe, 0xb4, 0x17, 0xbc, 0xbe,
  0x2c, 0x75, 0x82, 0xbe, 0xbf, 0xd5, 0x8d, 0xbe, 0x40, 0xa3, 0xd6, 0xbe,
  0x28, 0xe4, 0xac, 0xbe, 0x48, 0xa3, 0xe3, 0xbe, 0xc9, 0xf2, 0x87, 0xbe,
  0xc7, 0xd9, 0xbc, 0xbe, 0x35, 0x88, 0x78, 0xbe, 0xe3, 0xa3, 0xad, 0xbe,
  0x08, 0xa0, 0x87, 0xbe, 0xb7, 0x84, 0x86, 0xbe, 0x49, 0xae, 0x8c, 0xbe,
  0x13, 0x9f, 0xba, 0xbe, 0xf4, 0x7d, 0x96, 0xbe, 0x70, 0xcb, 0xaf, 0xbe,
  0xf6, 0x01, 0xa5, 0xbe, 0xa9, 0x10, 0xba, 0xbe, 0xb3, 0x38, 0xa1, 0xbe,
  0x52, 0x67, 0x7e, 0xbe, 0xe4, 0x23, 0x66, 0xbe, 0x49, 0x3a, 0xa3, 0xbe,
  0x63, 0x86, 0x93, 0xbe, 0x41, 0x10, 0x83, 0xbe, 0x3b, 0x3c, 0x5c, 0xbe,
  0x33, 0xd7, 0x30, 0xbe, 0xdc, 0xe9, 0x58, 0xbe, 0x9b, 0x5d, 0x67, 0xbe,
  0x21, 0x5c, 0x23, 0xbe, 0xe9, 0x81, 0x61, 0xbe, 0x56, 0x71, 0x34, 0xbe,
  0x8c, 0x2c, 0x59, 0xbe, 0x83, 0x8d, 0x08, 0xbe, 0x41, 0x88, 0x6f, 0xbe,
  0x41, 0xb3, 0x85, 0xbe, 0xe0, 0x4b, 0x38, 0xbe, 0x6e, 0x4c, 0x46, 0xbe,
  0x1c, 0x94, 0x81, 0xbe, 0x88, 0x72, 0x4d, 0xbe, 0x58, 0xa5, 0x9d, 0xbd,
  0xc3, 0x73, 0xbd, 0xbd, 0x89, 0xcb, 0x0a, 0x3d, 0x2b, 0xc5, 0x48, 0x3b,
  0x95, 0x50, 0x6b, 0x3d, 0x74, 0x7f, 0xbb, 0x3d, 0x2b, 0xb0, 0x5a, 0x3e,
  0x11, 0x4f, 0x5d, 0x3e, 0xf4, 0xd4, 0x89, 0x3e, 0x52, 0xaa, 0x7f, 0x3e,
  0xed, 0x9e, 0x1c, 0x3e, 0xd4, 0x9e, 0x93, 0x3e, 0x97, 0xa8, 0x96, 0x3e,
  0xfd, 0x64, 0xac, 0x3e, 0x2b, 0x8b, 0x5e, 0x3e, 0x0c, 0xc1, 0x84, 0x3e,
  0x1b, 0xb1, 0x97, 0x3e, 0xf8, 0x73, 0x76, 0x3e, 0xd8, 0x7a, 0x83, 0x3e,
  0xf2, 0x66, 0xa6, 0x3e, 0x94, 0x04, 0xba, 0x3e, 0x12, 0xf2, 0xbb, 0x3e,
  0x35, 0x51, 0xed, 0x3e, 0xa5, 0x1f, 0xee, 0x3e, 0x8c, 0x73, 0xaa, 0x3e,
  0x06, 0x3b, 0x96, 0x3e, 0xe0, 0x5f, 0xf0, 0x3e, 0x3f, 0x25, 0xca, 0x3e,
  0xc5, 0xbf, 0xa6, 0x3e, 0xfa, 0x66, 0xbb, 0x3e, 0xa7, 0xeb, 0xe3, 0x3e,
  0x38, 0xcc, 0xc9, 0x3e, 0x68, 0xfb, 0xbf, 0x3e, 0xaa, 0x3f, 0x91, 0x3e,
  0x13, 0x5d, 0xc5, 0x3e, 0xcd, 0x5a, 0xa2, 0x3e, 0x63, 0x99, 0x8e, 0x3e,
  0x82, 0x15, 0x88, 0x3e, 0xbb, 0x50, 0x33, 0x3e, 0x5a, 0x57, 0xa9, 0x3e,
  0x34, 0x58, 0x81, 0x3e, 0x7a, 0xb1, 0x99, 0x3e, 0x34, 0xf6, 0x31, 0x3e,
  0xc9, 0x00, 0x38, 0x3e, 0xe8, 0xcf, 0x1d, 0x3e, 0xd8, 0xf5, 0x0e, 0x3e,
  0x4f, 0xeb, 0x82, 0x3e, 0x3c, 0x9f, 0x65, 0x3e, 0x83, 0x72, 0x55, 0x3e,
  0x01, 0xbe, 0x14, 0x3e, 0x69, 0x32, 0xae, 0x3d, 0xa6, 0xec, 0xb9, 0x3d,
  0xb2, 0x64, 0x49, 0x3d, 0xbe, 0xda, 0xc2, 0x3d, 0x55, 0x98, 0xba, 0x3c,
  0x54, 0x1c, 0x01, 0xbd, 0x88, 0x82, 0xea, 0x3d, 0x3d, 0xf3, 0x22, 0x3d,
  0x3d, 0x12, 0x7b, 0x3d, 0xf0, 0x80, 0x03, 0x3e, 0x2f, 0xfa, 0x29, 0x3e,
  0xda, 0x85, 0xa2, 0x3d, 0x8c, 0x25, 0x98, 0x3d, 0xcf, 0xd7, 0x2c, 0x3e,
  0x36, 0xbe, 0xa5, 0x3d, 0xfb, 0x8b, 0x2e, 0x3d, 0x2a, 0x25, 0xb3, 0x3d,
  0xff, 0x42, 0x97, 0x3d, 0x4a, 0x13, 0xa1, 0x3d, 0xe7, 0x3e, 0x6c, 0x3d,
  0x7e, 0xa4, 0x28, 0x3d, 0x3a, 0x6b, 0x4b, 0x3d, 0xf4, 0x00, 0x07, 0x3d,
  0x89, 0xf0, 0x17, 0x3e, 0x50, 0x98, 0x78, 0x3d, 0xe0, 0xf7, 0x87, 0x3d,
  0x30, 0x0f, 0xd4, 0x3d, 0x1a, 0x90, 0x32, 0x3e, 0xf1, 0x3d, 0x37, 0x3c,
  0x67, 0x60, 0x49, 0x3e, 0xcf, 0xf9, 0x67, 0x3d, 0x0f, 0xd4, 0x24, 0x3e,
  0x92, 0x77, 0x5c, 0x3d, 0x56, 0x2a, 0x0e, 0x3e, 0x8e, 0x3a, 0xf4, 0x3d,
  0x6a, 0x0c, 0xd4, 0x3d, 0xbe, 0xa5, 0x25, 0x3e, 0x1c, 0x3a, 0x35, 0x3e,
  0xa1, 0xc5, 0x0a, 0x3e, 0x0a, 0x54, 0x4b, 0x3e, 0x92, 0xc8, 0x33, 0x3e,
  0xba, 0xfd, 0x8c, 0x3e, 0x35, 0x2c, 0x29, 0x3e, 0x40, 0x05, 0x82, 0x3e,
  0x08, 0xe4, 0x70, 0x3e, 0x01, 0x6a, 0x3d, 0x3e, 0x29, 0x29, 0x7f, 0x3e,
  0x1b, 0x07, 0x0b, 0x3e, 0x3b, 0xd3, 0x8e, 0x3e, 0x79, 0x96, 0xfa, 0x3d,
  0x4c, 0x28, 0x97, 0x3d, 0x02, 0xf9, 0x49, 0x3e, 0xad, 0xd5, 0x19, 0x3e,
  0xf9, 0x09, 0x32, 0x3e, 0xc2, 0x27, 0x68, 0x3e, 0x7d, 0xf8, 0x83, 0x3e,
  0x0c, 0x54, 0xf7, 0x3d, 0x59, 0x0e, 0x0c, 0x3e, 0xba, 0x08, 0x4c, 0x3e,
  0xdc, 0x1f, 0x3f, 0x3e, 0x0c, 0x4a, 0xd0, 0x3d, 0x01, 0x84, 0x74, 0x3d,
  0x93, 0xc3, 0x8f, 0x3d, 0xe7, 0xed, 0xb7, 0xbd, 0x21, 0x18, 0x3a, 0x3d,
  0xf1, 0xed, 0x1f, 0x3d, 0x9d, 0x56, 0x18, 0xbd, 0x99, 0xde, 0xd8, 0xbc,
  0x18, 0x5e, 0xec, 0xbd, 0x95, 0x68, 0x9f, 0xbd, 0xef, 0x16, 0x53, 0xbd,
  0x9c, 0xeb, 0x47, 0xbe, 0x53, 0x4e, 0x53, 0xbe, 0x12, 0x0e, 0xa0, 0xbd,
  0x3d, 0xf6, 0x80, 0xbd, 0x3c, 0xbb, 0x64, 0xbe, 0xe1, 0x1f, 0x0a, 0xbe,
  0xf7, 0x58, 0x4b, 0xbe, 0x2c, 0x83, 0xca, 0xbd, 0xf0, 0xf3, 0x16, 0xbe,
  0xa1, 0x70, 0x54, 0xbe, 0x30, 0x2a, 0x92, 0xbe, 0xe5, 0x7c, 0x93, 0xbe,
  0x0b, 0x48, 0x1f, 0xbe, 0x84, 0xc3, 0x96, 0xbe, 0x3d, 0xf4, 0x83, 0xbe,
  0xce, 0xd7, 0x86, 0xbe, 0xd4, 0x4c, 0x8e, 0xbe, 0x51, 0x95, 0xb2, 0xbe,
  0x30, 0x91, 0x3a, 0xbe, 0xca, 0x82, 0x8e, 0xbe, 0xaa, 0x60, 0x87, 0xbe,
  0xb0, 0x2b, 0x85, 0xbe, 0x20, 0xe3, 0x8a, 0xbe, 0xf8, 0x93, 0x85, 0xbd,
  0x4e, 0x8b, 0xa8, 0xbe, 0xe4, 0xe4, 0x0f, 0xbe, 0xb8, 0xd5, 0x86, 0xbe,
  0xfb, 0x19, 0x5e, 0xbe, 0x2b, 0x7f, 0x57, 0xbe, 0xf9, 0x94, 0xe8, 0xbd,
  0xec, 0x5a, 0x57, 0xbd, 0xda, 0xb7, 0x3a, 0xbe, 0x75, 0x34, 0x4a, 0xbe,
  0x8e, 0x1a, 0x28, 0xbe, 0x60, 0xe7, 0x12, 0xbe, 0x6f, 0xfa, 0x83, 0xbd,
  0xac, 0x2f, 0x5e, 0x3d, 0x99, 0x72, 0xad, 0x3c, 0x5d, 0xb7, 0xe9, 0x3c,
  0xbf, 0x82, 0x1f, 0xbd, 0x61, 0xf0, 0xbd, 0xbd, 0x47, 0x10, 0xc1, 0x3c,
  0x8e, 0xd4, 0x16, 0xbd, 0xf4, 0x82, 0xee, 0xbd, 0x55, 0xef, 0x55, 0xbd,
  0x20, 0xea, 0xdd, 0xbc, 0x99, 0xdc, 0xf1, 0xbd, 0xf6, 0x4e, 0xff, 0xbc,
  0xa1, 0x59, 0x6c, 0x3d, 0x7d, 0xa9, 0xdc, 0x3d, 0xf5, 0x6e, 0x03, 0xbd,
  0x64, 0x00, 0xd6, 0xbd, 0x59, 0x58, 0xf6, 0xbd, 0x15, 0xde, 0x40, 0xbd,
  0x09, 0x44, 0x02, 0x3c, 0x40, 0x12, 0xb5, 0x3d, 0x26, 0x5a, 0xbe, 0x3d,
  0x69, 0x34, 0x86, 0x3d, 0x0b, 0xf2, 0x1f, 0x3d, 0x21, 0xd3, 0x98, 0x39,
  0xde, 0x9a, 0xf2, 0xbb, 0x38, 0x1a, 0xe5, 0x3d, 0xc2, 0xb6, 0x3b, 0xbc,
  0xd4, 0xc8, 0x21, 0xbd, 0x99, 0x19, 0x9f, 0xbd, 0x33, 0xc2, 0x0e, 0x3d,
  0x11, 0x57, 0x90, 0x3d, 0x31, 0xbb, 0x30, 0x3d, 0x85, 0xda, 0x79, 0xbd,
  0x77, 0xe0, 0x5f, 0x3d, 0x22, 0x15, 0xcd, 0x3b, 0x23, 0x56, 0x95, 0xbd,
  0x94, 0xc0, 0x36, 0x3d, 0xa3, 0x97, 0x7e, 0x3b, 0xbd, 0xe9, 0x80, 0xbd,
  0xa7, 0xa5, 0x97, 0xbc, 0xb5, 0x76, 0xe9, 0x3d, 0x0a, 0xa8, 0xaa, 0xbd,
  0xc7, 0x98, 0xed, 0xbc, 0xe7, 0x22, 0xaf, 0xbc, 0xd0, 0xdb, 0x95, 0x3c,
  0x33, 0x23, 0x85, 0xbd, 0x18, 0x4e, 0x7f, 0x3d, 0x01, 0x18, 0x70, 0xbc,
  0x54, 0xd3, 0x1a, 0xbd, 0xb4, 0x24, 0x8b, 0x3c, 0x34, 0x4e, 0x24, 0x3d,
  0x63, 0x1b, 0x12, 0x3e, 0x5c, 0x90, 0xf4, 0x3d, 0xa2, 0x68, 0x21, 0x3e,
  0x73, 0x26, 0x5a, 0x3e, 0x5c, 0x59, 0x7c, 0x3d, 0x71, 0x55, 0x27, 0x3e,
  0xf4, 0xa2, 0x40, 0x3d, 0xc6, 0x0f, 0xfe, 0x3d, 0x70, 0x32, 0xd8, 0x3d,
  0xe7, 0x79, 0x20, 0x3e, 0x79, 0x39, 0xa2, 0x3c, 0x18, 0xe9, 0xf5, 0x3d,
  0x5c, 0x3e, 0x50, 0x3d, 0xfb, 0x94, 0x52, 0x3a, 0x16, 0xb3, 0x16, 0x3e,
  0x17, 0x77, 0xdc, 0x3d, 0x22, 0x4a, 0x9b, 0x3d, 0x5a, 0xa8, 0x6b, 0xbd,
  0x84, 0x16, 0x17, 0x3e, 0xb1, 0x98, 0xb0, 0x3d, 0xed, 0x93, 0xf8, 0xbc,
  0x80, 0x75, 0x9f, 0x3c, 0x6a, 0x71, 0x92, 0x3d, 0x36, 0x52, 0x90, 0x3c,
  0xac, 0x42, 0xc1, 0x3d, 0x2b, 0x54, 0xca, 0xbd, 0x92, 0x6a, 0xb0, 0x3d,
  0x67, 0xe3, 0x82, 0x3d, 0x0d, 0x07, 0xdd, 0x3b, 0x86, 0xdf, 0xba, 0x3d,
  0x1a, 0x8d, 0x36, 0x3d, 0xc3, 0xda, 0x3e, 0x3e, 0x34, 0xf7, 0x90, 0x3d,
  0x48, 0xf9, 0xf0, 0x3d, 0xc5, 0x8d, 0xdc, 0x3d, 0xe5, 0xc1, 0xb1, 0x3d,
  0x6c, 0x5e, 0x23, 0x3e, 0xf0, 0x65, 0xba, 0x3d, 0xc7, 0x92, 0x13, 0x3d,
  0xed, 0x15, 0x2c, 0x3e, 0xea, 0x58, 0x0a, 0x3e, 0x79, 0xfc, 0xc6, 0x3c,
  0xe6, 0xd3, 0x1c, 0x3e, 0x3e, 0x7a, 0xb8, 0x3d, 0xd6, 0x67, 0x3c, 0x3e,
  0xee, 0x47, 0x7d, 0x3c, 0xcd, 0x89, 0xbb, 0x3c, 0x01, 0xef, 0xc1, 0xbd,
  0x80, 0x24, 0x14, 0xbd, 0xd9, 0x2d, 0x3a, 0x3d, 0x42, 0x91, 0xd5, 0xbd,
  0x6e, 0x96, 0x3a, 0x3c, 0x7d, 0xcd, 0xd8, 0x3c, 0x66, 0x78, 0x2a, 0xbc,
  0x1b, 0xad, 0xec, 0xbc, 0x2e, 0x0a, 0xf4, 0xbd, 0xaf, 0x8c, 0x91, 0xbd,
  0xea, 0x83, 0xba, 0xbd, 0x1f, 0x6e, 0xe6, 0x3c, 0x49, 0xfa, 0x12, 0xbe,
  0x49, 0x88, 0xa7, 0xbd, 0x04, 0x38, 0x15, 0xbb, 0x99, 0x99, 0xbd, 0xbd,
  0xc4, 0xf1, 0xe2, 0xbd, 0xb9, 0xb1, 0x1d, 0xbe, 0x9a, 0x6b, 0x5e, 0xbd,
  0x72, 0x65, 0x30, 0xbe, 0xba, 0x92, 0xf6, 0xbd, 0x69, 0xec, 0x14, 0xbe,
  0x1f, 0x18, 0x5c, 0xbe, 0xc4, 0xfc, 0x07, 0xbe, 0x61, 0x57, 0x41, 0xbe,
  0xd5, 0xb0, 0xe6, 0xbd, 0x41, 0x4f, 0x5e, 0xbe, 0xa0, 0x49, 0xf3, 0xbd,
  0x6a, 0x28, 0x40, 0xbe, 0x6e, 0x3b, 0xb9, 0xbd, 0xc4, 0xbc, 0x20, 0xbe,
  0x84, 0x4c, 0x81, 0xbd, 0x38, 0x27, 0x55, 0xbe, 0xc1, 0xb8, 0x36, 0xbe,
  0x35, 0x6f, 0x33, 0xbe, 0x27, 0xdf, 0x07, 0xbe, 0x67, 0x69, 0x19, 0xbe,
  0xb4, 0x75, 0x72, 0xbe, 0xe2, 0xf8, 0x70, 0xbd, 0xd0, 0xc9, 0x9e, 0xbd,
  0x18, 0x92, 0x46, 0xbe, 0xbf, 0x55, 0x9a, 0xbc, 0xd1, 0x6b, 0xb4, 0xbd,
  0x9e, 0xe1, 0x61, 0x3d, 0x31, 0x75, 0xd9, 0xbd, 0x46, 0x15, 0x47, 0xbd,
  0xa8, 0xda, 0xa7, 0x3c, 0x55, 0x10, 0x66, 0xbb, 0xd7, 0xde, 0xa4, 0xbc,
  0xa9, 0xaa, 0x41, 0xbe, 0x77, 0x9c, 0xf1, 0xbd, 0xce, 0x52, 0xee, 0xbd,
  0x2f, 0x50, 0x85, 0xbd, 0x54, 0x3c, 0x3d, 0xbe, 0xc2, 0xe4, 0x89, 0xbd,
  0x96, 0x38, 0x26, 0x3c, 0x6d, 0x38, 0x0a, 0x3c, 0x40, 0xb2, 0xe9, 0xbd,
  0x7e, 0xbb, 0x41, 0xbc, 0x25, 0xa9, 0xd6, 0x3c, 0xb6, 0xaa, 0xbf, 0xbd,
  0xe3, 0xda, 0x80, 0xbc, 0xaf, 0x58, 0x45, 0xbd, 0xe8, 0x83, 0xba, 0xbd,
  0x00, 0x6f, 0x19, 0xbd, 0x8a, 0xce, 0x02, 0xbd, 0x92, 0x58, 0x0c, 0x3d,
  0x5a, 0x38, 0x3c, 0x3d, 0x5d, 0xd5, 0xe1, 0x3b, 0x6a, 0xb2, 0x9b, 0xbb,
  0xf0, 0x76, 0x35, 0xbc, 0x14, 0xc5, 0x59, 0xbd, 0xeb, 0xdf, 0xc1, 0x3d,
  0x83, 0xb1, 0xeb, 0x3d, 0x93, 0xc1, 0x33, 0xbc, 0x32, 0xe7, 0x83, 0xbd,
  0xdb, 0x8b, 0x3b, 0x3d, 0x88, 0x77, 0x6a, 0x3d, 0xac, 0xd8, 0xcb, 0x3d,
  0x9c, 0xe4, 0x09, 0x3e, 0x10, 0x1f, 0x0c, 0x3e, 0x6a, 0xd4, 0xbe, 0x3c,
  0x4f, 0x7a, 0x2f, 0x3e, 0x83, 0x2d, 0xb7, 0x3d, 0xc6, 0x28, 0xf6, 0x3d,
  0x2e, 0x8f, 0x7d, 0x3d, 0xb5, 0xb0, 0xd8, 0x3d, 0x0b, 0x30, 0xb2, 0x3d,
  0x2d, 0x7b, 0x2c, 0x3d, 0x1f, 0x97, 0x88, 0x3d, 0x02, 0xf6, 0xf3, 0xbc,
  0xa5, 0x1f, 0x01, 0x3d, 0xb2, 0xb4, 0x1c, 0xbb, 0xd7, 0xd7, 0x06, 0x3e,
  0xe2, 0x5d, 0x11, 0xbc, 0x48, 0xe1, 0x62, 0xbd, 0xce, 0xde, 0xd9, 0x3c,
  0xd4, 0x54, 0xe0, 0xbd, 0xac, 0x90, 0x36, 0xbe, 0x6c, 0x3f, 0xf2, 0xbc,
  0x09, 0x81, 0x9d, 0xbb, 0x4f, 0x87, 0x74, 0xbd, 0xc3, 0x76, 0x84, 0xbd,
  0x99, 0x63, 0x84, 0xbd, 0x86, 0x43, 0x0f, 0xbe, 0x54, 0x56, 0xa2, 0xbc,
  0xd8, 0x82, 0x94, 0xbb, 0x4a, 0x52, 0xa8, 0x3c, 0xbc, 0x11, 0xe8, 0x3d,
  0x1c, 0x9d, 0xf4, 0x3c, 0x09, 0x24, 0x2d, 0xbd, 0x42, 0xca, 0x94, 0x3d,
  0xdf, 0x89, 0x90, 0xbd, 0x82, 0x6b, 0xa7, 0xbd, 0x72, 0xdb, 0x37, 0x3d,
  0x01, 0x00, 0xba, 0xbd, 0x75, 0xad, 0xe0, 0xbd, 0x78, 0x19, 0x13, 0xbe,
  0x74, 0x26, 0x92, 0x3c, 0xfa, 0x97, 0x9a, 0xbc, 0xce, 0x04, 0xbd, 0xbb,
  0xc3, 0xf3, 0xdf, 0xbc, 0x32, 0xfb, 0x0a, 0xbe, 0x8d, 0xc0, 0xf9, 0xbc,
  0x2a, 0xe6, 0x6d, 0x3c, 0x37, 0xf2, 0x1d, 0xbe, 0xc7, 0xe4, 0x69, 0xbd,
  0xb4, 0xc9, 0x08, 0xbe, 0x75, 0xca, 0x62, 0xbe, 0xb0, 0x82, 0x4d, 0xbe,
  0xb8, 0x09, 0xe6, 0xbd, 0xab, 0x8f, 0x49, 0xbe, 0x73, 0x2e, 0x29, 0xbe,
  0xba, 0xcb, 0x6a, 0xbd, 0x07, 0xb7, 0x54, 0xbe, 0x3b, 0xe2, 0x2c, 0xbe,
  0x16, 0x5d, 0x8e, 0xbd, 0xd7, 0xdd, 0xbe, 0xbd, 0xc6, 0xbf, 0x37, 0xbe,
  0xfb, 0xe5, 0xfc, 0xbd, 0xed, 0x05, 0xb6, 0xbc, 0x1e, 0x5c, 0x4a, 0xbc,
  0x1b, 0x6c, 0x76, 0xbd, 0x9c, 0x76, 0x7c, 0x3d, 0xd4, 0xda, 0x9d, 0xbd,
  0x52, 0x16, 0x48, 0x3d, 0x8c, 0x37, 0x1b, 0xbb, 0x2a, 0xfe, 0xa9, 0xbd,
  0x62, 0xf9, 0x19, 0xbb, 0xde, 0xc6, 0x77, 0xbb, 0xba, 0xed, 0xf1, 0xbd,
  0x6f, 0xc1, 0x00, 0xbd, 0xb9, 0x4e, 0x17, 0x3d, 0xc3, 0xd7, 0xc9, 0x3d,
  0xcd, 0xaa, 0xb6, 0xbc, 0x3c, 0x26, 0xfc, 0xbb, 0xc8, 0x00, 0x90, 0x3b,
  0x5c, 0x47, 0xca, 0xbc, 0x34, 0x24, 0x08, 0xbc, 0x38, 0x2a, 0x15, 0xbe,
  0x52, 0x1d, 0x09, 0xbe, 0x27, 0x80, 0xc2, 0xbd, 0x98, 0xbd, 0x0d, 0xbe,
  0x2b, 0x41, 0x57, 0xbd, 0x1f, 0x48, 0x3f, 0x3c, 0x22, 0x8e, 0x19, 0xbe,
  0x93, 0xc9, 0xa0, 0x3b, 0x2f, 0x97, 0x8d, 0xbd, 0x44, 0x34, 0xf5, 0xbd,
  0x45, 0x29, 0x1a, 0xbe, 0xc5, 0xbd, 0x31, 0xbe, 0xf4, 0xb0, 0x02, 0xbd,
  0xf9, 0x15, 0x0f, 0xbe, 0x4d, 0x2d, 0x54, 0xbe, 0x37, 0xab, 0xf7, 0xbd,
  0x50, 0x08, 0x90, 0xbd, 0xfc, 0xd2, 0x4b, 0xbd, 0xe4, 0xb5, 0x5f, 0xbe,
  0x85, 0xb2, 0xed, 0xbd, 0xa6, 0x08, 0x80, 0xbd, 0xbd, 0xf7, 0x30, 0xbe,
  0x7a, 0xf8, 0x00, 0xbe, 0xfe, 0xc5, 0x90, 0xbc, 0x51, 0xe9, 0xc6, 0xbd,
  0xe4, 0xb2, 0xa8, 0xbd, 0xb6, 0x18, 0x47, 0xbd, 0xce, 0xa8, 0x26, 0xbe,
  0x17, 0x5b, 0x27, 0x3c, 0x4b, 0x52, 0xab, 0x3c, 0x20, 0x0f, 0x21, 0x3d,
  0x27, 0xaa, 0x02, 0x3c, 0x09, 0xab, 0xfd, 0xbc, 0xbd, 0xe6, 0x59, 0xbb,
  0x45, 0xcb, 0x1b, 0xbd, 0x75, 0x79, 0x8a, 0xba, 0x1e, 0x81, 0x89, 0xbd,
  0x4f, 0xc7, 0xd5, 0x3c, 0x3d, 0x8d, 0xb3, 0x3d, 0x53, 0xf2, 0x0d, 0xbd,
  0xd0, 0x58, 0x37, 0xbd, 0xb3, 0x6c, 0x85, 0xbc, 0x95, 0x70, 0x17, 0x3d,
  0x93, 0x75, 0xa8, 0xbd, 0x6b, 0xc8, 0x7a, 0x3d, 0xb0, 0x19, 0xd2, 0x3d,
  0x17, 0xf1, 0x07, 0xbd, 0xcb, 0x11, 0x83, 0xbd, 0x8f, 0x9b, 0x38, 0x3d,
  0x9a, 0xa3, 0xbf, 0x3d, 0xb8, 0x03, 0x03, 0x3e, 0xc0, 0x97, 0x13, 0x3e,
  0xe8, 0x15, 0x74, 0x3e, 0x96, 0x32, 0x05, 0x3e, 0xfd, 0x60, 0x0e, 0x3e,
  0x48, 0xd5, 0x80, 0x3e, 0x50, 0x41, 0xd2, 0x3d, 0x94, 0x5a, 0x5d, 0x3e,
  0x7f, 0x89, 0x8a, 0x3e, 0xc7, 0x16, 0x28, 0x3e, 0x7c, 0xd9, 0x50, 0x3e,
  0x12, 0x48, 0x32, 0x3e, 0x2c, 0x41, 0x15, 0x3e, 0xc3, 0xca, 0x09, 0x3e,
  0x7a, 0xb9, 0x6c, 0x3e, 0xef, 0xed, 0x5c, 0x3e, 0x6b, 0xd4, 0xfd, 0x3d,
  0x98, 0xde, 0x5e, 0x3e, 0xa5, 0x6d, 0x48, 0x3e, 0x17, 0xbc, 0x57, 0x3e,
  0x94, 0xd3, 0x7d, 0x3e, 0x58, 0x36, 0x1d, 0x3e, 0x57, 0x9d, 0x36, 0x3e,
  0x93, 0x65, 0x0f, 0x3d, 0x65, 0x53, 0x47, 0x3e, 0x51, 0x40, 0xc1, 0x3d,
  0x44, 0x67, 0x99, 0x3d, 0xb1, 0xc6, 0xe5, 0x3d, 0x34, 0x2e, 0x41, 0x3e,
  0x4d, 0x45, 0xf4, 0x3d, 0x2d, 0x2b, 0xd3, 0x3d, 0xb0, 0x4c, 0x32, 0x3e,
  0xcf, 0x93, 0xd8, 0x3d, 0x1b, 0x5f, 0x34, 0x3e, 0x8d, 0x02, 0xda, 0x3d,
  0xb6, 0xad, 0x49, 0x3c, 0xfd, 0x99, 0x1d, 0x3d, 0x24, 0x51, 0xe6, 0x3c,
  0xe3, 0x8e, 0x44, 0xbd, 0xe9, 0x62, 0x8e, 0x3b, 0xf7, 0x2a, 0x1d, 0xbd,
  0x4b, 0x37, 0x88, 0x3d, 0xdf, 0x92, 0x84, 0x3d, 0x53, 0x4b, 0xda, 0x3c,
  0xed, 0xc5, 0x96, 0xbd, 0x5c, 0xa8, 0x01, 0xbe, 0x67, 0x6c, 0x08, 0xbe,
  0xfc, 0x83, 0x27, 0xbe, 0xa0, 0xe3, 0x0a, 0xbd, 0xb0, 0xdb, 0x7a, 0xbc,
  0xcf, 0x0d, 0x3c, 0x3c, 0x2c, 0x42, 0xb6, 0xbc, 0x53, 0xb9, 0x28, 0xbd,
  0x04, 0xcd, 0x5e, 0xbc, 0x83, 0x81, 0x17, 0xbd, 0x21, 0xbc, 0xa2, 0xbd,
  0x24, 0x74, 0xb6, 0xbd, 0x72, 0x6a, 0x24, 0xbd, 0x5d, 0x16, 0xc0, 0xbd,
  0x3e, 0xe4, 0x3d, 0xbb, 0x7c, 0x9f, 0xde, 0xbc, 0x37, 0x80, 0x12, 0xbe,
  0xad, 0xc9, 0x38, 0xbe, 0xdb, 0x08, 0x9b, 0xbd, 0x88, 0x0d, 0x28, 0xbe,
  0xd9, 0xc3, 0x9c, 0xbd, 0x0f, 0xb5, 0x28, 0xbe, 0x84, 0x04, 0xf4, 0xbd,
  0xe5, 0xe6, 0x26, 0xbe, 0x65, 0xe4, 0x76, 0xbe, 0x28, 0x45, 0x15, 0xbe,
  0x51, 0xe6, 0x29, 0xbd, 0xe1, 0x8d, 0xb9, 0xbd, 0x51, 0x02, 0x3b, 0xbe,
  0x9b, 0x68, 0xa0, 0xbd, 0x21, 0x43, 0xa6, 0xbd, 0x1e, 0x64, 0x44, 0xbe,
  0x9a, 0x97, 0x59, 0xbe, 0x8c, 0xd4, 0x04, 0xbe, 0x35, 0xa4, 0xb8, 0xbd,
  0x64, 0x2b, 0xa2, 0xbd, 0x07, 0xf6, 0x0f, 0xbd, 0x26, 0xca, 0x3e, 0xbe,
  0xd3, 0xa2, 0xf5, 0xbd, 0x85, 0xce, 0x1b, 0xbe, 0xcb, 0x63, 0x20, 0xbe,
  0x04, 0xb7, 0xd9, 0xbd, 0x21, 0x08, 0xc2, 0xbd, 0xd4, 0x92, 0x2b, 0xbe,
  0x91, 0x76, 0x43, 0x3d, 0x6d, 0x2b, 0xa9, 0xbd, 0xde, 0xa7, 0x68, 0x3d,
  0x05, 0xfb, 0x93, 0xbd, 0xb7, 0x87, 0x36, 0xbe, 0xf9, 0xe4, 0x8a, 0xbd,
  0x8b, 0x24, 0x23, 0xbd, 0xc9, 0xb6, 0xe8, 0xbd, 0x2e, 0x59, 0x7b, 0xbd,
  0x97, 0xe0, 0x72, 0xbd, 0xc4, 0x2b, 0x61, 0x3d, 0x9a, 0x05, 0xdf, 0xbb,
  0xc0, 0x2e, 0xad, 0x3d, 0xef, 0x47, 0xab, 0xbd, 0x44, 0xe5, 0xf6, 0xbc,
  0xd8, 0x84, 0xca, 0x3c, 0x4f, 0x66, 0xbe, 0x39, 0x03, 0xfe, 0x85, 0x3b,
  0xdd, 0xee, 0xa4, 0x3c, 0xb9, 0xa4, 0xf2, 0x3c, 0x6d, 0x05, 0x5e, 0x3d,
  0xe2, 0xff, 0x8d, 0x3d, 0xad, 0xe9, 0x3f, 0x3d, 0xa4, 0xe0, 0x46, 0x3d,
  0xbb, 0xeb, 0xf2, 0x3d, 0xc6, 0x88, 0x7e, 0x3d, 0x70, 0x65, 0x99, 0x3d,
  0x01, 0x74, 0x8e, 0x3e, 0x81, 0x08, 0x2c, 0x3e, 0x59, 0x01, 0x9d, 0x3e,
  0xc3, 0xf7, 0x4d, 0x3e, 0x73, 0xbd, 0x6a, 0x3e, 0xfa, 0x4b, 0x75, 0x3e,
  0x31, 0xe7, 0x38, 0x3e, 0x67, 0xae, 0xa9, 0x3e, 0x9b, 0x35, 0xaa, 0x3e,
  0xff, 0xef, 0x3c, 0x3e, 0x6e, 0x32, 0x82, 0x3e, 0x9d, 0x33, 0x50, 0x3e,
  0x8b, 0xcd, 0x86, 0x3e, 0x95, 0x28, 0xa5, 0x3e, 0x6e, 0x3e, 0xdc, 0x3e,
  0x95, 0xf5, 0xac, 0x3e, 0x00, 0x9c, 0xc9, 0x3e, 0xcf, 0xd7, 0x98, 0x3e,
  0x92, 0x74, 0x85, 0x3e, 0x75, 0xac, 0xc6, 0x3e, 0x63, 0xbe, 0x95, 0x3e,
  0x87, 0x8d, 0x95, 0x3e, 0xaf, 0xf2, 0x6a, 0x3e, 0x85, 0x2b, 0xd5, 0x3e,
  0xc1, 0x09, 0xbd, 0x3e, 0x07, 0xdb, 0xbb, 0x3e, 0x7b, 0x9a, 0xcb, 0x3e,
  0x56, 0x69, 0x99, 0x3e, 0xc4, 0x88, 0xc7, 0x3e, 0x0f, 0xa5, 0x6d, 0x3e,
  0xe7, 0xdb, 0x98, 0x3e, 0xcb, 0xf3, 0x37, 0x3e, 0xda, 0x44, 0x81, 0x3e,
  0x38, 0x0f, 0x88, 0x3e, 0x85, 0x99, 0xb1, 0x3d, 0xc3, 0x1d, 0x1d, 0x3e,
  0x70, 0x8b, 0x3a, 0x3e, 0x53, 0x90, 0x88, 0x3d, 0x61, 0x7c, 0x8c, 0x3d,
  0xa8, 0xfa, 0x74, 0x3d, 0xcc, 0x59, 0xc5, 0xbd, 0x15, 0xbd, 0xbc, 0xbc,
  0xe1, 0x22, 0xee, 0xbc, 0xe4, 0x47, 0x3a, 0x3d, 0x5a, 0x3c, 0x11, 0xbd,
  0xe8, 0x9a, 0xb2, 0xbd, 0xf7, 0x26, 0x52, 0x3a, 0x4e, 0xc4, 0x29, 0xbe,
  0x8c, 0xef, 0x11, 0xbe, 0x1d, 0x1e, 0xfd, 0xbd, 0x55, 0xbd, 0xd8, 0xbd,
  0x2a, 0x63, 0x65, 0xbe, 0x9b, 0x1b, 0x4f, 0xbe, 0x8e, 0x78, 0xd2, 0xbd,
  0x63, 0x05, 0x03, 0xbe, 0x50, 0x27, 0x52, 0xbe, 0x67, 0x0e, 0x85, 0xbe,
  0xa2, 0x68, 0xbd, 0xbe, 0x1e, 0x93, 0xa6, 0xbe, 0xa7, 0xb6, 0xc9, 0xbe,
  0x95, 0x38, 0x94, 0xbe, 0xfc, 0xb4, 0xa3, 0xbe, 0xfe, 0xe2, 0xa2, 0xbe,
  0xdb, 0x76, 0xcc, 0xbe, 0xeb, 0x11, 0xbb, 0xbe, 0xc7, 0xe0, 0x85, 0xbe,
  0x97, 0x77, 0xa3, 0xbe, 0x1b, 0x65, 0xa9, 0xbe, 0xe7, 0xfe, 0x7c, 0xbe,
  0x60, 0x3c, 0x7c, 0xbe, 0x32, 0x60, 0xc9, 0xbe, 0x5b, 0x7c, 0x8d, 0xbe,
  0xd9, 0x5c, 0x17, 0xbe, 0xac, 0x07, 0xdd, 0xbd, 0x37, 0x17, 0xaa, 0xbd,
  0x4b, 0xe6, 0xb0, 0xbd, 0x77, 0xae, 0x83, 0xbc, 0x81, 0x5d, 0x4d, 0x3d,
  0x82, 0x39, 0xa8, 0x3d, 0xfe, 0x77, 0x17, 0x3d, 0x85, 0xeb, 0x4d, 0x3d,
  0xe4, 0x20, 0x81, 0x3e, 0x8e, 0x91, 0x4b, 0x3e, 0x18, 0x7a, 0x88, 0x3e,
  0x1e, 0xb4, 0x8c, 0x3e, 0x7f, 0x80, 0x85, 0x3e, 0x8b, 0xe7, 0x57, 0x3e,
  0xac, 0x2b, 0xa7, 0x3e, 0xd4, 0x26, 0x7c, 0x3e, 0x75, 0x8c, 0x4e, 0x3e,
  0x9f, 0x98, 0x5c, 0x3e, 0x85, 0x86, 0x3a, 0x3e, 0x63, 0xcd, 0x5f, 0x3e,
  0x61, 0xdd, 0xa1, 0x3e, 0x78, 0x42, 0x99, 0x3e, 0xfe, 0xf0, 0x3b, 0x3e,
  0x7a, 0xc9, 0x81, 0x3e, 0xfe, 0x9d, 0x62, 0x3e, 0xf4, 0xf3, 0x86, 0x3e,
  0x24, 0x66, 0x19, 0x3e, 0x8f, 0x03, 0x7d, 0x3e, 0x05, 0xec, 0xf1, 0x3d,
  0x74, 0x2d, 0xdc, 0x3d, 0x4e, 0xdc, 0x57, 0x3e, 0xbf, 0x58, 0x7e, 0x3e,
  0xbe, 0x3c, 0xe5, 0x3d, 0x8c, 0x56, 0x0b, 0x3e, 0x8c, 0x38, 0x6e, 0x3e,
  0xfc, 0x9a, 0x54, 0x3e, 0x03, 0xba, 0x60, 0x3e, 0x6e, 0x6b, 0x50, 0x3e,
  0x60, 0x7a, 0x68, 0x3e, 0xe0, 0xc1, 0xf8, 0x3d, 0x78, 0xfa, 0xca, 0x3d,
  0x1d, 0x26, 0x87, 0x3d, 0xc6, 0x84, 0x11, 0xbd, 0xc2, 0x9d, 0xbc, 0x3d,
  0x9c, 0xcc, 0x06, 0x3d, 0x7b, 0xef, 0x5e, 0x3c, 0x44, 0xa3, 0xd3, 0xbd,
  0xb3, 0x32, 0x96, 0xbd, 0x16, 0x50, 0x10, 0x3d, 0xc4, 0x63, 0x07, 0xbe,
  0xee, 0x53, 0xe1, 0xbc, 0x0b, 0x18, 0x17, 0xbe, 0xb6, 0x54, 0xd9, 0xbd,
  0xea, 0x06, 0x05, 0xbe, 0x5c, 0x3c, 0xd3, 0xbd, 0xa4, 0x84, 0xf0, 0xbd,
  0xa4, 0x6a, 0x0c, 0xbd, 0xc5, 0x81, 0x25, 0xbc, 0xd1, 0x15, 0xb5, 0xbd,
  0x2e, 0x0d, 0x2d, 0xbc, 0xd6, 0xb6, 0x0e, 0xbd, 0x25, 0x63, 0x73, 0x3c,
  0xdc, 0x15, 0x88, 0xbd, 0x22, 0x01, 0x9e, 0xbd, 0x2b, 0xb6, 0x96, 0xbd,
