unsigned char dense_model_tflite[] DATA_ALIGN_ATTRIBUTE= {
  0x1c, 0x00, 0x00, 0x00, 0x54, 0x46, 0x4c, 0x33, 0x14, 0x00, 0x20, 0x00,
  0x1c, 0x00, 0x18, 0x00, 0x14, 0x00, 0x10, 0x00, 0x0c, 0x00, 0x00, 0x00,
  0x08, 0x00, 0x04, 0x00, 0x14, 0x00, 0x00, 0x00, 0x1c, 0x00, 0x00, 0x00,
  0x8c, 0x00, 0x00, 0x00, 0xe4, 0x00, 0x00, 0x00, 0x98, 0x11, 0x00, 0x00,
  0xa8, 0x11, 0x00, 0x00, 0x74, 0x29, 0x00, 0x00, 0x03, 0x00, 0x00, 0x00,
  0x01, 0x00, 0x00, 0x00, 0x04, 0x00, 0x00, 0x00, 0x2e, 0xe9, 0xff, 0xff,
  0x0c, 0x00, 0x00, 0x00, 0x1c, 0x00, 0x00, 0x00, 0x3c, 0x00, 0x00, 0x00,
  0x0f, 0x00, 0x00, 0x00, 0x73, 0x65, 0x72, 0x76, 0x69, 0x6e, 0x67, 0x5f,
  0x64, 0x65, 0x66, 0x61, 0x75, 0x6c, 0x74, 0x00, 0x01, 0x00, 0x00, 0x00,
  0x04, 0x00, 0x00, 0x00, 0x90, 0xff, 0xff, 0xff, 0x2b, 0x00, 0x00, 0x00,
  0x04, 0x00, 0x00, 0x00, 0x08, 0x00, 0x00, 0x00, 0x64, 0x65, 0x6e, 0x73,
  0x65, 0x5f, 0x33, 0x38, 0x00, 0x00, 0x00, 0x00, 0x01, 0x00, 0x00, 0x00,
  0x04, 0x00, 0x00, 0x00, 0x36, 0xe9, 0xff, 0xff, 0x04, 0x00, 0x00, 0x00,
  0x0f, 0x00, 0x00, 0x00, 0x72, 0x65, 0x73, 0x68, 0x61, 0x70, 0x65, 0x5f,
  0x36, 0x5f, 0x69, 0x6e, 0x70, 0x75, 0x74, 0x00, 0x02, 0x00, 0x00, 0x00,
  0x34, 0x00, 0x00, 0x00, 0x04, 0x00, 0x00, 0x00, 0xdc, 0xff, 0xff, 0xff,
  0x2e, 0x00, 0x00, 0x00, 0x04, 0x00, 0x00, 0x00, 0x13, 0x00, 0x00, 0x00,
  0x43, 0x4f, 0x4e, 0x56, 0x45, 0x52, 0x53, 0x49, 0x4f, 0x4e, 0x5f, 0x4d,
  0x45, 0x54, 0x41, 0x44, 0x41, 0x54, 0x41, 0x00, 0x08, 0x00, 0x0c, 0x00,
  0x08, 0x00, 0x04, 0x00, 0x08, 0x00, 0x00, 0x00, 0x2d, 0x00, 0x00, 0x00,
  0x04, 0x00, 0x00, 0x00, 0x13, 0x00, 0x00, 0x00, 0x6d, 0x69, 0x6e, 0x5f,
  0x72, 0x75, 0x6e, 0x74, 0x69, 0x6d, 0x65, 0x5f, 0x76, 0x65, 0x72, 0x73,
  0x69, 0x6f, 0x6e, 0x00, 0x2f, 0x00, 0x00, 0x00, 0xb0, 0x10, 0x00, 0x00,
  0xa8, 0x10, 0x00, 0x00, 0x88, 0x10, 0x00, 0x00, 0x68, 0x10, 0x00, 0x00,
  0x28, 0x10, 0x00, 0x00, 0x14, 0x10, 0x00, 0x00, 0x00, 0x10, 0x00, 0x00,
  0xe8, 0x0f, 0x00, 0x00, 0xd4, 0x0f, 0x00, 0x00, 0xbc, 0x0f, 0x00, 0x00,
  0xa8, 0x0f, 0x00, 0x00, 0x94, 0x0f, 0x00, 0x00, 0x80, 0x0f, 0x00, 0x00,
  0xd0, 0x09, 0x00, 0x00, 0x00, 0x09, 0x00, 0x00, 0x70, 0x01, 0x00, 0x00,
  0x68, 0x01, 0x00, 0x00, 0x60, 0x01, 0x00, 0x00, 0x58, 0x01, 0x00, 0x00,
  0x50, 0x01, 0x00, 0x00, 0x48, 0x01, 0x00, 0x00, 0x40, 0x01, 0x00, 0x00,
  0x38, 0x01, 0x00, 0x00, 0x30, 0x01, 0x00, 0x00, 0x28, 0x01, 0x00, 0x00,
  0x20, 0x01, 0x00, 0x00, 0x18, 0x01, 0x00, 0x00, 0x10, 0x01, 0x00, 0x00,
  0x08, 0x01, 0x00, 0x00, 0x00, 0x01, 0x00, 0x00, 0xf8, 0x00, 0x00, 0x00,
  0xf0, 0x00, 0x00, 0x00, 0xe8, 0x00, 0x00, 0x00, 0xe0, 0x00, 0x00, 0x00,
  0xd8, 0x00, 0x00, 0x00, 0xd0, 0x00, 0x00, 0x00, 0xc8, 0x00, 0x00, 0x00,
  0xc0, 0x00, 0x00, 0x00, 0xb8, 0x00, 0x00, 0x00, 0xb0, 0x00, 0x00, 0x00,
  0xa8, 0x00, 0x00, 0x00, 0xa0, 0x00, 0x00, 0x00, 0x98, 0x00, 0x00, 0x00,
  0x90, 0x00, 0x00, 0x00, 0x88, 0x00, 0x00, 0x00, 0x68, 0x00, 0x00, 0x00,
  0x04, 0x00, 0x00, 0x00, 0x6e, 0xea, 0xff, 0xff, 0x04, 0x00, 0x00, 0x00,
  0x54, 0x00, 0x00, 0x00, 0x0c, 0x00, 0x00, 0x00, 0x08, 0x00, 0x0e, 0x00,
  0x08, 0x00, 0x04, 0x00, 0x08, 0x00, 0x00, 0x00, 0x10, 0x00, 0x00, 0x00,
  0x24, 0x00, 0x00, 0x00, 0x00, 0x00, 0x06, 0x00, 0x08, 0x00, 0x04, 0x00,
  0x06, 0x00, 0x00, 0x00, 0x04, 0x00, 0x00, 0x00, 0x00, 0x00, 0x00, 0x00,
  0x00, 0x00, 0x0a, 0x00, 0x10, 0x00, 0x0c, 0x00, 0x08, 0x00, 0x04, 0x00,
  0x0a, 0x00, 0x00, 0x00, 0x02, 0x00, 0x00, 0x00, 0x02, 0x00, 0x00, 0x00,
  0x04, 0x00, 0x00, 0x00, 0x06, 0x00, 0x00, 0x00, 0x32, 0x2e, 0x31, 0x31,
  0x2e, 0x30, 0x00, 0x00, 0xce, 0xea, 0xff, 0xff, 0x04, 0x00, 0x00, 0x00,
  0x10, 0x00, 0x00, 0x00, 0x31, 0x2e, 0x31, 0x31, 0x2e, 0x30, 0x00, 0x00,
  0x00, 0x00, 0x00, 0x00, 0x00, 0x00, 0x00, 0x00, 0x68, 0xd8, 0xff, 0xff,
  0x6c, 0xd8, 0xff, 0xff, 0x70, 0xd8, 0xff, 0xff, 0x74, 0xd8, 0xff, 0xff,
  0x78, 0xd8, 0xff, 0xff, 0x7c, 0xd8, 0xff, 0xff, 0x80, 0xd8, 0xff, 0xff,
  0x84, 0xd8, 0xff, 0xff, 0x88, 0xd8, 0xff, 0xff, 0x8c, 0xd8, 0xff, 0xff,
  0x90, 0xd8, 0xff, 0xff, 0x94, 0xd8, 0xff, 0xff, 0x98, 0xd8, 0xff, 0xff,
  0x9c, 0xd8, 0xff, 0xff, 0xa0, 0xd8, 0xff, 0xff, 0xa4, 0xd8, 0xff, 0xff,
  0xa8, 0xd8, 0xff, 0xff, 0xac, 0xd8, 0xff, 0xff, 0xb0, 0xd8, 0xff, 0xff,
  0xb4, 0xd8, 0xff, 0xff, 0xb8, 0xd8, 0xff, 0xff, 0xbc, 0xd8, 0xff, 0xff,
  0xc0, 0xd8, 0xff, 0xff, 0xc4, 0xd8, 0xff, 0xff, 0xc8, 0xd8, 0xff, 0xff,
  0xcc, 0xd8, 0xff, 0xff, 0xd0, 0xd8, 0xff, 0xff, 0xd4, 0xd8, 0xff, 0xff,
  0xd8, 0xd8, 0xff, 0xff, 0x5e, 0xeb, 0xff, 0xff, 0x04, 0x00, 0x00, 0x00,
  0x80, 0x07, 0x00, 0x00, 0x5a, 0xd2, 0xb3, 0xbe, 0xf6, 0xc9, 0x60, 0x3e,
  0x7f, 0x0b, 0xb8, 0xbb, 0x09, 0x98, 0xc6, 0xbe, 0xa1, 0x68, 0x20, 0xbf,
  0xf7, 0xbf, 0x90, 0x3e, 0x76, 0x11, 0x52, 0xbe, 0x2c, 0xae, 0x22, 0xbe,
  0xad, 0x16, 0xfb, 0xbe, 0xc5, 0x6c, 0x0b, 0xbd, 0x8d, 0xae, 0x2e, 0x3d,
  0x65, 0x36, 0x2c, 0x3b, 0xad, 0x02, 0xe9, 0xbe, 0x5c, 0xc7, 0x98, 0x3e,
  0x60, 0xe1, 0xbc, 0xbe, 0x5f, 0xa8, 0xef, 0xbd, 0x13, 0xdf, 0x00, 0xbf,
  0x19, 0x05, 0x7d, 0x3e, 0xa3, 0x2a, 0xa2, 0xbe, 0xf4, 0x61, 0xab, 0xbe,
  0x51, 0x73, 0xc3, 0xbe, 0xfb, 0xe1, 0xf2, 0x3b, 0x5c, 0x38, 0x25, 0xbe,
  0x7a, 0x51, 0xa1, 0xbe, 0xc9, 0xe4, 0x08, 0xbf, 0x52, 0x4d, 0x8d, 0x3e,
  0x83, 0x84, 0x22, 0xbe, 0x8f, 0x74, 0x33, 0xbe, 0xbb, 0xb2, 0xac, 0xbe,
  0xcb, 0x21, 0x9f, 0xbc, 0x7e, 0x3c, 0x13, 0x3d, 0xe4, 0xd1, 0x90, 0xbd,
  0x0e, 0xa2, 0xac, 0xbe, 0xb9, 0x2f, 0xbd, 0x3d, 0xb0, 0x22, 0x67, 0xbd,
  0x6a, 0x17, 0x2d, 0xbc, 0x8f, 0x8e, 0xff, 0xbe, 0x66, 0x3b, 0xd7, 0x3d,
  0xcc, 0x2b, 0xde, 0xbd, 0x2b, 0x2e, 0xb3, 0xbd, 0xf9, 0x03, 0xe1, 0xbe,
  0xd2, 0x74, 0xab, 0xbc, 0x75, 0x1b, 0x1e, 0xbe, 0xe5, 0x52, 0xd2, 0xbb,
  0xb5, 0x9e, 0x04, 0xbf, 0xd6, 0xe1, 0xcd, 0x3e, 0xcc, 0x0a, 0x68, 0xbe,
  0x16, 0xee, 0xdd, 0xbd, 0x60, 0x06, 0x1f, 0xbf, 0xc0, 0x34, 0x67, 0x3e,
  0xb3, 0x6b, 0x6d, 0xbe, 0x61, 0x9c, 0x51, 0xbe, 0x28, 0x49, 0x17, 0xbf,
  0xcd, 0xa8, 0xa5, 0x3e, 0xa3, 0x51, 0x5c, 0xbe, 0x5e, 0x68, 0xe9, 0xbd,
  0x36, 0x13, 0x19, 0xbf, 0x19, 0x35, 0x4b, 0x3e, 0xc8, 0x63, 0x8f, 0xbb,
  0xeb, 0xb4, 0xe3, 0xbd, 0xe7, 0x43, 0xbe, 0xbe, 0xa6, 0xe5, 0x8f, 0x3e,
  0xf7, 0xc2, 0xa8, 0xbe, 0x74, 0x59, 0xb1, 0xbe, 0x0f, 0xea, 0xce, 0xbe,
  0x01, 0x1e, 0x15, 0x3e, 0x7c, 0xf0, 0xc2, 0xbd, 0xe8, 0xdc, 0xfb, 0xbd,
  0x83, 0x31, 0xa2, 0xbe, 0x48, 0xe6, 0xcb, 0x3d, 0x24, 0x5c, 0x92, 0xbe,
  0x2d, 0xe5, 0xa6, 0xbe, 0xe2, 0x2c, 0x93, 0xbe, 0x63, 0xe4, 0xf1, 0x3e,
  0xb0, 0xb6, 0xef, 0xbd, 0xed, 0xa1, 0x64, 0xbe, 0x56, 0x91, 0xa9, 0xbe,
  0x53, 0x82, 0x40, 0x3e, 0x4b, 0x6d, 0x4e, 0xbe, 0x61, 0x6b, 0xb4, 0xbe,
  0x81, 0x73, 0xf7, 0xbe, 0x38, 0x7c, 0x43, 0x3e, 0x15, 0x54, 0xac, 0xbe,
  0x8f, 0x4d, 0xba, 0xbe, 0x6b, 0x54, 0x71, 0xbe, 0x11, 0x2e, 0x0c, 0x3e,
  0x64, 0xc9, 0x09, 0xbc, 0xbe, 0xf4, 0x50, 0xbd, 0xf2, 0x3b, 0xea, 0xbe,
  0xaf, 0x33, 0x81, 0x3e, 0x82, 0xd6, 0xcc, 0xbe, 0x6b, 0x67, 0xae, 0xbd,
  0xb9, 0x0f, 0x12, 0xbe, 0x2f, 0x3c, 0x72, 0x3e, 0xd3, 0x82, 0x7c, 0xbe,
  0x20, 0x18, 0x72, 0xbb, 0x6a, 0x78, 0xd0, 0xbe, 0xd1, 0xc9, 0xc3, 0x3e,
  0x0e, 0x6c, 0xad, 0xbe, 0x34, 0xba, 0x9b, 0xbe, 0xc9, 0x2f, 0x03, 0xbf,
  0x63, 0x13, 0xce, 0x3e, 0x4e, 0xf4, 0xb1, 0xbe, 0x32, 0x38, 0x87, 0xbe,
  0x00, 0xeb, 0x33, 0xbe, 0x67, 0xe4, 0x8a, 0x3d, 0xdf, 0x7d, 0x0c, 0xbe,
  0xfe, 0x03, 0x05, 0xbf, 0x0c, 0xba, 0x12, 0xbe, 0xd6, 0x0b, 0xb6, 0x3e,
  0x4c, 0xf6, 0xc2, 0xbe, 0x04, 0x6b, 0xeb, 0xbe, 0x54, 0xad, 0x1b, 0xbe,
  0xfc, 0xbd, 0x9e, 0x3d, 0x89, 0x1b, 0x0f, 0xbf, 0x88, 0x00, 0x3f, 0xbe,
  0xea, 0x21, 0xcb, 0xbe, 0xec, 0x8c, 0x7c, 0x3e, 0xac, 0xa6, 0xd3, 0xbe,
  0x8f, 0xe1, 0x8f, 0xbe, 0x81, 0x65, 0x5a, 0x3e, 0x15, 0x02, 0x77, 0x3e,
  0x92, 0x85, 0x9f, 0x3c, 0xf8, 0xf6, 0x05, 0xbc, 0x55, 0xa2, 0x6c, 0xbe,
  0x36, 0x92, 0x3d, 0x3d, 0xb2, 0x95, 0xbd, 0xbc, 0xa5, 0x3e, 0x31, 0xbb,
  0xe1, 0x0c, 0xe9, 0xbc, 0x9f, 0x43, 0xd2, 0xbd, 0x18, 0xa4, 0xf5, 0x3d,
  0x9b, 0x89, 0xae, 0x3e, 0x46, 0xd9, 0x21, 0x3e, 0x16, 0x9f, 0xbb, 0x3b,
  0x55, 0x7d, 0x22, 0x3e, 0x0a, 0x00, 0xc9, 0x3d, 0x1d, 0xbe, 0x2c, 0xbe,
  0x88, 0x09, 0xea, 0x3c, 0xd6, 0x68, 0x01, 0xbe, 0x7f, 0xe9, 0x29, 0x3e,
  0xe6, 0x0f, 0x60, 0xbd, 0x27, 0x6b, 0xe2, 0xbd, 0x8a, 0x3d, 0x02, 0x3d,
  0x88, 0xca, 0x4f, 0x3e, 0xc2, 0x0e, 0x54, 0x3b, 0xed, 0x1b, 0xc4, 0xbd,
  0x2b, 0x68, 0x42, 0x3e, 0x25, 0xb8, 0xbe, 0x3e, 0xb2, 0xf5, 0x78, 0x3e,
  0xd1, 0xc7, 0x5d, 0xbd, 0x0d, 0x30, 0xd7, 0x3d, 0xf4, 0x45, 0x9f, 0x3e,
  0x90, 0x93, 0x7f, 0x3d, 0x57, 0xc5, 0x10, 0xbe, 0x54, 0x48, 0x56, 0x3e,
  0x90, 0xaa, 0x94, 0x3d, 0x74, 0x0d, 0x4d, 0x3e, 0xb7, 0x7f, 0x58, 0x3d,
  0xd2, 0x97, 0xf4, 0x3c, 0x47, 0xc0, 0x95, 0x3d, 0x97, 0xca, 0xc6, 0xbd,
  0x89, 0x30, 0x23, 0x3e, 0xa2, 0xd6, 0x5f, 0x3d, 0x6b, 0x50, 0x3b, 0x3e,
  0xfc, 0xb4, 0x50, 0xbe, 0xb5, 0x80, 0x13, 0x3e, 0x23, 0xda, 0x18, 0x3e,
  0x02, 0x5e, 0xba, 0x3e, 0x1a, 0x82, 0xd5, 0x3c, 0xfd, 0xe2, 0x48, 0xbd,
  0xa6, 0xc5, 0xbe, 0xbc, 0x41, 0x54, 0x50, 0x3e, 0xc4, 0x31, 0x75, 0x3e,
  0xe9, 0x96, 0x02, 0x3e, 0xa1, 0x92, 0x50, 0x3d, 0x78, 0xfc, 0x9e, 0x3c,
  0x30, 0xb4, 0xbe, 0x3d, 0xf2, 0xcc, 0xad, 0x3d, 0xe9, 0x27, 0x6f, 0xbd,
  0xc7, 0x24, 0x82, 0x3e, 0x5b, 0x77, 0xda, 0xbe, 0xab, 0xd8, 0x82, 0xbe,
  0x7a, 0x1e, 0x8f, 0xbe, 0x8a, 0xb2, 0x19, 0xbe, 0x43, 0xf9, 0x1b, 0xbf,
  0xfb, 0xf2, 0x5e, 0xbe, 0x1c, 0x02, 0xd2, 0xbd, 0xd6, 0x6e, 0xd8, 0xbe,
  0xd5, 0xbe, 0xdd, 0xbe, 0x9a, 0xaa, 0xb5, 0xbe, 0xda, 0xa5, 0xa6, 0xbe,
  0x97, 0x5c, 0x06, 0xbf, 0x9f, 0x40, 0xfe, 0xbe, 0xaa, 0x74, 0xf9, 0xbe,
  0x05, 0x3e, 0xae, 0xbe, 0x29, 0x06, 0x86, 0xbe, 0x69, 0xdf, 0xd8, 0xbe,
  0xa1, 0x51, 0x6d, 0xbe, 0x8c, 0xcf, 0xe5, 0xbe, 0x70, 0xb1, 0xfc, 0xbe,
  0x43, 0xd8, 0xd5, 0xbe, 0xe4, 0x4a, 0xaf, 0xbe, 0x12, 0xde, 0xcc, 0xbe,
  0x99, 0x67, 0x85, 0xbe, 0xee, 0x29, 0x1d, 0xbf, 0xa5, 0xea, 0x32, 0xbe,
  0x95, 0xe0, 0xc7, 0xbe, 0x6a, 0x9e, 0x21, 0xbe, 0x22, 0xaa, 0xa5, 0xbe,
  0x71, 0x9d, 0xea, 0xbe, 0xe4, 0xad, 0xed, 0xbe, 0xb8, 0x2a, 0x0c, 0xbf,
  0xf2, 0xe1, 0x77, 0xbe, 0xd9, 0x7f, 0xc7, 0xbe, 0x4e, 0x06, 0xc4, 0xbe,
  0xe8, 0x06, 0x85, 0xbe, 0x57, 0x58, 0xd7, 0xbe, 0x92, 0x86, 0x9c, 0xbe,
  0x9a, 0x1e, 0x57, 0xbe, 0x9f, 0xe1, 0x7b, 0xbe, 0x31, 0x50, 0x08, 0xbf,
  0x0e, 0x29, 0xd8, 0xbe, 0x9c, 0xfe, 0x99, 0xbd, 0xae, 0x48, 0x58, 0xbe,
  0x00, 0x70, 0xd6, 0xbe, 0x3d, 0x30, 0x05, 0xbf, 0x30, 0x71, 0x00, 0xbe,
  0x03, 0x41, 0xd1, 0xbe, 0xd8, 0x36, 0x0e, 0xbf, 0x42, 0x80, 0x75, 0xbe,
  0xaf, 0xd1, 0xf1, 0xbe, 0xfb, 0x3f, 0x03, 0xbf, 0xda, 0xfb, 0xdb, 0xbe,
  0xcc, 0x24, 0x03, 0xbf, 0x29, 0x58, 0x8e, 0xbe, 0xfc, 0xb7, 0x00, 0xbf,
  0x03, 0x8d, 0x00, 0xbf, 0x40, 0xea, 0xc5, 0xbe, 0x0a, 0x76, 0xe5, 0xbe,
  0x52, 0x16, 0x85, 0xbe, 0x1a, 0x0e, 0x24, 0xbe, 0x40, 0xab, 0x4f, 0xbe,
  0xfa, 0xcb, 0xaa, 0xbe, 0x7d, 0x5c, 0xb1, 0xbd, 0xea, 0xef, 0xba, 0xbd,
  0xe8, 0xda, 0x31, 0x3c, 0x9e, 0x11, 0x25, 0xbe, 0x76, 0x22, 0xb9, 0xbc,
  0xcf, 0x5f, 0x21, 0xbe, 0x00, 0x4d, 0x59, 0xbe, 0xef, 0x06, 0x89, 0xbe,
  0xad, 0x02, 0xf5, 0xbd, 0x45, 0x19, 0xc8, 0x3e, 0x1b, 0xd4, 0xe8, 0xbd,
  0x84, 0x4f, 0x68, 0xbe, 0x20, 0xba, 0x7f, 0x3d, 0xd1, 0x47, 0x36, 0x3e,
  0x3e, 0x07, 0xba, 0xba, 0x70, 0x2d, 0x88, 0xbd, 0x8f, 0xb1, 0x20, 0xbe,
  0xe1, 0x31, 0x36, 0xbd, 0xba, 0x59, 0xaf, 0xbd, 0xae, 0xd9, 0x0d, 0xbc,
  0x15, 0x7b, 0xb3, 0xbd, 0x98, 0xba, 0xc0, 0xbd, 0xdf, 0x04, 0x92, 0xbe,
  0xe8, 0x35, 0x6f, 0x3d, 0x91, 0x07, 0x92, 0x3d, 0x87, 0x8c, 0x8d, 0xbe,
  0x2b, 0xf6, 0x2c, 0xbe, 0x5e, 0xb8, 0x33, 0xbd, 0x12, 0x1c, 0x12, 0xbd,
  0x4d, 0x82, 0xa8, 0xbe, 0xf5, 0xb3, 0xe4, 0xbd, 0x91, 0xc2, 0x8f, 0xbe,
  0x4a, 0xe1, 0x87, 0x3d, 0xdf, 0xbd, 0xa8, 0xbe, 0xc8, 0x05, 0xa4, 0xbe,
  0x3b, 0x13, 0x81, 0xbe, 0xaf, 0xe9, 0x88, 0x3d, 0x7c, 0x5d, 0x26, 0xbd,
  0x6d, 0x96, 0x23, 0xbe, 0xb4, 0x6a, 0x47, 0xbd, 0x79, 0x5e, 0x43, 0xbe,
  0xf9, 0x6e, 0x95, 0xbd, 0xd6, 0xd8, 0x84, 0xbd, 0x03, 0xe9, 0x7f, 0xbc,
  0xd7, 0x55, 0xe5, 0xbd, 0x8e, 0xa3, 0x5b, 0xbe, 0x49, 0x67, 0x48, 0xbe,
  0xed, 0x51, 0x44, 0x3d, 0x4b, 0x8f, 0x5c, 0xbe, 0x7e, 0x52, 0xde, 0xbd,
  0x48, 0xf7, 0xa9, 0xbd, 0xd3, 0x81, 0xf8, 0xbd, 0xe6, 0x14, 0xa9, 0xbe,
  0xa9, 0xf8, 0x9f, 0xbe, 0x33, 0xdb, 0xe1, 0xbd, 0xce, 0x34, 0xe9, 0xbd,
  0x78, 0x7f, 0x81, 0x3d, 0x85, 0xf4, 0xcc, 0x3e, 0x92, 0x0a, 0x68, 0xbd,
  0x6b, 0x92, 0x8d, 0x3e, 0x4b, 0x09, 0xad, 0x3e, 0x1a, 0xd7, 0x3a, 0x3e,
  0x5e, 0x8e, 0x1c, 0x3e, 0x00, 0x9f, 0xba, 0x3e, 0x9c, 0x2c, 0x4d, 0x3e,
  0x88, 0x3f, 0xee, 0x3d, 0x12, 0xba, 0x60, 0x3e, 0xda, 0x3c, 0xc9, 0x3d,
  0xab, 0xff, 0xa6, 0x3d, 0x74, 0x38, 0x77, 0x3e, 0xff, 0x48, 0x61, 0xbd,
  0x9f, 0xeb, 0x7c, 0x3e, 0xf3, 0x1e, 0xf4, 0x3e, 0x2e, 0xe6, 0x93, 0x3e,
  0x01, 0x67, 0xd5, 0x3d, 0x1b, 0x21, 0x5e, 0x3d, 0xc3, 0x9f, 0xf0, 0x3e,
  0x1a, 0xf1, 0x06, 0x3e, 0x62, 0x08, 0x65, 0xbc, 0xc1, 0xe0, 0x67, 0x3e,
  0xa4, 0xc9, 0x89, 0x3e, 0x9d, 0x28, 0xa9, 0x3e, 0xb9, 0xa2, 0x0e, 0x3e,
  0x58, 0xeb, 0x2d, 0x3e, 0x31, 0x9c, 0x99, 0x3e, 0x72, 0xe5, 0x8e, 0x3e,
  0x7e, 0xa5, 0x30, 0x3d, 0xf5, 0xb6, 0xa8, 0x3d, 0x11, 0xd7, 0x85, 0x3e,
  0xf0, 0x3d, 0xb9, 0x3e, 0x2d, 0x24, 0xd1, 0x3d, 0x6a, 0x36, 0xc8, 0x3c,
  0xf5, 0xb6, 0xe9, 0x3e, 0x5e, 0xe4, 0x69, 0x3e, 0x93, 0x06, 0x6e, 0x3e,
  0x1e, 0x45, 0xbc, 0x3e, 0x71, 0x73, 0x9a, 0x3e, 0x87, 0x3b, 0x83, 0x3e,
  0xc3, 0x03, 0xb3, 0x3e, 0x4b, 0x6e, 0xda, 0x3e, 0x16, 0x73, 0xbc, 0x3e,
  0x61, 0x3c, 0x5e, 0x3e, 0x6e, 0x2e, 0xa3, 0x3e, 0xa0, 0x23, 0xb2, 0x3e,
  0xc7, 0xe5, 0x72, 0x3e, 0xc4, 0x9e, 0xb7, 0x3e, 0xf1, 0x51, 0x6f, 0x3e,
  0x25, 0x28, 0x1a, 0x3d, 0xf2, 0xa3, 0x80, 0x3e, 0x06, 0x04, 0x83, 0x3e,
  0x76, 0x0b, 0xe4, 0x3d, 0x79, 0x9f, 0x95, 0x3e, 0x0e, 0x6a, 0xd5, 0x3e,
  0x69, 0x25, 0xea, 0x3e, 0x60, 0x4d, 0x61, 0x3e, 0x12, 0xd0, 0x8e, 0x3d,
  0xfb, 0x5c, 0x14, 0x3e, 0xc0, 0xf4, 0x48, 0x3e, 0xe1, 0x00, 0x12, 0xbe,
  0xac, 0xc1, 0xa7, 0xba, 0xfb, 0x19, 0x2e, 0x3e, 0x72, 0x69, 0x61, 0x3e,
  0xab, 0x5f, 0xc3, 0xbd, 0x3a, 0xd4, 0x87, 0xbd, 0xbb, 0xb5, 0xdd, 0x3d,
  0xc2, 0x6f, 0xf3, 0x3d, 0x17, 0x1e, 0xa5, 0xbe, 0x94, 0x36, 0xfd, 0x3d,
  0xe1, 0x2f, 0x1f, 0x3e, 0x85, 0x9a, 0xff, 0xbd, 0x95, 0xd1, 0xd5, 0x3c,
  0xc3, 0x32, 0x87, 0x3e, 0xf5, 0xd5, 0x03, 0xbe, 0x12, 0x7a, 0xe1, 0x3d,
  0x9a, 0x14, 0xf0, 0xbd, 0x6b, 0x2c, 0xd0, 0x3b, 0x33, 0x8a, 0xa4, 0x3c,
  0x2b, 0xb3, 0x8c, 0x3d, 0x14, 0xa1, 0x5c, 0xbe, 0xd3, 0x55, 0x0d, 0x3e,
  0xb4, 0xce, 0xac, 0xbc, 0x9d, 0x9e, 0xd0, 0x3e, 0xa5, 0xa0, 0x92, 0xbe,
  0xfb, 0x08, 0x82, 0x3e, 0x8b, 0x8d, 0x0f, 0x3e, 0x32, 0xd3, 0x2d, 0x3e,
  0x06, 0x19, 0x2c, 0x3c, 0xde, 0x52, 0x4b, 0x3e, 0x08, 0xdd, 0x8b, 0xbd,
  0xc1, 0xe4, 0x92, 0x3c, 0x3d, 0xf4, 0x33, 0xbc, 0x16, 0x43, 0xef, 0x3d,
  0xef, 0x81, 0x94, 0xbd, 0xc7, 0x61, 0x7c, 0x3e, 0xb0, 0x8f, 0x4e, 0xbe,
  0x46, 0x99, 0x52, 0x3e, 0xbf, 0x81, 0x3b, 0xbe, 0xd2, 0x3a, 0x5c, 0x3e,
  0x3f, 0xfe, 0xc7, 0x3c, 0xff, 0xd1, 0x2b, 0xbc, 0x53, 0x82, 0x2e, 0x3d,
  0x51, 0xdd, 0x00, 0x3e, 0xac, 0xc8, 0x16, 0xbd, 0x47, 0xff, 0x26, 0x3e,
  0xca, 0x16, 0x14, 0x3e, 0xb4, 0x67, 0xc9, 0x3e, 0x67, 0x2f, 0x7a, 0xbe,
  0x27, 0x1d, 0x4f, 0xbb, 0x39, 0x0f, 0xa2, 0xbd, 0xf2, 0xc7, 0xe6, 0x3d,
  0x1e, 0x2d, 0x7d, 0x3c, 0x3a, 0x4c, 0xba, 0xbd, 0x72, 0x1f, 0xdc, 0xbd,
  0xe5, 0x65, 0x05, 0x3e, 0x95, 0x4f, 0xc7, 0x3c, 0xb1, 0x16, 0x74, 0x3e,
  0xa9, 0xd1, 0x2d, 0x3d, 0x14, 0x1a, 0x06, 0x3f, 0x52, 0x7b, 0x52, 0xbe,
  0xc9, 0x7d, 0x60, 0xbc, 0xc6, 0x9a, 0xae, 0x3e, 0x62, 0xee, 0xae, 0x3d,
  0x94, 0x5f, 0x11, 0x3e, 0x7a, 0x63, 0xae, 0x3c, 0xcc, 0xb0, 0xb9, 0xbc,
  0xb5, 0xc3, 0x8c, 0x3e, 0xcd, 0x45, 0x44, 0xbe, 0xc7, 0x58, 0x48, 0x3e,
  0x3a, 0x9c, 0x92, 0xbd, 0xba, 0xa1, 0x23, 0x3e, 0x1d, 0x8b, 0xdd, 0x3d,
  0x85, 0x7d, 0xd0, 0x3e, 0x71, 0x9f, 0x1e, 0x3e, 0x9e, 0x64, 0x02, 0x3e,
  0x73, 0x15, 0x9b, 0xbd, 0xb2, 0x46, 0x82, 0x3e, 0x01, 0x7a, 0x2c, 0xbc,
  0x80, 0x57, 0xb2, 0x3e, 0x57, 0x2f, 0xbc, 0xbd, 0xd6, 0x27, 0x64, 0x3e,
  0x58, 0x4f, 0x82, 0x3e, 0xbb, 0x34, 0xa3, 0x3e, 0xa0, 0xeb, 0x0f, 0xbd,
  0xcb, 0x3c, 0xc1, 0x3d, 0x64, 0x14, 0x5e, 0x3e, 0x71, 0x29, 0x75, 0x3e,
  0x30, 0x73, 0x0d, 0xba, 0x88, 0x48, 0xaa, 0x3e, 0xda, 0x52, 0x0a, 0x3e,
  0x77, 0xaf, 0x71, 0x3e, 0xbe, 0xad, 0x27, 0xbd, 0x97, 0x75, 0xbf, 0x3e,
  0x88, 0x48, 0xbb, 0xbd, 0x90, 0x94, 0xe8, 0x3e, 0x11, 0x3f, 0x76, 0xbe,
  0x2f, 0x13, 0xb8, 0x3e, 0xfa, 0xdf, 0x41, 0x3c, 0x35, 0xdb, 0xde, 0x3e,
  0xd0, 0x36, 0x6b, 0xbd, 0xee, 0x40, 0x35, 0x3e, 0xc1, 0xbf, 0xc7, 0xbd,
  0xe2, 0x26, 0x61, 0x3e, 0x56, 0x85, 0x4c, 0xbc, 0x86, 0x59, 0x44, 0x3b,
  0x0f, 0x2b, 0x90, 0x3e, 0x44, 0x9d, 0xca, 0x3e, 0xde, 0xb6, 0xb0, 0x3d,
  0x10, 0x55, 0xe0, 0xbb, 0xb7, 0x91, 0x10, 0xbe, 0x34, 0x61, 0xd4, 0x3e,
  0xb2, 0xe9, 0x19, 0x3e, 0xd9, 0x57, 0x40, 0x3e, 0xc5, 0x7b, 0x66, 0x3c,
  0x7e, 0x9e, 0xad, 0x3e, 0xd6, 0x9f, 0x35, 0xbd, 0xb3, 0xcf, 0x3b, 0xbd,
  0x25, 0x50, 0x8e, 0x3d, 0xea, 0xf2, 0xff, 0xff, 0x04, 0x00, 0x00, 0x00,
  0xc0, 0x00, 0x00, 0x00, 0xe4, 0xf3, 0xe9, 0xbd, 0x97, 0xd9, 0x76, 0x3e,
  0xbc, 0x6a, 0x07, 0xbe, 0xe4, 0xb2, 0x89, 0x3d, 0x56, 0x5a, 0x8e, 0x3f,
  0xa9, 0xe2, 0xcc, 0xbe, 0xc3, 0x94, 0xe3, 0x3e, 0xd7, 0x36, 0x4f, 0xbe,
  0xfd, 0xed, 0xc8, 0xbe, 0x05, 0x43, 0x16, 0x3f, 0x50, 0x02, 0xa1, 0x3e,
  0xe3, 0x9b, 0xcb, 0x3e, 0xae, 0x63, 0x22, 0x3f, 0xb3, 0x77, 0x6f, 0x3d,
  0xf8, 0x24, 0x5e, 0x3f, 0x76, 0x52, 0xac, 0xbe, 0x83, 0x30, 0x15, 0x3e,
  0x26, 0x5d, 0x37, 0x3f, 0xc2, 0xd3, 0x24, 0x3f, 0x7a, 0xba, 0xb7, 0x3e,
  0x45, 0xf4, 0x09, 0x3e, 0xc1, 0x2d, 0x89, 0x3f, 0xb6, 0xac, 0x15, 0x3f,
  0x64, 0x47, 0xf6, 0xbc, 0xaf, 0xd8, 0x4b, 0x3f, 0xf5, 0x1b, 0xdb, 0xbe,
  0xe9, 0xb9, 0x03, 0x3f, 0xb6, 0x17, 0x13, 0x3f, 0x37, 0x3d, 0x61, 0x3f,
  0xca, 0xc3, 0x81, 0xbe, 0xf0, 0x6e, 0xac, 0x3e, 0x53, 0x3c, 0xcd, 0x3d,
  0x7b, 0x9c, 0x4c, 0x3f, 0xd2, 0xe2, 0xb8, 0xbe, 0x16, 0xff, 0x21, 0x3f,
  0x15, 0xf4, 0x7e, 0x3e, 0xa1, 0xcf, 0xea, 0x3e, 0xcb, 0x7a, 0xe9, 0xbd,
  0x94, 0xf1, 0x90, 0xbd, 0x34, 0x93, 0x68, 0x3f, 0x25, 0x6a, 0x1e, 0xbe,
  0x9a, 0xab, 0x04, 0x3f, 0xfa, 0xe9, 0x2c, 0x3f, 0xcb, 0xa9, 0x80, 0x3f,
  0xea, 0xa5, 0x7f, 0x3f, 0x26, 0x46, 0xd9, 0x3e, 0x16, 0x79, 0x35, 0x3e,
  0xf2, 0x89, 0x73, 0x3f, 0xb6, 0xf3, 0xff, 0xff, 0x04, 0x00, 0x00, 0x00,
  0xa0, 0x05, 0x00, 0x00, 0xbc, 0x87, 0xaf, 0x3d, 0xaa, 0x30, 0xaf, 0x3e,
  0x4a, 0x47, 0xa3, 0x3e, 0xf1, 0x6c, 0xc1, 0x3e, 0xbe, 0x60, 0xd8, 0x3d,
  0xa7, 0x6e, 0x11, 0xbd, 0x98, 0xc3, 0x75, 0x3e, 0xb3, 0x84, 0x44, 0x3d,
  0x7e, 0xef, 0x29, 0x3e, 0x02, 0x18, 0xee, 0xbe, 0x74, 0xf2, 0xac, 0xbe,
  0x49, 0x0b, 0xe0, 0xbe, 0x43, 0x0b, 0x0d, 0xbf, 0x3d, 0x5f, 0xf0, 0xbd,
  0x42, 0x77, 0xb0, 0xbd, 0xc3, 0x32, 0x20, 0xbf, 0x29, 0xcd, 0x1a, 0xbf,
  0x08, 0x40, 0x17, 0xbd, 0xff, 0xe6, 0xf9, 0xbd, 0x36, 0xc0, 0x33, 0xbf,
  0x61, 0x60, 0xfe, 0xbd, 0xb3, 0x94, 0x28, 0xbe, 0x10, 0xf5, 0x63, 0xbe,
  0x82, 0x27, 0x40, 0xbf, 0x59, 0xf6, 0x28, 0xbf, 0x27, 0xc4, 0xde, 0xbe,
  0x11, 0x82, 0x1f, 0xbf, 0x5d, 0x25, 0xf0, 0xbe, 0x75, 0xf1, 0x9a, 0xbe,
  0x9b, 0x64, 0xfc, 0xbd, 0x2d, 0x3f, 0x5d, 0xbe, 0xeb, 0xb6, 0xf1, 0xbd,
  0xfb, 0x83, 0x82, 0x3e, 0xc7, 0x45, 0xb3, 0x3e, 0xa3, 0xa0, 0x4c, 0xbe,
  0x1f, 0xe4, 0x25, 0x3e, 0xc5, 0x77, 0x8a, 0x3e, 0x9e, 0xc9, 0xb0, 0xbe,
  0x46, 0xfb, 0x54, 0x3d, 0x7b, 0x39, 0x99, 0x3d, 0xca, 0xcf, 0x9e, 0x3d,
  0xd8, 0x21, 0x3e, 0xbe, 0xc8, 0x1e, 0xee, 0xbd, 0xbe, 0x0e, 0x56, 0xbe,
  0x3a, 0x54, 0x28, 0x3e, 0x04, 0xac, 0x95, 0xbe, 0xb0, 0xf8, 0x49, 0x3e,
  0xcf, 0x4d, 0x58, 0xbd, 0x83, 0xa9, 0x16, 0x3e, 0x7d, 0xf1, 0x9c, 0xbe,
  0xca, 0x12, 0x26, 0x3e, 0xd9, 0xb5, 0x08, 0xbe, 0x21, 0x7d, 0xab, 0x3e,
  0x41, 0x77, 0x2e, 0xbe, 0xb0, 0x5d, 0xa4, 0xbe, 0x98, 0x94, 0x2e, 0xbd,
  0x6f, 0x69, 0x79, 0x3e, 0x7a, 0x32, 0x31, 0x3e, 0x15, 0xe8, 0x83, 0xbe,
  0xbb, 0x87, 0x91, 0x3e, 0x82, 0xf4, 0xee, 0x3e, 0xc5, 0xcc, 0x81, 0x3e,
  0x64, 0x94, 0xca, 0x3c, 0x5d, 0xee, 0xc7, 0x3e, 0x8a, 0xa9, 0x0d, 0x3f,
  0x5c, 0x25, 0x1d, 0x3e, 0x16, 0x69, 0x00, 0x3e, 0x0a, 0x8c, 0xe5, 0xbd,
  0x31, 0xb2, 0xb1, 0x3e, 0x2a, 0x96, 0xfb, 0xbd, 0x03, 0x40, 0xe3, 0x3e,
  0x5a, 0x4c, 0x04, 0x3f, 0x5a, 0x90, 0x0f, 0x3f, 0x27, 0x7a, 0x2c, 0x3e,
  0xf1, 0x1f, 0x16, 0xbd, 0x79, 0xa7, 0xcf, 0x3e, 0xf3, 0xa7, 0xb1, 0x3e,
  0xe9, 0x8c, 0x30, 0xbd, 0x1f, 0x8f, 0x58, 0x3b, 0x03, 0xe1, 0xc7, 0x3d,
  0xd1, 0xc3, 0x17, 0x3f, 0xfb, 0xf8, 0x99, 0x3e, 0xb2, 0x8a, 0x18, 0x3f,
  0x36, 0x8d, 0xa6, 0x3e, 0x39, 0x5f, 0x1f, 0x3f, 0xa1, 0x7a, 0x12, 0x3d,
  0x3e, 0x71, 0xf2, 0x3e, 0xd6, 0x10, 0x8a, 0x3e, 0x60, 0x7e, 0x8d, 0x3e,
  0xf9, 0x71, 0x0d, 0x3f, 0x11, 0x03, 0x69, 0x3e, 0xfe, 0x64, 0x86, 0x3e,
  0xba, 0x36, 0x85, 0x3e, 0x61, 0x19, 0xdd, 0x3e, 0x66, 0x66, 0xdc, 0x3e,
  0x2e, 0xbf, 0xd6, 0x3d, 0x9d, 0x02, 0x3b, 0xbe, 0x45, 0x3f, 0x7b, 0xbd,
  0x2a, 0xda, 0xeb, 0x3e, 0x30, 0xc7, 0x7b, 0x3e, 0xc1, 0x17, 0xd7, 0x3e,
  0x86, 0x06, 0xaf, 0x3e, 0x00, 0x38, 0x52, 0xbe, 0xdb, 0x7d, 0x79, 0xbe,
  0x8f, 0x9f, 0x5e, 0xbd, 0x6d, 0xc5, 0xff, 0x3d, 0x2c, 0x13, 0x13, 0x3d,
  0xc7, 0x15, 0xde, 0x3e, 0x53, 0x06, 0xe9, 0x3d, 0x61, 0x33, 0xc5, 0x3e,
  0x9a, 0x24, 0xcc, 0x3e, 0xf0, 0x3b, 0xcf, 0x3d, 0x2f, 0x9e, 0xa7, 0x3e,
  0x63, 0x51, 0xb3, 0x3e, 0xbf, 0x7f, 0x14, 0xbe, 0x2c, 0xbb, 0x91, 0xbc,
  0xfe, 0x4e, 0x85, 0xbe, 0xde, 0xd3, 0x72, 0x3e, 0x72, 0xf0, 0xca, 0x3d,
  0x11, 0xe2, 0xb5, 0xbe, 0xe1, 0x52, 0x11, 0x3f, 0x8a, 0x57, 0x44, 0x3e,
  0xf1, 0x19, 0xaa, 0x3e, 0xe7, 0x21, 0x0f, 0xbe, 0xe3, 0x04, 0x03, 0x3f,
  0xd6, 0xaf, 0x35, 0x3c, 0x0b, 0x04, 0xd5, 0x3d, 0x23, 0x9d, 0x08, 0x3f,
  0x60, 0x4f, 0x17, 0x3f, 0xec, 0x3f, 0x83, 0x3e, 0x4a, 0x39, 0xb5, 0x3e,
  0xe1, 0x3d, 0xe2, 0x3e, 0xd1, 0xe4, 0xe6, 0xbc, 0x96, 0x7c, 0x0a, 0x3f,
  0xe1, 0x93, 0x18, 0x3e, 0x43, 0xb2, 0x84, 0x3e, 0x70, 0x15, 0x90, 0x3c,
  0x3d, 0xe5, 0x90, 0x3e, 0x96, 0xdb, 0x8d, 0xbd, 0xc9, 0x8c, 0xa0, 0x3e,
  0x4d, 0x1c, 0x01, 0xbd, 0x5b, 0x13, 0xd4, 0xbd, 0xe1, 0xf6, 0xdc, 0xbd,
  0x31, 0xe9, 0x43, 0x3b, 0x42, 0xb5, 0xac, 0xbd, 0x65, 0x82, 0x72, 0xbe,
  0x2c, 0xf5, 0x0e, 0xbf, 0x70, 0xf9, 0x10, 0xbf, 0x13, 0x88, 0x07, 0xbf,
  0xfb, 0x04, 0x23, 0xbf, 0x6a, 0xd3, 0xed, 0x3e, 0x5f, 0x85, 0xd1, 0xbc,
  0x60, 0xa7, 0x03, 0x3f, 0x8b, 0xd7, 0x01, 0x3f, 0x0b, 0xd0, 0x2a, 0x3d,
  0xd4, 0xca, 0x88, 0x3e, 0x3b, 0x09, 0x14, 0x3d, 0x86, 0x8f, 0xbe, 0x3e,
  0x6c, 0x10, 0x47, 0x3e, 0xa5, 0xe4, 0xa0, 0xbd, 0x1f, 0x30, 0xdd, 0xbd,
  0xec, 0xd3, 0x03, 0x3f, 0x9e, 0x0a, 0x4c, 0x3d, 0xe5, 0x7c, 0x75, 0x3d,
  0x70, 0x0d, 0x10, 0xbe, 0x09, 0xbe, 0x8c, 0x3e, 0xcc, 0x62, 0x93, 0x3c,
  0x11, 0xb8, 0x8c, 0x3e, 0x75, 0x77, 0x80, 0x3e, 0x72, 0x68, 0x05, 0x3e,
  0x18, 0x3c, 0xe5, 0x3e, 0x71, 0xc1, 0xb2, 0x3e, 0xee, 0x72, 0xd0, 0x3e,
  0x51, 0x21, 0xd3, 0x3e, 0x7f, 0x18, 0x27, 0x3e, 0xf8, 0xfd, 0x82, 0x3e,
  0xb0, 0x97, 0x75, 0x3e, 0xfc, 0x45, 0x00, 0x3f, 0x39, 0x7c, 0x8e, 0x3d,
  0xe7, 0xbe, 0xae, 0x3e, 0x5f, 0xd4, 0x4d, 0xbd, 0xf2, 0xe3, 0x8c, 0xbd,
  0x56, 0xa5, 0x45, 0x3e, 0x87, 0xac, 0x88, 0x3e, 0x7d, 0x3c, 0x9d, 0x3e,
  0xfd, 0x72, 0x19, 0x3f, 0xd6, 0xe8, 0x13, 0x3e, 0xe3, 0x2d, 0x23, 0x3e,
  0x7e, 0xc9, 0x11, 0x3f, 0x66, 0xa5, 0xf7, 0x3b, 0x0a, 0x14, 0xd9, 0x3e,
  0x4e, 0x02, 0x1c, 0x3f, 0x2a, 0x05, 0x86, 0x3e, 0xc3, 0x53, 0xa1, 0x3e,
  0x7b, 0xef, 0x63, 0x3e, 0xc7, 0x20, 0xba, 0x3d, 0xde, 0xd5, 0x03, 0x3e,
  0xb8, 0xfb, 0xef, 0x3e, 0xc0, 0xbc, 0xf1, 0x3e, 0xfa, 0x45, 0xe6, 0x3d,
  0xd5, 0xf9, 0xe0, 0x3e, 0x13, 0x71, 0xba, 0x3e, 0x91, 0x8b, 0xfb, 0x3e,
  0x52, 0x98, 0x1c, 0x3f, 0xf9, 0xc3, 0x88, 0x3e, 0x2a, 0x59, 0xbe, 0x3e,
  0x67, 0x98, 0xb3, 0xbd, 0x95, 0x5a, 0x16, 0x3f, 0x41, 0xb8, 0x3e, 0x3d,
  0xbd, 0x4e, 0x34, 0x3d, 0x82, 0x6b, 0x06, 0xbf, 0x32, 0x62, 0x6d, 0xbe,
  0x6f, 0x37, 0x10, 0xbf, 0xfa, 0x1f, 0x09, 0xbf, 0x86, 0xd8, 0x10, 0xbe,
  0xf3, 0x7c, 0x86, 0x3b, 0xde, 0x79, 0x30, 0xbf, 0x5a, 0xf1, 0xc6, 0xbe,
  0x87, 0x13, 0xa3, 0xbe, 0x75, 0x17, 0x07, 0xbf, 0xa3, 0x15, 0x49, 0xbe,
  0x3f, 0xfb, 0x85, 0xbe, 0x31, 0x09, 0x04, 0xbf, 0x08, 0x34, 0xb6, 0xbe,
  0x84, 0xea, 0xbb, 0xbe, 0x8f, 0xe9, 0xc5, 0xbe, 0xeb, 0x8f, 0xb1, 0xbc,
  0xaa, 0xf0, 0x0a, 0x3c, 0xc8, 0x76, 0x08, 0xbf, 0x87, 0x13, 0x2c, 0xbf,
  0xa7, 0x3b, 0x24, 0xbf, 0x5d, 0xd2, 0xa1, 0xbe, 0x40, 0x47, 0x0b, 0xbf,
  0x86, 0x23, 0x32, 0xbe, 0xe1, 0x80, 0xee, 0xbe, 0x8a, 0x71, 0xf8, 0x3b,
  0xb0, 0x59, 0x26, 0xbf, 0xea, 0xd0, 0xe3, 0xbe, 0xa6, 0xd9, 0x24, 0xbf,
  0x28, 0xe7, 0x0b, 0xbf, 0x74, 0x89, 0x03, 0xbf, 0xa1, 0x55, 0xa2, 0xbe,
  0xf2, 0x90, 0x2f, 0xbf, 0x9b, 0xde, 0x7b, 0xbe, 0x12, 0xb3, 0xf7, 0xbe,
  0x78, 0x9f, 0x96, 0xbe, 0x2a, 0x5a, 0x06, 0xbf, 0xa2, 0x3d, 0x49, 0xbf,
  0x60, 0xd1, 0xfe, 0xbe, 0x71, 0x37, 0xfb, 0xbe, 0xcb, 0xe8, 0x17, 0xbf,
  0xeb, 0xfa, 0x3e, 0xbf, 0x5d, 0xb8, 0x09, 0xbf, 0x80, 0x32, 0xb6, 0xbe,
  0xaf, 0x83, 0x26, 0xbf, 0x5b, 0x52, 0x3f, 0xbf, 0x27, 0x49, 0x03, 0xbf,
  0x72, 0xa4, 0xea, 0xbe, 0x82, 0x75, 0x43, 0xbf, 0x1f, 0xf8, 0xdf, 0xbd,
  0xcc, 0x6c, 0x51, 0xbe, 0x73, 0xf2, 0x07, 0xbf, 0xca, 0x7d, 0x44, 0xbe,
  0x65, 0x0e, 0x8f, 0xbe, 0x95, 0x67, 0x89, 0xbe, 0x76, 0xf6, 0x06, 0xbe,
  0x32, 0x91, 0x42, 0xbf, 0x62, 0x65, 0x94, 0xbe, 0x47, 0x1b, 0x4b, 0xbe,
  0x58, 0x34, 0xb0, 0xbe, 0xe7, 0x73, 0xa2, 0x3e, 0x20, 0x4c, 0x35, 0x3f,
  0xbf, 0x5d, 0x35, 0x3e, 0xc3, 0xaa, 0xb1, 0x3e, 0x6e, 0x57, 0x22, 0x3f,
  0x57, 0xe0, 0xc6, 0x3e, 0x67, 0xc1, 0xc2, 0x3e, 0x10, 0x77, 0x1a, 0x3f,
  0x56, 0x8f, 0x88, 0x3e, 0xd8, 0x84, 0x19, 0x3c, 0xdf, 0x03, 0x8e, 0x3e,
  0xcf, 0x84, 0x8d, 0x3e, 0x62, 0x1f, 0x89, 0x3e, 0xb8, 0x0b, 0xbd, 0x3e,
  0x27, 0x69, 0x19, 0x3f, 0xb9, 0xef, 0x0d, 0x3e, 0xf1, 0xbc, 0xd2, 0x3e,
  0x18, 0x7e, 0x74, 0x3d, 0xef, 0x29, 0xef, 0x3e, 0x27, 0xfa, 0x11, 0x3f,
  0x84, 0x20, 0xe1, 0x3e, 0x51, 0x89, 0x30, 0x3e, 0x12, 0xe2, 0x73, 0x3c,
  0xc5, 0x1c, 0x44, 0x3e, 0xa9, 0xb2, 0xe8, 0x3d, 0x81, 0x6d, 0x18, 0x3f,
  0xab, 0x7d, 0x49, 0x3e, 0x51, 0x67, 0x02, 0xbe, 0x06, 0x4f, 0x56, 0x3e,
  0xa2, 0x9d, 0x13, 0x3f, 0x60, 0x2f, 0xba, 0x3e, 0x45, 0x2e, 0xe9, 0x3e,
  0xf4, 0xd1, 0x0e, 0x3f, 0x35, 0x41, 0x01, 0x3f, 0x03, 0x67, 0x21, 0x3f,
  0xcf, 0x5f, 0x03, 0xbd, 0x85, 0xe8, 0xc6, 0xbd, 0x3b, 0x7c, 0xaf, 0x3e,
  0x3d, 0x08, 0x17, 0x3f, 0x1b, 0xad, 0x79, 0x3e, 0x9e, 0x28, 0xc8, 0x3e,
  0x2e, 0xa5, 0xc4, 0x3e, 0xca, 0xb6, 0xe4, 0x3e, 0x4e, 0x14, 0x80, 0x3d,
  0x35, 0x02, 0x1f, 0x3f, 0x0d, 0xe4, 0xbb, 0x3e, 0xae, 0x48, 0x35, 0x3e,
  0xce, 0x0a, 0x04, 0x3f, 0x10, 0x9f, 0x8b, 0x3d, 0x92, 0xa3, 0x4b, 0x3e,
  0xa0, 0x7a, 0xe9, 0x3e, 0x1d, 0x18, 0x13, 0x3e, 0x02, 0xdb, 0x07, 0xbe,
  0x94, 0xe8, 0xb1, 0x3e, 0x5f, 0xb7, 0x1e, 0xbe, 0xfa, 0x88, 0x74, 0xbe,
  0x5f, 0xa0, 0x9a, 0x3d, 0x4b, 0xa0, 0x33, 0x3e, 0x59, 0x6b, 0x81, 0x3e,
  0x89, 0xc1, 0xa8, 0xbd, 0xc2, 0x43, 0x5d, 0xbb, 0x18, 0x5c, 0xc8, 0x3e,
  0x7b, 0x36, 0x6b, 0x3e, 0x0c, 0x6f, 0x34, 0xbe, 0x9b, 0x64, 0xf9, 0x3e,
  0x63, 0xb0, 0x54, 0x3e, 0xa9, 0x06, 0x77, 0xbc, 0x5a, 0x2e, 0x55, 0xbe,
  0x79, 0xa3, 0x23, 0xbc, 0x03, 0x13, 0x54, 0x3e, 0xc2, 0x16, 0x4e, 0xbe,
  0x0f, 0xd3, 0xfa, 0x3e, 0xed, 0xbc, 0x15, 0x3e, 0x28, 0x15, 0x03, 0x3f,
  0xc6, 0xa0, 0xfd, 0x3d, 0x5e, 0xcb, 0xa1, 0x3e, 0x3c, 0x70, 0xd4, 0xbd,
  0xe3, 0xb9, 0xf7, 0x3e, 0xe1, 0xf2, 0xca, 0x3e, 0x40, 0xd3, 0xbb, 0x3e,
  0x7a, 0xb1, 0x82, 0x3d, 0x85, 0x89, 0xa3, 0x3e, 0x6f, 0x41, 0x05, 0x3c,
  0x69, 0x4a, 0x30, 0x3e, 0xfd, 0x96, 0x26, 0x3d, 0x54, 0x48, 0x9c, 0x3e,
  0xd4, 0xa4, 0xa6, 0x3d, 0x3e, 0xa8, 0x18, 0xbe, 0x18, 0xbd, 0xa8, 0x3e,
  0x41, 0x4e, 0x81, 0x3e, 0x62, 0xf9, 0xff, 0xff, 0x04, 0x00, 0x00, 0x00,
  0x04, 0x00, 0x00, 0x00, 0x00, 0x00, 0x00, 0x00, 0x72, 0xf9, 0xff, 0xff,
  0x04, 0x00, 0x00, 0x00, 0x04, 0x00, 0x00, 0x00, 0x0c, 0x00, 0x00, 0x00,
  0x82, 0xf9, 0xff, 0xff, 0x04, 0x00, 0x00, 0x00, 0x04, 0x00, 0x00, 0x00,
  0x02, 0x00, 0x00, 0x00, 0x92, 0xf9, 0xff, 0xff, 0x04, 0x00, 0x00, 0x00,
  0x08, 0x00, 0x00, 0x00, 0x00, 0x00, 0x00, 0x00, 0x01, 0x00, 0x00, 0x00,
  0xa6, 0xf9, 0xff, 0xff, 0x04, 0x00, 0x00, 0x00, 0x04, 0x00, 0x00, 0x00,
  0x04, 0x00, 0x00, 0x00, 0xb6, 0xf9, 0xff, 0xff, 0x04, 0x00, 0x00, 0x00,
  0x08, 0x00, 0x00, 0x00, 0xff, 0xff, 0xff, 0xff, 0x78, 0x00, 0x00, 0x00,
  0xca, 0xf9, 0xff, 0xff, 0x04, 0x00, 0x00, 0x00, 0x04, 0x00, 0x00, 0x00,
  0x1e, 0x00, 0x00, 0x00, 0xda, 0xf9, 0xff, 0xff, 0x04, 0x00, 0x00, 0x00,
  0x04, 0x00, 0x00, 0x00, 0x01, 0x00, 0x00, 0x00, 0xea, 0xf9, 0xff, 0xff,
  0x04, 0x00, 0x00, 0x00, 0x30, 0x00, 0x00, 0x00, 0x79, 0xf9, 0xd8, 0x3c,
  0xf6, 0x8e, 0xc1, 0xbd, 0x48, 0x53, 0x6a, 0x3d, 0x35, 0x4d, 0x9d, 0xbe,
  0x00, 0xef, 0x18, 0xbe, 0xbe, 0xe8, 0x28, 0x3d, 0x32, 0x34, 0x5f, 0xbe,
  0xe0, 0xab, 0x1e, 0x3e, 0xef, 0x0a, 0x4f, 0x3e, 0x54, 0xf3, 0x2f, 0x3b,
  0x80, 0x7d, 0xc4, 0xbd, 0x84, 0xc9, 0xa7, 0xbe, 0x26, 0xfa, 0xff, 0xff,
  0x04, 0x00, 0x00, 0x00, 0x10, 0x00, 0x00, 0x00, 0xff, 0x4e, 0x83, 0xbe,
  0x93, 0x0c, 0x10, 0x3e, 0xd6, 0x61, 0xd3, 0xbd, 0xcc, 0x9c, 0x52, 0xbe,
  0x42, 0xfa, 0xff, 0xff, 0x04, 0x00, 0x00, 0x00, 0x10, 0x00, 0x00, 0x00,
  0x85, 0xe1, 0xae, 0x3e, 0x91, 0xc7, 0x10, 0xbe, 0xd7, 0x9a, 0x86, 0x3c,
  0x47, 0xbd, 0x9c, 0xbe, 0xdc, 0xe7, 0xff, 0xff, 0xe0, 0xe7, 0xff, 0xff,
  0x0f, 0x00, 0x00, 0x00, 0x4d, 0x4c, 0x49, 0x52, 0x20, 0x43, 0x6f, 0x6e,
  0x76, 0x65, 0x72, 0x74, 0x65, 0x64, 0x2e, 0x00, 0x01, 0x00, 0x00, 0x00,
  0x14, 0x00, 0x00, 0x00, 0x00, 0x00, 0x0e, 0x00, 0x18, 0x00, 0x14, 0x00,
  0x10, 0x00, 0x0c, 0x00, 0x08, 0x00, 0x04, 0x00, 0x0e, 0x00, 0x00, 0x00,
  0x14, 0x00, 0x00, 0x00, 0x1c, 0x00, 0x00, 0x00, 0x28, 0x06, 0x00, 0x00,
  0x2c, 0x06, 0x00, 0x00, 0x30, 0x06, 0x00, 0x00, 0x04, 0x00, 0x00, 0x00,
  0x6d, 0x61, 0x69, 0x6e, 0x00, 0x00, 0x00, 0x00, 0x1d, 0x00, 0x00, 0x00,
  0xd8, 0x05, 0x00, 0x00, 0x78, 0x05, 0x00, 0x00, 0x24, 0x05, 0x00, 0x00,
  0xfc, 0x04, 0x00, 0x00, 0xc0, 0x04, 0x00, 0x00, 0x8c, 0x04, 0x00, 0x00,
  0x58, 0x04, 0x00, 0x00, 0x24, 0x04, 0x00, 0x00, 0xf0, 0x03, 0x00, 0x00,
  0xbc, 0x03, 0x00, 0x00, 0x84, 0x03, 0x00, 0x00, 0x5c, 0x03, 0x00, 0x00,
  0x24, 0x03, 0x00, 0x00, 0xfc, 0x02, 0x00, 0x00, 0xc4, 0x02, 0x00, 0x00,
  0x94, 0x02, 0x00, 0x00, 0x60, 0x02, 0x00, 0x00, 0x2c, 0x02, 0x00, 0x00,
  0xf8, 0x01, 0x00, 0x00, 0xc4, 0x01, 0x00, 0x00, 0x90, 0x01, 0x00, 0x00,
  0x58, 0x01, 0x00, 0x00, 0x30, 0x01, 0x00, 0x00, 0xf8, 0x00, 0x00, 0x00,
  0xd0, 0x00, 0x00, 0x00, 0x98, 0x00, 0x00, 0x00, 0x70, 0x00, 0x00, 0x00,
  0x38, 0x00, 0x00, 0x00, 0x04, 0x00, 0x00, 0x00, 0x06, 0xfb, 0xff, 0xff,
  0x14, 0x00, 0x00, 0x00, 0x00, 0x00, 0x00, 0x09, 0x14, 0x00, 0x00, 0x00,
  0x18, 0x00, 0x00, 0x00, 0x09, 0x00, 0x00, 0x00, 0x46, 0xfb, 0xff, 0xff,
  0x00, 0x00, 0x80, 0x3f, 0x01, 0x00, 0x00, 0x00, 0x2b, 0x00, 0x00, 0x00,
  0x01, 0x00, 0x00, 0x00, 0x2a, 0x00, 0x00, 0x00, 0x36, 0xfb, 0xff, 0xff,
  0x14, 0x00, 0x00, 0x00, 0x00, 0x00, 0x00, 0x08, 0x10, 0x00, 0x00, 0x00,
  0x14, 0x00, 0x00, 0x00, 0x07, 0x00, 0x00, 0x00, 0xf4, 0xe8, 0xff, 0xff,
  0x01, 0x00, 0x00, 0x00, 0x2a, 0x00, 0x00, 0x00, 0x03, 0x00, 0x00, 0x00,
  0x29, 0x00, 0x00, 0x00, 0x0e, 0x00, 0x00, 0x00, 0x01, 0x00, 0x00, 0x00,
  0xda, 0xfb, 0xff, 0xff, 0x0c, 0x00, 0x00, 0x00, 0x10, 0x00, 0x00, 0x00,
  0x03, 0x00, 0x00, 0x00, 0x01, 0x00, 0x00, 0x00, 0x29, 0x00, 0x00, 0x00,
  0x02, 0x00, 0x00, 0x00, 0x28, 0x00, 0x00, 0x00, 0x06, 0x00, 0x00, 0x00,
  0x8e, 0xfb, 0xff, 0xff, 0x14, 0x00, 0x00, 0x00, 0x00, 0x00, 0x00, 0x0b,
  0x14, 0x00, 0x00, 0x00, 0x18, 0x00, 0x00, 0x00, 0x08, 0x00, 0x00, 0x00,
  0x26, 0xfb, 0xff, 0xff, 0x00, 0x00, 0x00, 0x01, 0x01, 0x00, 0x00, 0x00,
  0x28, 0x00, 0x00, 0x00, 0x02, 0x00, 0x00, 0x00, 0x27, 0x00, 0x00, 0x00,
  0x02, 0x00, 0x00, 0x00, 0x32, 0xfc, 0xff, 0xff, 0x0c, 0x00, 0x00, 0x00,
  0x10, 0x00, 0x00, 0x00, 0x03, 0x00, 0x00, 0x00, 0x01, 0x00, 0x00, 0x00,
  0x27, 0x00, 0x00, 0x00, 0x02, 0x00, 0x00, 0x00, 0x26, 0x00, 0x00, 0x00,
  0x21, 0x00, 0x00, 0x00, 0xe6, 0xfb, 0xff, 0xff, 0x14, 0x00, 0x00, 0x00,
  0x00, 0x00, 0x00, 0x08, 0x10, 0x00, 0x00, 0x00, 0x14, 0x00, 0x00, 0x00,
  0x07, 0x00, 0x00, 0x00, 0xa4, 0xe9, 0xff, 0xff, 0x01, 0x00, 0x00, 0x00,
  0x26, 0x00, 0x00, 0x00, 0x03, 0x00, 0x00, 0x00, 0x25, 0x00, 0x00, 0x00,
  0x0d, 0x00, 0x00, 0x00, 0xff, 0xff, 0xff, 0xff, 0x8a, 0xfc, 0xff, 0xff,
  0x0c, 0x00, 0x00, 0x00, 0x10, 0x00, 0x00, 0x00, 0x03, 0x00, 0x00, 0x00,
  0x01, 0x00, 0x00, 0x00, 0x25, 0x00, 0x00, 0x00, 0x02, 0x00, 0x00, 0x00,
  0x1d, 0x00, 0x00, 0x00, 0x24, 0x00, 0x00, 0x00, 0x3e, 0xfc, 0xff, 0xff,
  0x14, 0x00, 0x00, 0x00, 0x00, 0x00, 0x00, 0x3b, 0x14, 0x00, 0x00, 0x00,
  0x18, 0x00, 0x00, 0x00, 0x02, 0x00, 0x00, 0x00, 0x7e, 0xfc, 0xff, 0xff,
  0x02, 0x00, 0x00, 0x00, 0x01, 0x00, 0x00, 0x00, 0x24, 0x00, 0x00, 0x00,
  0x02, 0x00, 0x00, 0x00, 0x20, 0x00, 0x00, 0x00, 0x23, 0x00, 0x00, 0x00,
  0x72, 0xfc, 0xff, 0xff, 0x14, 0x00, 0x00, 0x00, 0x00, 0x00, 0x00, 0x1b,
  0x10, 0x00, 0x00, 0x00, 0x14, 0x00, 0x00, 0x00, 0x05, 0x00, 0x00, 0x00,
  0x30, 0xea, 0xff, 0xff, 0x01, 0x00, 0x00, 0x00, 0x23, 0x00, 0x00, 0x00,
  0x02, 0x00, 0x00, 0x00, 0x22, 0x00, 0x00, 0x00, 0x0b, 0x00, 0x00, 0x00,
  0xa2, 0xfc, 0xff, 0xff, 0x14, 0x00, 0x00, 0x00, 0x00, 0x00, 0x00, 0x17,
  0x10, 0x00, 0x00, 0x00, 0x14, 0x00, 0x00, 0x00, 0x04, 0x00, 0x00, 0x00,
  0x60, 0xea, 0xff, 0xff, 0x01, 0x00, 0x00, 0x00, 0x22, 0x00, 0x00, 0x00,
  0x02, 0x00, 0x00, 0x00, 0x1e, 0x00, 0x00, 0x00, 0x09, 0x00, 0x00, 0x00,
  0xd2, 0xfc, 0xff, 0xff, 0x14, 0x00, 0x00, 0x00, 0x00, 0x00, 0x00, 0x0a,
  0x10, 0x00, 0x00, 0x00, 0x14, 0x00, 0x00, 0x00, 0x06, 0x00, 0x00, 0x00,
  0x90, 0xea, 0xff, 0xff, 0x01, 0x00, 0x00, 0x00, 0x21, 0x00, 0x00, 0x00,
  0x02, 0x00, 0x00, 0x00, 0x1f, 0x00, 0x00, 0x00, 0x07, 0x00, 0x00, 0x00,
  0x02, 0xfd, 0xff, 0xff, 0x14, 0x00, 0x00, 0x00, 0x00, 0x00, 0x00, 0x1b,
  0x10, 0x00, 0x00, 0x00, 0x14, 0x00, 0x00, 0x00, 0x05, 0x00, 0x00, 0x00,
  0xc0, 0xea, 0xff, 0xff, 0x01, 0x00, 0x00, 0x00, 0x20, 0x00, 0x00, 0x00,
  0x02, 0x00, 0x00, 0x00, 0x1f, 0x00, 0x00, 0x00, 0x0b, 0x00, 0x00, 0x00,
  0x32, 0xfd, 0xff, 0xff, 0x14, 0x00, 0x00, 0x00, 0x00, 0x00, 0x00, 0x17,
  0x10, 0x00, 0x00, 0x00, 0x14, 0x00, 0x00, 0x00, 0x04, 0x00, 0x00, 0x00,
  0xf0, 0xea, 0xff, 0xff, 0x01, 0x00, 0x00, 0x00, 0x1f, 0x00, 0x00, 0x00,
  0x02, 0x00, 0x00, 0x00, 0x1e, 0x00, 0x00, 0x00, 0x08, 0x00, 0x00, 0x00,
  0x06, 0xfd, 0xff, 0xff, 0x10, 0x00, 0x00, 0x00, 0x00, 0x00, 0x00, 0x37,
  0x10, 0x00, 0x00, 0x00, 0x14, 0x00, 0x00, 0x00, 0xf6, 0xfc, 0xff, 0xff,
  0x00, 0x00, 0x00, 0x02, 0x01, 0x00, 0x00, 0x00, 0x1e, 0x00, 0x00, 0x00,
  0x01, 0x00, 0x00, 0x00, 0x1d, 0x00, 0x00, 0x00, 0x8e, 0xfd, 0xff, 0xff,
  0x14, 0x00, 0x00, 0x00, 0x00, 0x00, 0x00, 0x0b, 0x14, 0x00, 0x00, 0x00,
  0x18, 0x00, 0x00, 0x00, 0x08, 0x00, 0x00, 0x00, 0x26, 0xfd, 0xff, 0xff,
  0x00, 0x00, 0x00, 0x01, 0x01, 0x00, 0x00, 0x00, 0x1d, 0x00, 0x00, 0x00,
  0x02, 0x00, 0x00, 0x00, 0x1c, 0x00, 0x00, 0x00, 0x03, 0x00, 0x00, 0x00,
  0x32, 0xfe, 0xff, 0xff, 0x0c, 0x00, 0x00, 0x00, 0x10, 0x00, 0x00, 0x00,
  0x03, 0x00, 0x00, 0x00, 0x01, 0x00, 0x00, 0x00, 0x1c, 0x00, 0x00, 0x00,
  0x02, 0x00, 0x00, 0x00, 0x1b, 0x00, 0x00, 0x00, 0x16, 0x00, 0x00, 0x00,
  0xe6, 0xfd, 0xff, 0xff, 0x14, 0x00, 0x00, 0x00, 0x00, 0x00, 0x00, 0x08,
  0x10, 0x00, 0x00, 0x00, 0x14, 0x00, 0x00, 0x00, 0x07, 0x00, 0x00, 0x00,
  0xa4, 0xeb, 0xff, 0xff, 0x01, 0x00, 0x00, 0x00, 0x1b, 0x00, 0x00, 0x00,
  0x03, 0x00, 0x00, 0x00, 0x1a, 0x00, 0x00, 0x00, 0x0c, 0x00, 0x00, 0x00,
  0xff, 0xff, 0xff, 0xff, 0x8a, 0xfe, 0xff, 0xff, 0x0c, 0x00, 0x00, 0x00,
  0x10, 0x00, 0x00, 0x00, 0x03, 0x00, 0x00, 0x00, 0x01, 0x00, 0x00, 0x00,
  0x1a, 0x00, 0x00, 0x00, 0x02, 0x00, 0x00, 0x00, 0x00, 0x00, 0x00, 0x00,
  0x19, 0x00, 0x00, 0x00, 0x3e, 0xfe, 0xff, 0xff, 0x14, 0x00, 0x00, 0x00,
  0x00, 0x00, 0x00, 0x3b, 0x14, 0x00, 0x00, 0x00, 0x18, 0x00, 0x00, 0x00,
  0x02, 0x00, 0x00, 0x00, 0x7e, 0xfe, 0xff, 0xff, 0x02, 0x00, 0x00, 0x00,
  0x01, 0x00, 0x00, 0x00, 0x19, 0x00, 0x00, 0x00, 0x02, 0x00, 0x00, 0x00,
  0x15, 0x00, 0x00, 0x00, 0x18, 0x00, 0x00, 0x00, 0x72, 0xfe, 0xff, 0xff,
  0x14, 0x00, 0x00, 0x00, 0x00, 0x00, 0x00, 0x1b, 0x10, 0x00, 0x00, 0x00,
  0x14, 0x00, 0x00, 0x00, 0x05, 0x00, 0x00, 0x00, 0x30, 0xec, 0xff, 0xff,
  0x01, 0x00, 0x00, 0x00, 0x18, 0x00, 0x00, 0x00, 0x02, 0x00, 0x00, 0x00,
  0x17, 0x00, 0x00, 0x00, 0x0b, 0x00, 0x00, 0x00, 0xa2, 0xfe, 0xff, 0xff,
  0x14, 0x00, 0x00, 0x00, 0x00, 0x00, 0x00, 0x17, 0x10, 0x00, 0x00, 0x00,
  0x14, 0x00, 0x00, 0x00, 0x04, 0x00, 0x00, 0x00, 0x60, 0xec, 0xff, 0xff,
  0x01, 0x00, 0x00, 0x00, 0x17, 0x00, 0x00, 0x00, 0x02, 0x00, 0x00, 0x00,
  0x13, 0x00, 0x00, 0x00, 0x09, 0x00, 0x00, 0x00, 0xd2, 0xfe, 0xff, 0xff,
  0x14, 0x00, 0x00, 0x00, 0x00, 0x00, 0x00, 0x0a, 0x10, 0x00, 0x00, 0x00,
  0x14, 0x00, 0x00, 0x00, 0x06, 0x00, 0x00, 0x00, 0x90, 0xec, 0xff, 0xff,
  0x01, 0x00, 0x00, 0x00, 0x16, 0x00, 0x00, 0x00, 0x02, 0x00, 0x00, 0x00,
  0x14, 0x00, 0x00, 0x00, 0x0a, 0x00, 0x00, 0x00, 0x02, 0xff, 0xff, 0xff,
  0x14, 0x00, 0x00, 0x00, 0x00, 0x00, 0x00, 0x1b, 0x10, 0x00, 0x00, 0x00,
  0x14, 0x00, 0x00, 0x00, 0x05, 0x00, 0x00, 0x00, 0xc0, 0xec, 0xff, 0xff,
  0x01, 0x00, 0x00, 0x00, 0x15, 0x00, 0x00, 0x00, 0x02, 0x00, 0x00, 0x00,
  0x14, 0x00, 0x00, 0x00, 0x0b, 0x00, 0x00, 0x00, 0x32, 0xff, 0xff, 0xff,
  0x14, 0x00, 0x00, 0x00, 0x00, 0x00, 0x00, 0x17, 0x10, 0x00, 0x00, 0x00,
  0x14, 0x00, 0x00, 0x00, 0x04, 0x00, 0x00, 0x00, 0xf0, 0xec, 0xff, 0xff,
  0x01, 0x00, 0x00, 0x00, 0x14, 0x00, 0x00, 0x00, 0x02, 0x00, 0x00, 0x00,
  0x13, 0x00, 0x00, 0x00, 0x08, 0x00, 0x00, 0x00, 0x06, 0xff, 0xff, 0xff,
  0x10, 0x00, 0x00, 0x00, 0x00, 0x00, 0x00, 0x37, 0x10, 0x00, 0x00, 0x00,
  0x14, 0x00, 0x00, 0x00, 0xf6, 0xfe, 0xff, 0xff, 0x00, 0x00, 0x00, 0x02,
  0x01, 0x00, 0x00, 0x00, 0x13, 0x00, 0x00, 0x00, 0x01, 0x00, 0x00, 0x00,
  0x12, 0x00, 0x00, 0x00, 0x00, 0x00, 0x0a, 0x00, 0x10, 0x00, 0x0c, 0x00,
  0x08, 0x00, 0x04, 0x00, 0x0a, 0x00, 0x00, 0x00, 0x0c, 0x00, 0x00, 0x00,
  0x10, 0x00, 0x00, 0x00, 0x03, 0x00, 0x00, 0x00, 0x01, 0x00, 0x00, 0x00,
  0x12, 0x00, 0x00, 0x00, 0x02, 0x00, 0x00, 0x00, 0x00, 0x00, 0x00, 0x00,
  0x11, 0x00, 0x00, 0x00, 0xbe, 0xff, 0xff, 0xff, 0x1c, 0x00, 0x00, 0x00,
  0x00, 0x00, 0x00, 0x3b, 0x1c, 0x00, 0x00, 0x00, 0x20, 0x00, 0x00, 0x00,
  0x02, 0x00, 0x00, 0x00, 0x00, 0x00, 0x06, 0x00, 0x08, 0x00, 0x04, 0x00,
  0x06, 0x00, 0x00, 0x00, 0x03, 0x00, 0x00, 0x00, 0x01, 0x00, 0x00, 0x00,
  0x11, 0x00, 0x00, 0x00, 0x03, 0x00, 0x00, 0x00, 0x10, 0x00, 0x00, 0x00,
  0x05, 0x00, 0x00, 0x00, 0x05, 0x00, 0x00, 0x00, 0x00, 0x00, 0x0e, 0x00,
  0x1a, 0x00, 0x14, 0x00, 0x10, 0x00, 0x0c, 0x00, 0x0b, 0x00, 0x04, 0x00,
  0x0e, 0x00, 0x00, 0x00, 0x24, 0x00, 0x00, 0x00, 0x00, 0x00, 0x00, 0x20,
  0x24, 0x00, 0x00, 0x00, 0x28, 0x00, 0x00, 0x00, 0x01, 0x00, 0x00, 0x00,
  0x00, 0x00, 0x0e, 0x00, 0x08, 0x00, 0x00, 0x00, 0x00, 0x00, 0x00, 0x00,
  0x00, 0x00, 0x04, 0x00, 0x0e, 0x00, 0x00, 0x00, 0x01, 0x00, 0x00, 0x00,
  0x01, 0x00, 0x00, 0x00, 0x10, 0x00, 0x00, 0x00, 0x04, 0x00, 0x00, 0x00,
  0x0f, 0x00, 0x00, 0x00, 0x0b, 0x00, 0x00, 0x00, 0x04, 0x00, 0x00, 0x00,
  0x04, 0x00, 0x00, 0x00, 0x00, 0x00, 0x0e, 0x00, 0x16, 0x00, 0x00, 0x00,
  0x10, 0x00, 0x0c, 0x00, 0x0b, 0x00, 0x04, 0x00, 0x0e, 0x00, 0x00, 0x00,
  0x18, 0x00, 0x00, 0x00, 0x00, 0x00, 0x00, 0x37, 0x18, 0x00, 0x00, 0x00,
  0x1c, 0x00, 0x00, 0x00, 0x00, 0x00, 0x06, 0x00, 0x08, 0x00, 0x07, 0x00,
  0x06, 0x00, 0x00, 0x00, 0x00, 0x00, 0x00, 0x02, 0x01, 0x00, 0x00, 0x00,
  0x0f, 0x00, 0x00, 0x00, 0x01, 0x00, 0x00, 0x00, 0x00, 0x00, 0x00, 0x00,
  0x01, 0x00, 0x00, 0x00, 0x2b, 0x00, 0x00, 0x00, 0x01, 0x00, 0x00, 0x00,
  0x00, 0x00, 0x00, 0x00, 0x2c, 0x00, 0x00, 0x00, 0x10, 0x11, 0x00, 0x00,
  0x9c, 0x10, 0x00, 0x00, 0x28, 0x10, 0x00, 0x00, 0xcc, 0x0f, 0x00, 0x00,
  0x6c, 0x0f, 0x00, 0x00, 0x00, 0x0f, 0x00, 0x00, 0xb0, 0x0e, 0x00, 0x00,
  0x54, 0x0e, 0x00, 0x00, 0xfc, 0x0d, 0x00, 0x00, 0xa4, 0x0d, 0x00, 0x00,
  0x48, 0x0d, 0x00, 0x00, 0xf0, 0x0c, 0x00, 0x00, 0x94, 0x0c, 0x00, 0x00,
  0x3c, 0x0c, 0x00, 0x00, 0xec, 0x0b, 0x00, 0x00, 0x9c, 0x0b, 0x00, 0x00,
  0x48, 0x0b, 0x00, 0x00, 0xf0, 0x0a, 0x00, 0x00, 0x88, 0x0a, 0x00, 0x00,
  0x30, 0x0a, 0x00, 0x00, 0xa4, 0x09, 0x00, 0x00, 0x50, 0x09, 0x00, 0x00,
  0xf4, 0x08, 0x00, 0x00, 0x68, 0x08, 0x00, 0x00, 0x14, 0x08, 0x00, 0x00,
  0xbc, 0x07, 0x00, 0x00, 0x30, 0x07, 0x00, 0x00, 0xc4, 0x06, 0x00, 0x00,
  0x58, 0x06, 0x00, 0x00, 0xd4, 0x05, 0x00, 0x00, 0x7c, 0x05, 0x00, 0x00,
  0xf0, 0x04, 0x00, 0x00, 0x9c, 0x04, 0x00, 0x00, 0x40, 0x04, 0x00, 0x00,
  0xb4, 0x03, 0x00, 0x00, 0x60, 0x03, 0x00, 0x00, 0x08, 0x03, 0x00, 0x00,
  0x9c, 0x02, 0x00, 0x00, 0x30, 0x02, 0x00, 0x00, 0xc4, 0x01, 0x00, 0x00,
  0x40, 0x01, 0x00, 0x00, 0xe0, 0x00, 0x00, 0x00, 0x60, 0x00, 0x00, 0x00,
  0x04, 0x00, 0x00, 0x00, 0xb6, 0xef, 0xff, 0xff, 0x00, 0x00, 0x00, 0x01,
  0x14, 0x00, 0x00, 0x00, 0x1c, 0x00, 0x00, 0x00, 0x1c, 0x00, 0x00, 0x00,
  0x2c, 0x00, 0x00, 0x00, 0x34, 0x00, 0x00, 0x00, 0x02, 0x00, 0x00, 0x00,
  0xff, 0xff, 0xff, 0xff, 0x04, 0x00, 0x00, 0x00, 0x30, 0xef, 0xff, 0xff,
  0x19, 0x00, 0x00, 0x00, 0x53, 0x74, 0x61, 0x74, 0x65, 0x66, 0x75, 0x6c,
  0x50, 0x61, 0x72, 0x74, 0x69, 0x74, 0x69, 0x6f, 0x6e, 0x65, 0x64, 0x43,
  0x61, 0x6c, 0x6c, 0x3a, 0x30, 0x00, 0x00, 0x00, 0x02, 0x00, 0x00, 0x00,
  0x01, 0x00, 0x00, 0x00, 0x04, 0x00, 0x00, 0x00, 0x0e, 0xf0, 0xff, 0xff,
  0x00, 0x00, 0x00, 0x01, 0x14, 0x00, 0x00, 0x00, 0x1c, 0x00, 0x00, 0x00,
  0x1c, 0x00, 0x00, 0x00, 0x2b, 0x00, 0x00, 0x00, 0x58, 0x00, 0x00, 0x00,
  0x02, 0x00, 0x00, 0x00, 0xff, 0xff, 0xff, 0xff, 0x04, 0x00, 0x00, 0x00,
  0x88, 0xef, 0xff, 0xff, 0x3c, 0x00, 0x00, 0x00, 0x73, 0x65, 0x71, 0x75,
  0x65, 0x6e, 0x74, 0x69, 0x61, 0x6c, 0x5f, 0x31, 0x32, 0x2f, 0x64, 0x65,
  0x6e, 0x73, 0x65, 0x5f, 0x33, 0x38, 0x2f, 0x4d, 0x61, 0x74, 0x4d, 0x75,
  0x6c, 0x3b, 0x73, 0x65, 0x71, 0x75, 0x65, 0x6e, 0x74, 0x69, 0x61, 0x6c,
  0x5f, 0x31, 0x32, 0x2f, 0x64, 0x65, 0x6e, 0x73, 0x65, 0x5f, 0x33, 0x38,
  0x2f, 0x42, 0x69, 0x61, 0x73, 0x41, 0x64, 0x64, 0x00, 0x00, 0x00, 0x00,
  0x02, 0x00, 0x00, 0x00, 0x01, 0x00, 0x00, 0x00, 0x04, 0x00, 0x00, 0x00,
  0x8a, 0xf0, 0xff, 0xff, 0x00, 0x00, 0x00, 0x01, 0x14, 0x00, 0x00, 0x00,
  0x1c, 0x00, 0x00, 0x00, 0x1c, 0x00, 0x00, 0x00, 0x2a, 0x00, 0x00, 0x00,
  0x38, 0x00, 0x00, 0x00, 0x02, 0x00, 0x00, 0x00, 0xff, 0xff, 0xff, 0xff,
  0x78, 0x00, 0x00, 0x00, 0x04, 0xf0, 0xff, 0xff, 0x1f, 0x00, 0x00, 0x00,
  0x73, 0x65, 0x71, 0x75, 0x65, 0x6e, 0x74, 0x69, 0x61, 0x6c, 0x5f, 0x31,
  0x32, 0x2f, 0x66, 0x6c, 0x61, 0x74, 0x74, 0x65, 0x6e, 0x5f, 0x34, 0x2f,
  0x52, 0x65, 0x73, 0x68, 0x61, 0x70, 0x65, 0x00, 0x02, 0x00, 0x00, 0x00,
  0x01, 0x00, 0x00, 0x00, 0x78, 0x00, 0x00, 0x00, 0xe6, 0xf0, 0xff, 0xff,
  0x00, 0x00, 0x00, 0x01, 0x14, 0x00, 0x00, 0x00, 0x20, 0x00, 0x00, 0x00,
  0x20, 0x00, 0x00, 0x00, 0x29, 0x00, 0x00, 0x00, 0x58, 0x00, 0x00, 0x00,
  0x03, 0x00, 0x00, 0x00, 0xff, 0xff, 0xff, 0xff, 0xff, 0xff, 0xff, 0xff,
  0x04, 0x00, 0x00, 0x00, 0x64, 0xf0, 0xff, 0xff, 0x3a, 0x00, 0x00, 0x00,
  0x73, 0x65, 0x71, 0x75, 0x65, 0x6e, 0x74, 0x69, 0x61, 0x6c, 0x5f, 0x31,
  0x32, 0x2f, 0x64, 0x65, 0x6e, 0x73, 0x65, 0x5f, 0x33, 0x37, 0x2f, 0x52,
  0x65, 0x6c, 0x75, 0x3b, 0x73, 0x65, 0x71, 0x75, 0x65, 0x6e, 0x74, 0x69,
  0x61, 0x6c, 0x5f, 0x31, 0x32, 0x2f, 0x64, 0x65, 0x6e, 0x73, 0x65, 0x5f,
  0x33, 0x37, 0x2f, 0x42, 0x69, 0x61, 0x73, 0x41, 0x64, 0x64, 0x00, 0x00,
  0x03, 0x00, 0x00, 0x00, 0x01, 0x00, 0x00, 0x00, 0x01, 0x00, 0x00, 0x00,
  0x04, 0x00, 0x00, 0x00, 0x66, 0xf1, 0xff, 0xff, 0x00, 0x00, 0x00, 0x01,
  0x14, 0x00, 0x00, 0x00, 0x20, 0x00, 0x00, 0x00, 0x20, 0x00, 0x00, 0x00,
  0x28, 0x00, 0x00, 0x00, 0x40, 0x00, 0x00, 0x00, 0x03, 0x00, 0x00, 0x00,
  0xff, 0xff, 0xff, 0xff, 0xff, 0xff, 0xff, 0xff, 0xff, 0xff, 0xff, 0xff,
  0xe4, 0xf0, 0xff, 0xff, 0x20, 0x00, 0x00, 0x00, 0x73, 0x65, 0x71, 0x75,
  0x65, 0x6e, 0x74, 0x69, 0x61, 0x6c, 0x5f, 0x31, 0x32, 0x2f, 0x64, 0x65,
  0x6e, 0x73, 0x65, 0x5f, 0x33, 0x37, 0x2f, 0x54, 0x65, 0x6e, 0x73, 0x6f,
  0x72, 0x64, 0x6f, 0x74, 0x00, 0x00, 0x00, 0x00, 0x03, 0x00, 0x00, 0x00,
  0x01, 0x00, 0x00, 0x00, 0x01, 0x00, 0x00, 0x00, 0x01, 0x00, 0x00, 0x00,
  0xce, 0xf1, 0xff, 0xff, 0x00, 0x00, 0x00, 0x01, 0x14, 0x00, 0x00, 0x00,
  0x1c, 0x00, 0x00, 0x00, 0x1c, 0x00, 0x00, 0x00, 0x27, 0x00, 0x00, 0x00,
  0x44, 0x00, 0x00, 0x00, 0x02, 0x00, 0x00, 0x00, 0xff, 0xff, 0xff, 0xff,
  0x04, 0x00, 0x00, 0x00, 0x48, 0xf1, 0xff, 0xff, 0x28, 0x00, 0x00, 0x00,
  0x73, 0x65, 0x71, 0x75, 0x65, 0x6e, 0x74, 0x69, 0x61, 0x6c, 0x5f, 0x31,
  0x32, 0x2f, 0x64, 0x65, 0x6e, 0x73, 0x65, 0x5f, 0x33, 0x37, 0x2f, 0x54,
  0x65, 0x6e, 0x73, 0x6f, 0x72, 0x64, 0x6f, 0x74, 0x2f, 0x4d, 0x61, 0x74,
  0x4d, 0x75, 0x6c, 0x31, 0x00, 0x00, 0x00, 0x00, 0x02, 0x00, 0x00, 0x00,
  0x01, 0x00, 0x00, 0x00, 0x04, 0x00, 0x00, 0x00, 0x36, 0xf2, 0xff, 0xff,
  0x00, 0x00, 0x00, 0x01, 0x14, 0x00, 0x00, 0x00, 0x1c, 0x00, 0x00, 0x00,
  0x1c, 0x00, 0x00, 0x00, 0x26, 0x00, 0x00, 0x00, 0x44, 0x00, 0x00, 0x00,
  0x02, 0x00, 0x00, 0x00, 0xff, 0xff, 0xff, 0xff, 0xff, 0xff, 0xff, 0xff,
  0xb0, 0xf1, 0xff, 0xff, 0x28, 0x00, 0x00, 0x00, 0x73, 0x65, 0x71, 0x75,
  0x65, 0x6e, 0x74, 0x69, 0x61, 0x6c, 0x5f, 0x31, 0x32, 0x2f, 0x64, 0x65,
  0x6e, 0x73, 0x65, 0x5f, 0x33, 0x37, 0x2f, 0x54, 0x65, 0x6e, 0x73, 0x6f,
  0x72, 0x64, 0x6f, 0x74, 0x2f, 0x52, 0x65, 0x73, 0x68, 0x61, 0x70, 0x65,
  0x00, 0x00, 0x00, 0x00, 0x02, 0x00, 0x00, 0x00, 0x01, 0x00, 0x00, 0x00,
  0x01, 0x00, 0x00, 0x00, 0x32, 0xf4, 0xff, 0xff, 0x00, 0x00, 0x00, 0x01,
  0x14, 0x00, 0x00, 0x00, 0x14, 0x00, 0x00, 0x00, 0x25, 0x00, 0x00, 0x00,
  0x00, 0x00, 0x00, 0x02, 0x34, 0x00, 0x00, 0x00, 0x0c, 0xf2, 0xff, 0xff,
  0x26, 0x00, 0x00, 0x00, 0x73, 0x65, 0x71, 0x75, 0x65, 0x6e, 0x74, 0x69,
  0x61, 0x6c, 0x5f, 0x31, 0x32, 0x2f, 0x64, 0x65, 0x6e, 0x73, 0x65, 0x5f,
  0x33, 0x37, 0x2f, 0x54, 0x65, 0x6e, 0x73, 0x6f, 0x72, 0x64, 0x6f, 0x74,
  0x2f, 0x73, 0x74, 0x61, 0x63, 0x6b, 0x00, 0x00, 0x01, 0x00, 0x00, 0x00,
  0x02, 0x00, 0x00, 0x00, 0x86, 0xf4, 0xff, 0xff, 0x00, 0x00, 0x00, 0x01,
  0x14, 0x00, 0x00, 0x00, 0x14, 0x00, 0x00, 0x00, 0x24, 0x00, 0x00, 0x00,
  0x00, 0x00, 0x00, 0x02, 0x34, 0x00, 0x00, 0x00, 0x60, 0xf2, 0xff, 0xff,
  0x27, 0x00, 0x00, 0x00, 0x73, 0x65, 0x71, 0x75, 0x65, 0x6e, 0x74, 0x69,
  0x61, 0x6c, 0x5f, 0x31, 0x32, 0x2f, 0x64, 0x65, 0x6e, 0x73, 0x65, 0x5f,
  0x33, 0x37, 0x2f, 0x54, 0x65, 0x6e, 0x73, 0x6f, 0x72, 0x64, 0x6f, 0x74,
  0x2f, 0x50, 0x72, 0x6f, 0x64, 0x5f, 0x31, 0x00, 0x00, 0x00, 0x00, 0x00,
  0xd6, 0xf4, 0xff, 0xff, 0x00, 0x00, 0x00, 0x01, 0x14, 0x00, 0x00, 0x00,
  0x14, 0x00, 0x00, 0x00, 0x23, 0x00, 0x00, 0x00, 0x00, 0x00, 0x00, 0x02,
  0x68, 0x00, 0x00, 0x00, 0xb0, 0xf2, 0xff, 0xff, 0x5a, 0x00, 0x00, 0x00,
  0x73, 0x65, 0x71, 0x75, 0x65, 0x6e, 0x74, 0x69, 0x61, 0x6c, 0x5f, 0x31,
  0x32, 0x2f, 0x64, 0x65, 0x6e, 0x73, 0x65, 0x5f, 0x33, 0x37, 0x2f, 0x54,
  0x65, 0x6e, 0x73, 0x6f, 0x72, 0x64, 0x6f, 0x74, 0x2f, 0x47, 0x61, 0x74,
  0x68, 0x65, 0x72, 0x56, 0x32, 0x5f, 0x31, 0x3b, 0x73, 0x65, 0x71, 0x75,
  0x65, 0x6e, 0x74, 0x69, 0x61, 0x6c, 0x5f, 0x31, 0x32, 0x2f, 0x64, 0x65,
  0x6e, 0x73, 0x65, 0x5f, 0x33, 0x36, 0x2f, 0x54, 0x65, 0x6e, 0x73, 0x6f,
  0x72, 0x64, 0x6f, 0x74, 0x2f, 0x47, 0x61, 0x74, 0x68, 0x65, 0x72, 0x56,
  0x32, 0x2f, 0x61, 0x78, 0x69, 0x73, 0x00, 0x00, 0x01, 0x00, 0x00, 0x00,
  0x01, 0x00, 0x00, 0x00, 0x5e, 0xf5, 0xff, 0xff, 0x00, 0x00, 0x00, 0x01,
  0x14, 0x00, 0x00, 0x00, 0x14, 0x00, 0x00, 0x00, 0x22, 0x00, 0x00, 0x00,
  0x00, 0x00, 0x00, 0x02, 0x38, 0x00, 0x00, 0x00, 0x38, 0xf3, 0xff, 0xff,
  0x29, 0x00, 0x00, 0x00, 0x73, 0x65, 0x71, 0x75, 0x65, 0x6e, 0x74, 0x69,
  0x61, 0x6c, 0x5f, 0x31, 0x32, 0x2f, 0x64, 0x65, 0x6e, 0x73, 0x65, 0x5f,
  0x33, 0x37, 0x2f, 0x54, 0x65, 0x6e, 0x73, 0x6f, 0x72, 0x64, 0x6f, 0x74,
  0x2f, 0x63, 0x6f, 0x6e, 0x63, 0x61, 0x74, 0x5f, 0x31, 0x00, 0x00, 0x00,
  0x01, 0x00, 0x00, 0x00, 0x03, 0x00, 0x00, 0x00, 0xb6, 0xf5, 0xff, 0xff,
  0x00, 0x00, 0x00, 0x01, 0x14, 0x00, 0x00, 0x00, 0x14, 0x00, 0x00, 0x00,
  0x21, 0x00, 0x00, 0x00, 0x00, 0x00, 0x00, 0x02, 0x34, 0x00, 0x00, 0x00,
  0x90, 0xf3, 0xff, 0xff, 0x25, 0x00, 0x00, 0x00, 0x73, 0x65, 0x71, 0x75,
  0x65, 0x6e, 0x74, 0x69, 0x61, 0x6c, 0x5f, 0x31, 0x32, 0x2f, 0x64, 0x65,
  0x6e, 0x73, 0x65, 0x5f, 0x33, 0x37, 0x2f, 0x54, 0x65, 0x6e, 0x73, 0x6f,
  0x72, 0x64, 0x6f, 0x74, 0x2f, 0x50, 0x72, 0x6f, 0x64, 0x00, 0x00, 0x00,
  0x00, 0x00, 0x00, 0x00, 0x06, 0xf6, 0xff, 0xff, 0x00, 0x00, 0x00, 0x01,
  0x14, 0x00, 0x00, 0x00, 0x14, 0x00, 0x00, 0x00, 0x20, 0x00, 0x00, 0x00,
  0x00, 0x00, 0x00, 0x02, 0x68, 0x00, 0x00, 0x00, 0xe0, 0xf3, 0xff, 0xff,
  0x58, 0x00, 0x00, 0x00, 0x73, 0x65, 0x71, 0x75, 0x65, 0x6e, 0x74, 0x69,
  0x61, 0x6c, 0x5f, 0x31, 0x32, 0x2f, 0x64, 0x65, 0x6e, 0x73, 0x65, 0x5f,
  0x33, 0x37, 0x2f, 0x54, 0x65, 0x6e, 0x73, 0x6f, 0x72, 0x64, 0x6f, 0x74,
  0x2f, 0x47, 0x61, 0x74, 0x68, 0x65, 0x72, 0x56, 0x32, 0x3b, 0x73, 0x65,
  0x71, 0x75, 0x65, 0x6e, 0x74, 0x69, 0x61, 0x6c, 0x5f, 0x31, 0x32, 0x2f,
  0x64, 0x65, 0x6e, 0x73, 0x65, 0x5f, 0x33, 0x36, 0x2f, 0x54, 0x65, 0x6e,
  0x73, 0x6f, 0x72, 0x64, 0x6f, 0x74, 0x2f, 0x47, 0x61, 0x74, 0x68, 0x65,
  0x72, 0x56, 0x32, 0x2f, 0x61, 0x78, 0x69, 0x73, 0x00, 0x00, 0x00, 0x00,
  0x01, 0x00, 0x00, 0x00, 0x02, 0x00, 0x00, 0x00, 0x8e, 0xf6, 0xff, 0xff,
  0x00, 0x00, 0x00, 0x01, 0x14, 0x00, 0x00, 0x00, 0x14, 0x00, 0x00, 0x00,
  0x1f, 0x00, 0x00, 0x00, 0x00, 0x00, 0x00, 0x02, 0x34, 0x00, 0x00, 0x00,
  0x68, 0xf4, 0xff, 0xff, 0x26, 0x00, 0x00, 0x00, 0x73, 0x65, 0x71, 0x75,
  0x65, 0x6e, 0x74, 0x69, 0x61, 0x6c, 0x5f, 0x31, 0x32, 0x2f, 0x64, 0x65,
  0x6e, 0x73, 0x65, 0x5f, 0x33, 0x37, 0x2f, 0x54, 0x65, 0x6e, 0x73, 0x6f,
  0x72, 0x64, 0x6f, 0x74, 0x2f, 0x53, 0x68, 0x61, 0x70, 0x65, 0x00, 0x00,
  0x01, 0x00, 0x00, 0x00, 0x03, 0x00, 0x00, 0x00, 0x4e, 0xf5, 0xff, 0xff,
  0x00, 0x00, 0x00, 0x01, 0x14, 0x00, 0x00, 0x00, 0x20, 0x00, 0x00, 0x00,
  0x20, 0x00, 0x00, 0x00, 0x1e, 0x00, 0x00, 0x00, 0x58, 0x00, 0x00, 0x00,
  0x03, 0x00, 0x00, 0x00, 0xff, 0xff, 0xff, 0xff, 0xff, 0xff, 0xff, 0xff,
  0x0c, 0x00, 0x00, 0x00, 0xcc, 0xf4, 0xff, 0xff, 0x3a, 0x00, 0x00, 0x00,
  0x73, 0x65, 0x71, 0x75, 0x65, 0x6e, 0x74, 0x69, 0x61, 0x6c, 0x5f, 0x31,
  0x32, 0x2f, 0x64, 0x65, 0x6e, 0x73, 0x65, 0x5f, 0x33, 0x36, 0x2f, 0x52,
  0x65, 0x6c, 0x75, 0x3b, 0x73, 0x65, 0x71, 0x75, 0x65, 0x6e, 0x74, 0x69,
  0x61, 0x6c, 0x5f, 0x31, 0x32, 0x2f, 0x64, 0x65, 0x6e, 0x73, 0x65, 0x5f,
  0x33, 0x36, 0x2f, 0x42, 0x69, 0x61, 0x73, 0x41, 0x64, 0x64, 0x00, 0x00,
  0x03, 0x00, 0x00, 0x00, 0x01, 0x00, 0x00, 0x00, 0x01, 0x00, 0x00, 0x00,
  0x0c, 0x00, 0x00, 0x00, 0xce, 0xf5, 0xff, 0xff, 0x00, 0x00, 0x00, 0x01,
  0x14, 0x00, 0x00, 0x00, 0x20, 0x00, 0x00, 0x00, 0x20, 0x00, 0x00, 0x00,
  0x1d, 0x00, 0x00, 0x00, 0x40, 0x00, 0x00, 0x00, 0x03, 0x00, 0x00, 0x00,
  0xff, 0xff, 0xff, 0xff, 0xff, 0xff, 0xff, 0xff, 0xff, 0xff, 0xff, 0xff,
  0x4c, 0xf5, 0xff, 0xff, 0x20, 0x00, 0x00, 0x00, 0x73, 0x65, 0x71, 0x75,
  0x65, 0x6e, 0x74, 0x69, 0x61, 0x6c, 0x5f, 0x31, 0x32, 0x2f, 0x64, 0x65,
  0x6e, 0x73, 0x65, 0x5f, 0x33, 0x36, 0x2f, 0x54, 0x65, 0x6e, 0x73, 0x6f,
  0x72, 0x64, 0x6f, 0x74, 0x00, 0x00, 0x00, 0x00, 0x03, 0x00, 0x00, 0x00,
  0x01, 0x00, 0x00, 0x00, 0x01, 0x00, 0x00, 0x00, 0x01, 0x00, 0x00, 0x00,
  0x36, 0xf6, 0xff, 0xff, 0x00, 0x00, 0x00, 0x01, 0x14, 0x00, 0x00, 0x00,
  0x1c, 0x00, 0x00, 0x00, 0x1c, 0x00, 0x00, 0x00, 0x1c, 0x00, 0x00, 0x00,
  0x44, 0x00, 0x00, 0x00, 0x02, 0x00, 0x00, 0x00, 0xff, 0xff, 0xff, 0xff,
  0x0c, 0x00, 0x00, 0x00, 0xb0, 0xf5, 0xff, 0xff, 0x28, 0x00, 0x00, 0x00,
  0x73, 0x65, 0x71, 0x75, 0x65, 0x6e, 0x74, 0x69, 0x61, 0x6c, 0x5f, 0x31,
  0x32, 0x2f, 0x64, 0x65, 0x6e, 0x73, 0x65, 0x5f, 0x33, 0x36, 0x2f, 0x54,
  0x65, 0x6e, 0x73, 0x6f, 0x72, 0x64, 0x6f, 0x74, 0x2f, 0x4d, 0x61, 0x74,
  0x4d, 0x75, 0x6c, 0x32, 0x00, 0x00, 0x00, 0x00, 0x02, 0x00, 0x00, 0x00,
  0x01, 0x00, 0x00, 0x00, 0x0c, 0x00, 0x00, 0x00, 0x9e, 0xf6, 0xff, 0xff,
  0x00, 0x00, 0x00, 0x01, 0x14, 0x00, 0x00, 0x00, 0x1c, 0x00, 0x00, 0x00,
  0x1c, 0x00, 0x00, 0x00, 0x1b, 0x00, 0x00, 0x00, 0x64, 0x00, 0x00, 0x00,
  0x02, 0x00, 0x00, 0x00, 0xff, 0xff, 0xff, 0xff, 0xff, 0xff, 0xff, 0xff,
  0x18, 0xf6, 0xff, 0xff, 0x48, 0x00, 0x00, 0x00, 0x73, 0x65, 0x71, 0x75,
  0x65, 0x6e, 0x74, 0x69, 0x61, 0x6c, 0x5f, 0x31, 0x32, 0x2f, 0x64, 0x65,
  0x6e, 0x73, 0x65, 0x5f, 0x33, 0x36, 0x2f, 0x54, 0x65, 0x6e, 0x73, 0x6f,
  0x72, 0x64, 0x6f, 0x74, 0x2f, 0x52, 0x65, 0x73, 0x68, 0x61, 0x70, 0x65,
  0x3b, 0x73, 0x65, 0x71, 0x75, 0x65, 0x6e, 0x74, 0x69, 0x61, 0x6c, 0x5f,
  0x31, 0x32, 0x2f, 0x72, 0x65, 0x73, 0x68, 0x61, 0x70, 0x65, 0x5f, 0x36,
  0x2f, 0x52, 0x65, 0x73, 0x68, 0x61, 0x70, 0x65, 0x00, 0x00, 0x00, 0x00,
  0x02, 0x00, 0x00, 0x00, 0x01, 0x00, 0x00, 0x00, 0x01, 0x00, 0x00, 0x00,
  0xba, 0xf8, 0xff, 0xff, 0x00, 0x00, 0x00, 0x01, 0x14, 0x00, 0x00, 0x00,
  0x14, 0x00, 0x00, 0x00, 0x1a, 0x00, 0x00, 0x00, 0x00, 0x00, 0x00, 0x02,
  0x34, 0x00, 0x00, 0x00, 0x94, 0xf6, 0xff, 0xff, 0x26, 0x00, 0x00, 0x00,
  0x73, 0x65, 0x71, 0x75, 0x65, 0x6e, 0x74, 0x69, 0x61, 0x6c, 0x5f, 0x31,
  0x32, 0x2f, 0x64, 0x65, 0x6e, 0x73, 0x65, 0x5f, 0x33, 0x36, 0x2f, 0x54,
  0x65, 0x6e, 0x73, 0x6f, 0x72, 0x64, 0x6f, 0x74, 0x2f, 0x73, 0x74, 0x61,
  0x63, 0x6b, 0x00, 0x00, 0x01, 0x00, 0x00, 0x00, 0x02, 0x00, 0x00, 0x00,
  0x0e, 0xf9, 0xff, 0xff, 0x00, 0x00, 0x00, 0x01, 0x14, 0x00, 0x00, 0x00,
  0x14, 0x00, 0x00, 0x00, 0x19, 0x00, 0x00, 0x00, 0x00, 0x00, 0x00, 0x02,
  0x34, 0x00, 0x00, 0x00, 0xe8, 0xf6, 0xff, 0xff, 0x27, 0x00, 0x00, 0x00,
  0x73, 0x65, 0x71, 0x75, 0x65, 0x6e, 0x74, 0x69, 0x61, 0x6c, 0x5f, 0x31,
  0x32, 0x2f, 0x64, 0x65, 0x6e, 0x73, 0x65, 0x5f, 0x33, 0x36, 0x2f, 0x54,
  0x65, 0x6e, 0x73, 0x6f, 0x72, 0x64, 0x6f, 0x74, 0x2f, 0x50, 0x72, 0x6f,
  0x64, 0x5f, 0x31, 0x00, 0x00, 0x00, 0x00, 0x00, 0x5e, 0xf9, 0xff, 0xff,
  0x00, 0x00, 0x00, 0x01, 0x14, 0x00, 0x00, 0x00, 0x14, 0x00, 0x00, 0x00,
  0x18, 0x00, 0x00, 0x00, 0x00, 0x00, 0x00, 0x02, 0x68, 0x00, 0x00, 0x00,
  0x38, 0xf7, 0xff, 0xff, 0x5a, 0x00, 0x00, 0x00, 0x73, 0x65, 0x71, 0x75,
  0x65, 0x6e, 0x74, 0x69, 0x61, 0x6c, 0x5f, 0x31, 0x32, 0x2f, 0x64, 0x65,
  0x6e, 0x73, 0x65, 0x5f, 0x33, 0x36, 0x2f, 0x54, 0x65, 0x6e, 0x73, 0x6f,
  0x72, 0x64, 0x6f, 0x74, 0x2f, 0x47, 0x61, 0x74, 0x68, 0x65, 0x72, 0x56,
  0x32, 0x5f, 0x31, 0x3b, 0x73, 0x65, 0x71, 0x75, 0x65, 0x6e, 0x74, 0x69,
  0x61, 0x6c, 0x5f, 0x31, 0x32, 0x2f, 0x64, 0x65, 0x6e, 0x73, 0x65, 0x5f,
  0x33, 0x36, 0x2f, 0x54, 0x65, 0x6e, 0x73, 0x6f, 0x72, 0x64, 0x6f, 0x74,
  0x2f, 0x47, 0x61, 0x74, 0x68, 0x65, 0x72, 0x56, 0x32, 0x2f, 0x61, 0x78,
  0x69, 0x73, 0x00, 0x00, 0x01, 0x00, 0x00, 0x00, 0x01, 0x00, 0x00, 0x00,
  0xe6, 0xf9, 0xff, 0xff, 0x00, 0x00, 0x00, 0x01, 0x14, 0x00, 0x00, 0x00,
  0x14, 0x00, 0x00, 0x00, 0x17, 0x00, 0x00, 0x00, 0x00, 0x00, 0x00, 0x02,
  0x38, 0x00, 0x00, 0x00, 0xc0, 0xf7, 0xff, 0xff, 0x29, 0x00, 0x00, 0x00,
  0x73, 0x65, 0x71, 0x75, 0x65, 0x6e, 0x74, 0x69, 0x61, 0x6c, 0x5f, 0x31,
  0x32, 0x2f, 0x64, 0x65, 0x6e, 0x73, 0x65, 0x5f, 0x33, 0x36, 0x2f, 0x54,
  0x65, 0x6e, 0x73, 0x6f, 0x72, 0x64, 0x6f, 0x74, 0x2f, 0x63, 0x6f, 0x6e,
  0x63, 0x61, 0x74, 0x5f, 0x31, 0x00, 0x00, 0x00, 0x01, 0x00, 0x00, 0x00,
  0x03, 0x00, 0x00, 0x00, 0x3e, 0xfa, 0xff, 0xff, 0x00, 0x00, 0x00, 0x01,
  0x14, 0x00, 0x00, 0x00, 0x14, 0x00, 0x00, 0x00, 0x16, 0x00, 0x00, 0x00,
  0x00, 0x00, 0x00, 0x02, 0x34, 0x00, 0x00, 0x00, 0x18, 0xf8, 0xff, 0xff,
  0x25, 0x00, 0x00, 0x00, 0x73, 0x65, 0x71, 0x75, 0x65, 0x6e, 0x74, 0x69,
  0x61, 0x6c, 0x5f, 0x31, 0x32, 0x2f, 0x64, 0x65, 0x6e, 0x73, 0x65, 0x5f,
  0x33, 0x36, 0x2f, 0x54, 0x65, 0x6e, 0x73, 0x6f, 0x72, 0x64, 0x6f, 0x74,
  0x2f, 0x50, 0x72, 0x6f, 0x64, 0x00, 0x00, 0x00, 0x00, 0x00, 0x00, 0x00,
  0x8e, 0xfa, 0xff, 0xff, 0x00, 0x00, 0x00, 0x01, 0x14, 0x00, 0x00, 0x00,
  0x14, 0x00, 0x00, 0x00, 0x15, 0x00, 0x00, 0x00, 0x00, 0x00, 0x00, 0x02,
  0x68, 0x00, 0x00, 0x00, 0x68, 0xf8, 0xff, 0xff, 0x58, 0x00, 0x00, 0x00,
  0x73, 0x65, 0x71, 0x75, 0x65, 0x6e, 0x74, 0x69, 0x61, 0x6c, 0x5f, 0x31,
  0x32, 0x2f, 0x64, 0x65, 0x6e, 0x73, 0x65, 0x5f, 0x33, 0x36, 0x2f, 0x54,
  0x65, 0x6e, 0x73, 0x6f, 0x72, 0x64, 0x6f, 0x74, 0x2f, 0x47, 0x61, 0x74,
  0x68, 0x65, 0x72, 0x56, 0x32, 0x3b, 0x73, 0x65, 0x71, 0x75, 0x65, 0x6e,
  0x74, 0x69, 0x61, 0x6c, 0x5f, 0x31, 0x32, 0x2f, 0x64, 0x65, 0x6e, 0x73,
  0x65, 0x5f, 0x33, 0x36, 0x2f, 0x54, 0x65, 0x6e, 0x73, 0x6f, 0x72, 0x64,
  0x6f, 0x74, 0x2f, 0x47, 0x61, 0x74, 0x68, 0x65, 0x72, 0x56, 0x32, 0x2f,
  0x61, 0x78, 0x69, 0x73, 0x00, 0x00, 0x00, 0x00, 0x01, 0x00, 0x00, 0x00,
  0x02, 0x00, 0x00, 0x00, 0x16, 0xfb, 0xff, 0xff, 0x00, 0x00, 0x00, 0x01,
  0x14, 0x00, 0x00, 0x00, 0x14, 0x00, 0x00, 0x00, 0x14, 0x00, 0x00, 0x00,
  0x00, 0x00, 0x00, 0x02, 0x34, 0x00, 0x00, 0x00, 0xf0, 0xf8, 0xff, 0xff,
  0x26, 0x00, 0x00, 0x00, 0x73, 0x65, 0x71, 0x75, 0x65, 0x6e, 0x74, 0x69,
  0x61, 0x6c, 0x5f, 0x31, 0x32, 0x2f, 0x64, 0x65, 0x6e, 0x73, 0x65, 0x5f,
  0x33, 0x36, 0x2f, 0x54, 0x65, 0x6e, 0x73, 0x6f, 0x72, 0x64, 0x6f, 0x74,
  0x2f, 0x53, 0x68, 0x61, 0x70, 0x65, 0x00, 0x00, 0x01, 0x00, 0x00, 0x00,
  0x03, 0x00, 0x00, 0x00, 0xd6, 0xf9, 0xff, 0xff, 0x00, 0x00, 0x00, 0x01,
  0x14, 0x00, 0x00, 0x00, 0x20, 0x00, 0x00, 0x00, 0x20, 0x00, 0x00, 0x00,
  0x13, 0x00, 0x00, 0x00, 0x3c, 0x00, 0x00, 0x00, 0x03, 0x00, 0x00, 0x00,
  0xff, 0xff, 0xff, 0xff, 0x1e, 0x00, 0x00, 0x00, 0x1e, 0x00, 0x00, 0x00,
  0x54, 0xf9, 0xff, 0xff, 0x1f, 0x00, 0x00, 0x00, 0x73, 0x65, 0x71, 0x75,
  0x65, 0x6e, 0x74, 0x69, 0x61, 0x6c, 0x5f, 0x31, 0x32, 0x2f, 0x72, 0x65,
  0x73, 0x68, 0x61, 0x70, 0x65, 0x5f, 0x36, 0x2f, 0x52, 0x65, 0x73, 0x68,
  0x61, 0x70, 0x65, 0x00, 0x03, 0x00, 0x00, 0x00, 0x01, 0x00, 0x00, 0x00,
  0x1e, 0x00, 0x00, 0x00, 0x1e, 0x00, 0x00, 0x00, 0xce, 0xfb, 0xff, 0xff,
  0x00, 0x00, 0x00, 0x01, 0x14, 0x00, 0x00, 0x00, 0x14, 0x00, 0x00, 0x00,
  0x12, 0x00, 0x00, 0x00, 0x00, 0x00, 0x00, 0x02, 0x34, 0x00, 0x00, 0x00,
  0xa8, 0xf9, 0xff, 0xff, 0x25, 0x00, 0x00, 0x00, 0x73, 0x65, 0x71, 0x75,
  0x65, 0x6e, 0x74, 0x69, 0x61, 0x6c, 0x5f, 0x31, 0x32, 0x2f, 0x72, 0x65,
  0x73, 0x68, 0x61, 0x70, 0x65, 0x5f, 0x36, 0x2f, 0x52, 0x65, 0x73, 0x68,
  0x61, 0x70, 0x65, 0x2f, 0x73, 0x68, 0x61, 0x70, 0x65, 0x00, 0x00, 0x00,
  0x01, 0x00, 0x00, 0x00, 0x03, 0x00, 0x00, 0x00, 0x22, 0xfc, 0xff, 0xff,
  0x00, 0x00, 0x00, 0x01, 0x14, 0x00, 0x00, 0x00, 0x14, 0x00, 0x00, 0x00,
  0x11, 0x00, 0x00, 0x00, 0x00, 0x00, 0x00, 0x02, 0x34, 0x00, 0x00, 0x00,
  0xfc, 0xf9, 0xff, 0xff, 0x25, 0x00, 0x00, 0x00, 0x73, 0x65, 0x71, 0x75,
  0x65, 0x6e, 0x74, 0x69, 0x61, 0x6c, 0x5f, 0x31, 0x32, 0x2f, 0x72, 0x65,
  0x73, 0x68, 0x61, 0x70, 0x65, 0x5f, 0x36, 0x2f, 0x73, 0x74, 0x72, 0x69,
  0x64, 0x65, 0x64, 0x5f, 0x73, 0x6c, 0x69, 0x63, 0x65, 0x00, 0x00, 0x00,
  0x00, 0x00, 0x00, 0x00, 0x72, 0xfc, 0xff, 0xff, 0x00, 0x00, 0x00, 0x01,
  0x14, 0x00, 0x00, 0x00, 0x14, 0x00, 0x00, 0x00, 0x10, 0x00, 0x00, 0x00,
  0x00, 0x00, 0x00, 0x02, 0x2c, 0x00, 0x00, 0x00, 0x4c, 0xfa, 0xff, 0xff,
  0x1d, 0x00, 0x00, 0x00, 0x73, 0x65, 0x71, 0x75, 0x65, 0x6e, 0x74, 0x69,
  0x61, 0x6c, 0x5f, 0x31, 0x32, 0x2f, 0x72, 0x65, 0x73, 0x68, 0x61, 0x70,
  0x65, 0x5f, 0x36, 0x2f, 0x53, 0x68, 0x61, 0x70, 0x65, 0x00, 0x00, 0x00,
  0x01, 0x00, 0x00, 0x00, 0x02, 0x00, 0x00, 0x00, 0x9a, 0xfb, 0xff, 0xff,
  0x00, 0x00, 0x00, 0x01, 0x10, 0x00, 0x00, 0x00, 0x10, 0x00, 0x00, 0x00,
  0x0f, 0x00, 0x00, 0x00, 0x2c, 0x00, 0x00, 0x00, 0x94, 0xfa, 0xff, 0xff,
  0x1d, 0x00, 0x00, 0x00, 0x73, 0x65, 0x71, 0x75, 0x65, 0x6e, 0x74, 0x69,
  0x61, 0x6c, 0x5f, 0x31, 0x32, 0x2f, 0x64, 0x65, 0x6e, 0x73, 0x65, 0x5f,
  0x33, 0x38, 0x2f, 0x4d, 0x61, 0x74, 0x4d, 0x75, 0x6c, 0x00, 0x00, 0x00,
  0x02, 0x00, 0x00, 0x00, 0x04, 0x00, 0x00, 0x00, 0x78, 0x00, 0x00, 0x00,
  0xe6, 0xfb, 0xff, 0xff, 0x00, 0x00, 0x00, 0x01, 0x10, 0x00, 0x00, 0x00,
  0x10, 0x00, 0x00, 0x00, 0x0e, 0x00, 0x00, 0x00, 0x34, 0x00, 0x00, 0x00,
  0xe0, 0xfa, 0xff, 0xff, 0x27, 0x00, 0x00, 0x00, 0x73, 0x65, 0x71, 0x75,
  0x65, 0x6e, 0x74, 0x69, 0x61, 0x6c, 0x5f, 0x31, 0x32, 0x2f, 0x64, 0x65,
  0x6e, 0x73, 0x65, 0x5f, 0x33, 0x37, 0x2f, 0x54, 0x65, 0x6e, 0x73, 0x6f,
  0x72, 0x64, 0x6f, 0x74, 0x2f, 0x4d, 0x61, 0x74, 0x4d, 0x75, 0x6c, 0x00,
  0x02, 0x00, 0x00, 0x00, 0x04, 0x00, 0x00, 0x00, 0x0c, 0x00, 0x00, 0x00,
  0x3a, 0xfc, 0xff, 0xff, 0x00, 0x00, 0x00, 0x01, 0x10, 0x00, 0x00, 0x00,
  0x10, 0x00, 0x00, 0x00, 0x0d, 0x00, 0x00, 0x00, 0x38, 0x00, 0x00, 0x00,
  0x34, 0xfb, 0xff, 0xff, 0x28, 0x00, 0x00, 0x00, 0x73, 0x65, 0x71, 0x75,
  0x65, 0x6e, 0x74, 0x69, 0x61, 0x6c, 0x5f, 0x31, 0x32, 0x2f, 0x64, 0x65,
  0x6e, 0x73, 0x65, 0x5f, 0x33, 0x36, 0x2f, 0x54, 0x65, 0x6e, 0x73, 0x6f,
  0x72, 0x64, 0x6f, 0x74, 0x2f, 0x4d, 0x61, 0x74, 0x4d, 0x75, 0x6c, 0x31,
  0x00, 0x00, 0x00, 0x00, 0x02, 0x00, 0x00, 0x00, 0x0c, 0x00, 0x00, 0x00,
  0x1e, 0x00, 0x00, 0x00, 0xb6, 0xfd, 0xff, 0xff, 0x00, 0x00, 0x00, 0x01,
  0x14, 0x00, 0x00, 0x00, 0x14, 0x00, 0x00, 0x00, 0x0c, 0x00, 0x00, 0x00,
  0x00, 0x00, 0x00, 0x02, 0x34, 0x00, 0x00, 0x00, 0x90, 0xfb, 0xff, 0xff,
  0x26, 0x00, 0x00, 0x00, 0x73, 0x65, 0x71, 0x75, 0x65, 0x6e, 0x74, 0x69,
  0x61, 0x6c, 0x5f, 0x31, 0x32, 0x2f, 0x64, 0x65, 0x6e, 0x73, 0x65, 0x5f,
  0x33, 0x36, 0x2f, 0x54, 0x65, 0x6e, 0x73, 0x6f, 0x72, 0x64, 0x6f, 0x74,
  0x2f, 0x43, 0x6f, 0x6e, 0x73, 0x74, 0x00, 0x00, 0x01, 0x00, 0x00, 0x00,
  0x01, 0x00, 0x00, 0x00, 0x0a, 0xfe, 0xff, 0xff, 0x00, 0x00, 0x00, 0x01,
  0x14, 0x00, 0x00, 0x00, 0x14, 0x00, 0x00, 0x00, 0x0b, 0x00, 0x00, 0x00,
  0x00, 0x00, 0x00, 0x02, 0x38, 0x00, 0x00, 0x00, 0xe4, 0xfb, 0xff, 0xff,
  0x28, 0x00, 0x00, 0x00, 0x73, 0x65, 0x71, 0x75, 0x65, 0x6e, 0x74, 0x69,
  0x61, 0x6c, 0x5f, 0x31, 0x32, 0x2f, 0x64, 0x65, 0x6e, 0x73, 0x65, 0x5f,
  0x33, 0x36, 0x2f, 0x54, 0x65, 0x6e, 0x73, 0x6f, 0x72, 0x64, 0x6f, 0x74,
  0x2f, 0x43, 0x6f, 0x6e, 0x73, 0x74, 0x5f, 0x32, 0x00, 0x00, 0x00, 0x00,
  0x01, 0x00, 0x00, 0x00, 0x01, 0x00, 0x00, 0x00, 0x62, 0xfe, 0xff, 0xff,
  0x00, 0x00, 0x00, 0x01, 0x14, 0x00, 0x00, 0x00, 0x14, 0x00, 0x00, 0x00,
  0x0a, 0x00, 0x00, 0x00, 0x00, 0x00, 0x00, 0x02, 0x34, 0x00, 0x00, 0x00,
  0x3c, 0xfc, 0xff, 0xff, 0x25, 0x00, 0x00, 0x00, 0x73, 0x65, 0x71, 0x75,
  0x65, 0x6e, 0x74, 0x69, 0x61, 0x6c, 0x5f, 0x31, 0x32, 0x2f, 0x64, 0x65,
  0x6e, 0x73, 0x65, 0x5f, 0x33, 0x36, 0x2f, 0x54, 0x65, 0x6e, 0x73, 0x6f,
  0x72, 0x64, 0x6f, 0x74, 0x2f, 0x61, 0x78, 0x65, 0x73, 0x00, 0x00, 0x00,
  0x01, 0x00, 0x00, 0x00, 0x01, 0x00, 0x00, 0x00, 0xb6, 0xfe, 0xff, 0xff,
  0x00, 0x00, 0x00, 0x01, 0x14, 0x00, 0x00, 0x00, 0x14, 0x00, 0x00, 0x00,
  0x09, 0x00, 0x00, 0x00, 0x00, 0x00, 0x00, 0x02, 0x34, 0x00, 0x00, 0x00,
  0x90, 0xfc, 0xff, 0xff, 0x25, 0x00, 0x00, 0x00, 0x73, 0x65, 0x71, 0x75,
  0x65, 0x6e, 0x74, 0x69, 0x61, 0x6c, 0x5f, 0x31, 0x32, 0x2f, 0x64, 0x65,
  0x6e, 0x73, 0x65, 0x5f, 0x33, 0x36, 0x2f, 0x54, 0x65, 0x6e, 0x73, 0x6f,
  0x72, 0x64, 0x6f, 0x74, 0x2f, 0x66, 0x72, 0x65, 0x65, 0x00, 0x00, 0x00,
  0x01, 0x00, 0x00, 0x00, 0x02, 0x00, 0x00, 0x00, 0x0a, 0xff, 0xff, 0xff,
  0x00, 0x00, 0x00, 0x01, 0x14, 0x00, 0x00, 0x00, 0x14, 0x00, 0x00, 0x00,
  0x08, 0x00, 0x00, 0x00, 0x00, 0x00, 0x00, 0x02, 0x38, 0x00, 0x00, 0x00,
  0xe4, 0xfc, 0xff, 0xff, 0x28, 0x00, 0x00, 0x00, 0x73, 0x65, 0x71, 0x75,
  0x65, 0x6e, 0x74, 0x69, 0x61, 0x6c, 0x5f, 0x31, 0x32, 0x2f, 0x64, 0x65,
  0x6e, 0x73, 0x65, 0x5f, 0x33, 0x37, 0x2f, 0x54, 0x65, 0x6e, 0x73, 0x6f,
  0x72, 0x64, 0x6f, 0x74, 0x2f, 0x43, 0x6f, 0x6e, 0x73, 0x74, 0x5f, 0x32,
  0x00, 0x00, 0x00, 0x00, 0x01, 0x00, 0x00, 0x00, 0x01, 0x00, 0x00, 0x00,
  0x62, 0xff, 0xff, 0xff, 0x00, 0x00, 0x00, 0x01, 0x14, 0x00, 0x00, 0x00,
  0x14, 0x00, 0x00, 0x00, 0x07, 0x00, 0x00, 0x00, 0x00, 0x00, 0x00, 0x02,
  0x2c, 0x00, 0x00, 0x00, 0x3c, 0xfd, 0xff, 0xff, 0x1d, 0x00, 0x00, 0x00,
  0x73, 0x65, 0x71, 0x75, 0x65, 0x6e, 0x74, 0x69, 0x61, 0x6c, 0x5f, 0x31,
  0x32, 0x2f, 0x66, 0x6c, 0x61, 0x74, 0x74, 0x65, 0x6e, 0x5f, 0x34, 0x2f,
  0x43, 0x6f, 0x6e, 0x73, 0x74, 0x00, 0x00, 0x00, 0x01, 0x00, 0x00, 0x00,
  0x02, 0x00, 0x00, 0x00, 0xae, 0xff, 0xff, 0xff, 0x00, 0x00, 0x00, 0x01,
  0x14, 0x00, 0x00, 0x00, 0x14, 0x00, 0x00, 0x00, 0x06, 0x00, 0x00, 0x00,
  0x00, 0x00, 0x00, 0x02, 0x34, 0x00, 0x00, 0x00, 0x88, 0xfd, 0xff, 0xff,
  0x27, 0x00, 0x00, 0x00, 0x73, 0x65, 0x71, 0x75, 0x65, 0x6e, 0x74, 0x69,
  0x61, 0x6c, 0x5f, 0x31, 0x32, 0x2f, 0x72, 0x65, 0x73, 0x68, 0x61, 0x70,
  0x65, 0x5f, 0x36, 0x2f, 0x52, 0x65, 0x73, 0x68, 0x61, 0x70, 0x65, 0x2f,
  0x73, 0x68, 0x61, 0x70, 0x65, 0x2f, 0x31, 0x00, 0x00, 0x00, 0x00, 0x00,
  0x00, 0x00, 0x16, 0x00, 0x1c, 0x00, 0x18, 0x00, 0x17, 0x00, 0x10, 0x00,
  0x0c, 0x00, 0x08, 0x00, 0x00, 0x00, 0x00, 0x00, 0x00, 0x00, 0x07, 0x00,
  0x16, 0x00, 0x00, 0x00, 0x00, 0x00, 0x00, 0x01, 0x14, 0x00, 0x00, 0x00,
  0x14, 0x00, 0x00, 0x00, 0x05, 0x00, 0x00, 0x00, 0x00, 0x00, 0x00, 0x02,
  0x3c, 0x00, 0x00, 0x00, 0xf0, 0xfd, 0xff, 0xff, 0x2d, 0x00, 0x00, 0x00,
  0x73, 0x65, 0x71, 0x75, 0x65, 0x6e, 0x74, 0x69, 0x61, 0x6c, 0x5f, 0x31,
  0x32, 0x2f, 0x72, 0x65, 0x73, 0x68, 0x61, 0x70, 0x65, 0x5f, 0x36, 0x2f,
  0x73, 0x74, 0x72, 0x69, 0x64, 0x65, 0x64, 0x5f, 0x73, 0x6c, 0x69, 0x63,
  0x65, 0x2f, 0x73, 0x74, 0x61, 0x63, 0x6b, 0x5f, 0x31, 0x00, 0x00, 0x00,
  0x01, 0x00, 0x00, 0x00, 0x01, 0x00, 0x00, 0x00, 0x4e, 0xff, 0xff, 0xff,
  0x00, 0x00, 0x00, 0x01, 0x10, 0x00, 0x00, 0x00, 0x10, 0x00, 0x00, 0x00,
  0x04, 0x00, 0x00, 0x00, 0x3c, 0x00, 0x00, 0x00, 0x48, 0xfe, 0xff, 0xff,
  0x2d, 0x00, 0x00, 0x00, 0x73, 0x65, 0x71, 0x75, 0x65, 0x6e, 0x74, 0x69,
  0x61, 0x6c, 0x5f, 0x31, 0x32, 0x2f, 0x64, 0x65, 0x6e, 0x73, 0x65, 0x5f,
  0x33, 0x36, 0x2f, 0x42, 0x69, 0x61, 0x73, 0x41, 0x64, 0x64, 0x2f, 0x52,
  0x65, 0x61, 0x64, 0x56, 0x61, 0x72, 0x69, 0x61, 0x62, 0x6c, 0x65, 0x4f,
  0x70, 0x00, 0x00, 0x00, 0x01, 0x00, 0x00, 0x00, 0x0c, 0x00, 0x00, 0x00,
  0xa6, 0xff, 0xff, 0xff, 0x00, 0x00, 0x00, 0x01, 0x10, 0x00, 0x00, 0x00,
  0x10, 0x00, 0x00, 0x00, 0x03, 0x00, 0x00, 0x00, 0x3c, 0x00, 0x00, 0x00,
  0xa0, 0xfe, 0xff, 0xff, 0x2d, 0x00, 0x00, 0x00, 0x73, 0x65, 0x71, 0x75,
  0x65, 0x6e, 0x74, 0x69, 0x61, 0x6c, 0x5f, 0x31, 0x32, 0x2f, 0x64, 0x65,
  0x6e, 0x73, 0x65, 0x5f, 0x33, 0x37, 0x2f, 0x42, 0x69, 0x61, 0x73, 0x41,
  0x64, 0x64, 0x2f, 0x52, 0x65, 0x61, 0x64, 0x56, 0x61, 0x72, 0x69, 0x61,
  0x62, 0x6c, 0x65, 0x4f, 0x70, 0x00, 0x00, 0x00, 0x01, 0x00, 0x00, 0x00,
  0x04, 0x00, 0x00, 0x00, 0x00, 0x00, 0x16, 0x00, 0x18, 0x00, 0x14, 0x00,
  0x00, 0x00, 0x10, 0x00, 0x0c, 0x00, 0x08, 0x00, 0x00, 0x00, 0x00, 0x00,
  0x00, 0x00, 0x07, 0x00, 0x16, 0x00, 0x00, 0x00, 0x00, 0x00, 0x00, 0x01,
  0x10, 0x00, 0x00, 0x00, 0x10, 0x00, 0x00, 0x00, 0x02, 0x00, 0x00, 0x00,
  0x3c, 0x00, 0x00, 0x00, 0x10, 0xff, 0xff, 0xff, 0x2d, 0x00, 0x00, 0x00,
  0x73, 0x65, 0x71, 0x75, 0x65, 0x6e, 0x74, 0x69, 0x61, 0x6c, 0x5f, 0x31,
  0x32, 0x2f, 0x64, 0x65, 0x6e, 0x73, 0x65, 0x5f, 0x33, 0x38, 0x2f, 0x42,
  0x69, 0x61, 0x73, 0x41, 0x64, 0x64, 0x2f, 0x52, 0x65, 0x61, 0x64, 0x56,
  0x61, 0x72, 0x69, 0x61, 0x62, 0x6c, 0x65, 0x4f, 0x70, 0x00, 0x00, 0x00,
  0x01, 0x00, 0x00, 0x00, 0x04, 0x00, 0x00, 0x00, 0x00, 0x00, 0x16, 0x00,
  0x1c, 0x00, 0x18, 0x00, 0x00, 0x00, 0x14, 0x00, 0x10, 0x00, 0x0c, 0x00,
  0x00, 0x00, 0x00, 0x00, 0x08, 0x00, 0x07, 0x00, 0x16, 0x00, 0x00, 0x00,
  0x00, 0x00, 0x00, 0x01, 0x14, 0x00, 0x00, 0x00, 0x1c, 0x00, 0x00, 0x00,
  0x1c, 0x00, 0x00, 0x00, 0x01, 0x00, 0x00, 0x00, 0x3c, 0x00, 0x00, 0x00,
  0x02, 0x00, 0x00, 0x00, 0xff, 0xff, 0xff, 0xff, 0x84, 0x03, 0x00, 0x00,
  0x90, 0xff, 0xff, 0xff, 0x21, 0x00, 0x00, 0x00, 0x73, 0x65, 0x72, 0x76,
  0x69, 0x6e, 0x67, 0x5f, 0x64, 0x65, 0x66, 0x61, 0x75, 0x6c, 0x74, 0x5f,
  0x72, 0x65, 0x73, 0x68, 0x61, 0x70, 0x65, 0x5f, 0x36, 0x5f, 0x69, 0x6e,
  0x70, 0x75, 0x74, 0x3a, 0x30, 0x00, 0x00, 0x00, 0x02, 0x00, 0x00, 0x00,
  0x01, 0x00, 0x00, 0x00, 0x84, 0x03, 0x00, 0x00, 0x0a, 0x00, 0x00, 0x00,
  0x9c, 0x00, 0x00, 0x00, 0x80, 0x00, 0x00, 0x00, 0x70, 0x00, 0x00, 0x00,
  0x60, 0x00, 0x00, 0x00, 0x50, 0x00, 0x00, 0x00, 0x40, 0x00, 0x00, 0x00,
  0x30, 0x00, 0x00, 0x00, 0x20, 0x00, 0x00, 0x00, 0x18, 0x00, 0x00, 0x00,
  0x04, 0x00, 0x00, 0x00, 0x98, 0xff, 0xff, 0xff, 0x19, 0x00, 0x00, 0x00,
  0x00, 0x00, 0x00, 0x19, 0x04, 0x00, 0x04, 0x00, 0x04, 0x00, 0x00, 0x00,
  0xac, 0xff, 0xff, 0xff, 0x09, 0x00, 0x00, 0x00, 0x00, 0x00, 0x00, 0x09,
  0xb8, 0xff, 0xff, 0xff, 0x02, 0x00, 0x00, 0x00, 0x00, 0x00, 0x00, 0x02,
  0xc4, 0xff, 0xff, 0xff, 0x51, 0x00, 0x00, 0x00, 0x00, 0x00, 0x00, 0x51,
  0xd0, 0xff, 0xff, 0xff, 0x24, 0x00, 0x00, 0x00, 0x00, 0x00, 0x00, 0x24,
  0xdc, 0xff, 0xff, 0xff, 0x16, 0x00, 0x00, 0x00, 0x00, 0x00, 0x00, 0x16,
  0xe8, 0xff, 0xff, 0xff, 0x53, 0x00, 0x00, 0x00, 0x00, 0x00, 0x00, 0x53,
  0xf4, 0xff, 0xff, 0xff, 0x2d, 0x00, 0x00, 0x00, 0x00, 0x00, 0x00, 0x2d,
  0x0c, 0x00, 0x0c, 0x00, 0x0b, 0x00, 0x00, 0x00, 0x00, 0x00, 0x04, 0x00,
  0x0c, 0x00, 0x00, 0x00, 0x4d, 0x00, 0x00, 0x00, 0x00, 0x00, 0x00, 0x4d
};
